/**
  ******************************************************************************
  * @file    network_data_params.c
  * @author  AST Embedded Analytics Research Platform
  * @date    2025-05-03T18:30:18+0200
  * @brief   AI Tool Automatic Code Generator for Embedded NN computing
  ******************************************************************************
  * Copyright (c) 2025 STMicroelectronics.
  * All rights reserved.
  *
  * This software is licensed under terms that can be found in the LICENSE file
  * in the root directory of this software component.
  * If no LICENSE file comes with this software, it is provided AS-IS.
  ******************************************************************************
  */

#include "network_data_params.h"


/**  Activations Section  ****************************************************/
ai_handle g_network_activations_table[1 + 2] = {
  AI_HANDLE_PTR(AI_MAGIC_MARKER),
  AI_HANDLE_PTR(NULL),
  AI_HANDLE_PTR(AI_MAGIC_MARKER),
};




/**  Weights Section  ********************************************************/
AI_ALIGNED(32)
const ai_u64 s_network_weights_array_u64[147111] = {
  0x360635e676beecf4U, 0x7fcd75cdcf12d316U, 0xaac7c1fd1ba5ad25U, 0x82871581bd9ebfb1U,
  0xda837ee70bae67aeU, 0xa9ce841194757e5bU, 0x4b8724eebd445ab1U, 0x112d9d9f62c4f4e3U,
  0xc2a18a66d53b062bU, 0xc85b23e40d7f3a04U, 0xf98a871e5b5800d0U, 0x600ce7819017bf19U,
  0x141b5a980243fc4fU, 0x400533195b60f957U, 0x47d7077b8ff5022cU, 0x52b40ce2e9351c60U,
  0xd7fa89e23826041U, 0x1de429eb251d4b65U, 0x519a3443e6f8933aU, 0x9378fbba7f54ce8cU,
  0x2b1556c6b549c8e3U, 0xdb322b34d97f4588U, 0xa95dce6a6356e9deU, 0xb2819caef537bfaU,
  0x9b036ec75dfd80bU, 0x20da38f8c633e060U, 0x4b787fdf14b9c51cU, 0x64bbd8724838f019U,
  0x5cb6ea1daeff120cU, 0x9f20f767f79e0c3U, 0x7fc868fb27e403a5U, 0xee5e7127e8f83573U,
  0x503313744318c007U, 0xe3fc98a3eff624b7U, 0xea98ca0a8d10b181U, 0xf218c1ecde085db0U,
  0xb0ead6f59e85dcf0U, 0x4e4696a7f07b3a73U, 0xd97456c496426ac0U, 0x53ef4b2b9b6a9c7dU,
  0xe9172a7f2024U, 0x44ae00014d1bU, 0xffff1b22ffff6fe1U, 0xfffeaca0ffff961fU,
  0xffff091cfffefc92U, 0x23462fffe8612U, 0x673469fafffe52a1U, 0xecf666678972f3e5U,
  0xc15969ae054abdc8U, 0x31b9b391b3f30710U, 0x33703a0af201b154U, 0xe8480041cf19c706U,
  0x5ddf5317f4d706e4U, 0x7f6d0d16fe683173U, 0xe23420099ab3eb26U, 0x7d170762af99bd9dU,
  0xe233492faa531310U, 0x2fbf4aca3bc2de12U, 0xa22c41ebffd03d5fU, 0x5edab4c106d24020U,
  0xbea5a99690453e6eU, 0xd357c299a9375c13U, 0xb4c85cad559a54e8U, 0x49b697e9ddcb111dU,
  0x996cf0002d54b02dU, 0xa4b05b0de33d34deU, 0xd134289c31de0deU, 0xbd9c2c57689ce651U,
  0x97e981f1b4cd44fcU, 0x3fcd14290e3baeb6U, 0x920bb917dc6722f5U, 0xf79ebf67f89ccf3eU,
  0xa28a31de41ed5c44U, 0xc611fdb2e02b9eb1U, 0xe4e3fa0c53eb7092U, 0xe5fcb173d07dbcfbU,
  0x2db1d5d358d8a1ffU, 0x5d46d3397498813aU, 0xb6a6fd2e25d53aeaU, 0x3be0bfc94de4cc53U,
  0xbaf07e374ffa0ba2U, 0xfdc1eb44bfd90d71U, 0xe4f922324b476edfU, 0xf4553ea4847ffd9U,
  0x61f4762ca37fc74fU, 0x29f7542ecd34b4U, 0x7fa193d6fa57a561U, 0xcdc1222525459645U,
  0x4cf9310dcaa4dbeaU, 0xab45af0a2648ac33U, 0xa60d9423fd4bc624U, 0x9f814f490abf38ddU,
  0xd21b3b88a5fe1fd6U, 0x9420da02b9a22c91U, 0x5014c808d0ad110aU, 0x2817a5b4230e27fcU,
  0xd4c7999a9859bc24U, 0x9fe1c14f123433dcU, 0xad39c2b2deb2d603U, 0x45952954a43a2249U,
  0xb12c4d92a9d9ed8U, 0x23810948df2048f0U, 0x49c6fc2c4aedb00dU, 0x5f6283c0fcc76fe5U,
  0xd751f3f6d7cfaf31U, 0x585d25f845372204U, 0xa9e615c6a4b42bbaU, 0x621bf7f413d947d1U,
  0xcbf741d8d85dfaa8U, 0xafb13c3bcd1b23a7U, 0x17b03e77659be364U, 0xfa581b2df99d2113U,
  0xaabe39fe281d9cc2U, 0xf9050879386a3f3cU, 0xb233ac1f5b54d710U, 0xe4ab67ba46b4dbdbU,
  0x455170f1c3e101cfU, 0xe644e80d7c261417U, 0x3031cce16d6f3eb4U, 0xd1a551d448e1a253U,
  0x2a54965825bfd3f6U, 0x330fa5391fda7bd9U, 0x26a7bb00d33ed725U, 0x737beab5ae0aa91aU,
  0xe70ff7bb7f4f375fU, 0x5c5e07bd1e02bd2eU, 0xccb1c44b0e3a4a0dU, 0x6c12155adc093c25U,
  0xd12694e7d06c9dcbU, 0xbb9da2a013404621U, 0x4911cc52009f25f7U, 0xec344620ccefde4U,
  0xdd21fba698b986bfU, 0xb78f0b95c695e0d4U, 0x3b1487ebbc895414U, 0xb43715df60a55ab7U,
  0x7eefd67ec954e06U, 0x8cbbb7e252d3c5b0U, 0xf58a37551d8a4cb1U, 0x8c999b37daccf435U,
  0xb099810db3f54a90U, 0xa2a156822ae13876U, 0x491b46d94207ad65U, 0x51c7a2b6e4d42c4eU,
  0xc7c0b4bb89e173bcU, 0xa008f9efbb73c44eU, 0xd8d28fcd5c235eb3U, 0x992ce4c03265e455U,
  0x81e114045dc39c05U, 0x1e5095c8d4e3a9fdU, 0xa99e02541432f965U, 0x2fbd006572b0019U,
  0xb8c1d4f24c14fdd2U, 0x47c747fa20a8ec46U, 0xf9a7c0ceb3fd42b3U, 0xed634ea11f054542U,
  0xf9561272f833b470U, 0x3025e5c52bf5af2aU, 0x47a05910bc0eb276U, 0xe8cbd5b0125ea053U,
  0x3ee765a30c762414U, 0x6a0cc60b45aaee7fU, 0xf834d118f01d0e65U, 0x8e154ebd8dce5deU,
  0x4f096f2f1663b4b2U, 0x172ee141762e486cU, 0xd6535a29c4ddd6d3U, 0x33a9c3b751610320U,
  0x36f03f68522e6950U, 0x27e91b76bce84af3U, 0xf66102ef49f3e2fbU, 0xa94356f218fe6ef9U,
  0x30ee27f595a1074U, 0xe212c14cd0156c21U, 0xe2601dea566b5304U, 0x55162fc3c7b6e00dU,
  0x46f7b9a9aeb1c339U, 0x464ee91825b93954U, 0x53025325642103d4U, 0x816fd24b1e82d11aU,
  0xe5821b83070820d3U, 0x4a0ecf518b040c2aU, 0xea33e0b92efaa2f4U, 0x424e1a2c25a8bbbeU,
  0xaed69d15a09d2dd3U, 0xb55711d1379b5d0aU, 0xbacfcdcc4499415fU, 0xcfd8375a99ddfb57U,
  0x5232b1bdd1d8b9d3U, 0x499328d307e40ab3U, 0x95cc2536eca1f34eU, 0x4e17d5c6afd2f210U,
  0x3f18819cb0445b49U, 0xd2c9912ea219ed13U, 0x4cddce1847d7544eU, 0x523da2263494293aU,
  0xf25ceb51b45e92f8U, 0x7421e1f666097e3fU, 0x1c09ede4101deb48U, 0x2db7a5d6072a119cU,
  0x7357dd73ba7f335bU, 0xa432c3eed3058474U, 0x2c6b694dc35e403dU, 0xe96976c697fc303bU,
  0x2a4479047921fed5U, 0x3bd8b0b1698e9faU, 0x7707d9429d4502c2U, 0x1f8ce7ccc5f5ded4U,
  0x40110a05ead34a3U, 0xed1823b63ca1a21cU, 0xb90bd41b46d5f63aU, 0x3d3e34104aee9095U,
  0x2517d39d9c36f45bU, 0xba9c064248ada53fU, 0xad275044eece2ad1U, 0x49f7812934fab935U,
  0x1ee256bd374d68b5U, 0xbd9ccddddb3f8c25U, 0x2d4d07af409f08bcU, 0x16cce8d9001ef031U,
  0x34b9216082ba970cU, 0xbd4f20ed92c5f9ddU, 0x2c2a5f12b8d94444U, 0xc8cb2e643fc60444U,
  0x49223dd31381bf32U, 0xf2efa98cc2c4beffU, 0x3fb0270e0359e504U, 0xe47f54f7c43eda84U,
  0x33174da31f685b43U, 0xc725c772d82beffdU, 0xc016238d44e0e32dU, 0xcef09c475b3a5e27U,
  0x40cb1e16b1ad305eU, 0xe11187ae911ecdddU, 0x55f989224a212ef4U, 0xdae377f7cab7def5U,
  0xca9f000360f05c8U, 0x19eac389c02a2108U, 0x97e72e509ddbfdfbU, 0xba5bab9a2982b400U,
  0xca0742bbe94d5dcbU, 0xf8e0e4ff4c660afbU, 0xb615db369f812912U, 0xa4c032871207de2dU,
  0x4c3fb7dae4d14ca3U, 0x3df1d1548a214e01U, 0xe52cbb4ae74ce0adU, 0x6d8175f3fda5ba2U,
  0xc6f1ee0d95580cU, 0x935d6681ed711197U, 0x94854e2af05499dbU, 0xd0eacfb65c208dbbU,
  0x28b3eb25a9b8c54bU, 0x4cb6aa6c20345acdU, 0xbce7a9ac2dd4ca60U, 0x59f8517864e2a00U,
  0xf7b8beb0482cdcccU, 0xa5193c3e1fb6fc3bU, 0xe6d5105a270a40b6U, 0xb0b35610e15e7a1U,
  0xf1e9ed8fce9758cbU, 0x6bffe3e9d0051615U, 0xffffb83869a69dadU, 0xffffd02b00005c27U,
  0xffffe7dc00006a40U, 0x9740ffffbac0U, 0xffffa18f000036a1U, 0x41d4ffff96f6U,
  0x3e2effffaf1bU, 0x42b0fffff2d9U, 0x99517f920000569dU, 0x64147fae4cc68143U,
  0x9628b051e169b1d1U, 0xcc09924302f6c8a1U, 0x9aa81d7c8147939cU, 0x9a8161c96d814b00U,
  0xdd3db3457c0d8197U, 0x7f5f057f1fb9a97fU, 0x7573cd6d89e3695U, 0xdb308bb41e67968U,
  0x81e00af5cbd8af81U, 0x53783fe5dbea0f17U, 0x3781524d69283508U, 0x3468b2d57f3a54f5U,
  0xb168d21ca97f5c47U, 0xc3fd938eb6e160edU, 0xc0d35081a5939235U, 0x28aa86c7d52e98baU,
  0xfffff99a0f6f1c5bU, 0xfffff97efffff340U, 0xfffff73e000029a0U, 0x119efffffe0bU,
  0x124dffffedd2U, 0xfffffbfc000007beU, 0x1366fffff1baU, 0xfffff03400001224U,
  0x28de6b6900000db6U, 0xe781438ef1761beaU, 0xad92607f53d31861U, 0xf4645c70c38a5c8aU,
  0x57d21838dbd225d8U, 0xfbae81f5243aeb7bU, 0xd201c93aef20326fU, 0x8311b8394fc47f08U,
  0x7f9dc2ca4cb5dc0bU, 0xc2d8befe056636a4U, 0x70647d1cd6b35448U, 0x81734114dfc6f552U,
  0x188b8e218b918fe0U, 0xbc815289bfe8f849U, 0x961db50a7500610cU, 0xc16ce71b3cab8e52U,
  0xd1a4b7caef3f157fU, 0x81df790b030ccd01U, 0xc7107f2ce2fe217cU, 0xc7e268a0b3c9baa5U,
  0xf170092fce3f9611U, 0xeb9655407d40e3c9U, 0x7ff391439a49d781U, 0x6d7cc3f31057ec2eU,
  0x679c2bd4f14f76abU, 0x6f8e8915eab423beU, 0x3ba324a77f4924b2U, 0xe7565f7f0bbd4654U,
  0x791d9515d9554fa5U, 0x644a8ab7313281deU, 0xb3352472989c234aU, 0x5c9aa9cdc106d06eU,
  0x1fdf93228b7f320fU, 0xed6b549e880a5d52U, 0x18425196b0b137fU, 0x4cc17bbc8fbf481U,
  0x1f5ddf040df3f7f9U, 0x69d178f7fb49e6bU, 0xc3137fb35430bcf9U, 0xe1b6331ad62bcea3U,
  0x44a906933301167eU, 0xead0e81c6855475fU, 0xa10ddd4281df0746U, 0x5055702850df7fa3U,
  0x34c9369501247f94U, 0x684e5b00f7cf7f03U, 0x1001687f1efe17f9U, 0x25787b6bd7fb868dU,
  0xdeed5c3bd2aa655fU, 0xdbf7aae76f3c9b3dU, 0x1bb75353a6177f99U, 0xdc3eb7016a9f7f68U,
  0x1bc028b633df3a3bU, 0x7f782bf96fd102a2U, 0x81e3971557121ee8U, 0xd6a6b88ea4ddee74U,
  0x198112ddb6c7156aU, 0xf4ddf56fb4c733adU, 0xecfb4d4a8f1b32cbU, 0xf9f50b0657f807a0U,
  0x1939914ba256777fU, 0x460f6cc0357f4568U, 0xb7bc70d481c33a4cU, 0x2981980a6c8e448bU,
  0xffffe9d3b7e4c6ceU, 0xffffe95400000141U, 0x585000006ceU, 0xab10000016eU,
  0x958fffffcd1U, 0xfffffcb6000013fcU, 0xfffffe65ffffe0e9U, 0x3dcffffea8fU,
  0xffffed79fffffc8fU, 0xfffffe3c00001384U, 0xfffff6f7fffffa68U, 0xffffec27ffffec64U,
  0xfffffae0ffffe346U, 0xffffeb87ffffe46eU, 0x118400002770U, 0xffffe692ffffe70dU,
  0xfd9f2fb300002051U, 0x788109d6b205866fU, 0x13a1c06cff0e8a66U, 0x191d874c5bc5a6adU,
  0xa1dca6a8c7dc9ef9U, 0x8abf0aa4217f26f4U, 0xf601efb6edaa89ffU, 0xd7003619d44231d2U,
  0x3d9099ba4b6ee345U, 0xee47f127d757b419U, 0xe8dc6481363fc4ddU, 0x19c7bdf06b68bf6eU,
  0xe22ceeac7733aecaU, 0xa11af3449bf10437U, 0x930bc2c1af7fec8bU, 0xcedf33591579914U,
  0x9e47dba2b1fb8c4eU, 0xe3fac1439b81598aU, 0x36c687a9c53ab42aU, 0x26bc447d08f9dc2aU,
  0x5aabcc77c64773f4U, 0x50d8085539402a7aU, 0x354d1eb29e4e3806U, 0xf88925d096ad5281U,
  0xff243926e45df44U, 0x19813aa3eb0a1744U, 0xac21b348f2c3ad4dU, 0x2a19950a07900d59U,
  0xb3c5384afe068263U, 0x3c2ef6238a1c4c7aU, 0xea620d9fbf5c0ae0U, 0x76252ea5f0b64fdaU,
  0x9ebef8bc384c8194U, 0xce230b046ff9d05dU, 0x987f7fb8d5c8bfc8U, 0xf1bfaee8df00b97cU,
  0xe9972645e2d8b72bU, 0xdf39d007700d0681U, 0x46075e9885065fe5U, 0x6f6528c3062d1c06U,
  0x7a7592073f30bff4U, 0x29a1773a8d1ff6efU, 0x81742d8d99381d4cU, 0x371e3b2dc1f6a7b8U,
  0x360e15739713cc6dU, 0x7aac09572cc637d4U, 0xc8f2ec36e9a3a8ebU, 0x7f61ee2bde2df22cU,
  0xd74e02c53ad7fd36U, 0x5fe3ba0f3aeb8a08U, 0x198cd4f0cacc3c06U, 0x9eb036a54e068f5eU,
  0x9276f37c7f186322U, 0x4c41e2820e04fa62U, 0xf409aadd3552a1a4U, 0xd7c17e28ca7f0c0dU,
  0x7f8d1e5f72a1d5d5U, 0xf261b4e4314b0b27U, 0x358a47f824dd3491U, 0x9ac0d974d1586610U,
  0x4438c270185af58eU, 0x16b6dd8ff992e26aU, 0x6e68e99f2c81753fU, 0xac1bb72043d2c7f0U,
  0x24c8bbb3c126U, 0x9de00001933U, 0x1a7100002857U, 0x118bffffe24bU,
  0x24cefffff0ddU, 0x88ffffee80U, 0x82cffffe582U, 0xffffee59fffff2b1U,
  0xa7e6869900000f76U, 0xa9fe7ff85dbcfeafU, 0xd294b4439363efd9U, 0x1876af1af031e25dU,
  0x9093f22eda1cd705U, 0x81682c6e4362d1aeU, 0x9049f8d9bb35ed50U, 0x46dd3158e4d96174U,
  0xa15681d5a74b6afbU, 0x52b916f4046eb328U, 0x3286df5d7500df96U, 0x73054cfbe6b14592U,
  0x32d041504e77f0fbU, 0x65581e33dc2d1c70U, 0xf9d2759de979e74bU, 0xc75b46132c01020cU,
  0x4e2f0dd1a066317fU, 0x7009d1bc615b7e9fU, 0x21cf000864ca5581U, 0xde304f3828dfc5f3U,
  0x7cc59c932fb35ab6U, 0xfcda2cc518b1a6abU, 0xc7cf550a31e7a9c4U, 0xb97bf7cc6fb407f8U,
  0x9732ee777fe61b1aU, 0xedef36c73a3668bbU, 0xef6e214646a4a26cU, 0xb5e6d77f6c253725U,
  0x8914815a466323d3U, 0x9c92eba164cef516U, 0x3e1f71c93d12a9d8U, 0xfd9a5cbe0ea8a163U,
  0x34b0c7cdde9fcf4dU, 0x104eaceb492f6bafU, 0xec2c1b0dd9d94c47U, 0xe53b7126b5986dd8U,
  0x391f3f297fae128bU, 0x2368f74bdc9fe260U, 0xaf3b992618e4b030U, 0x2aaaeacbb0eec47fU,
  0xca34f9914d5d57fdU, 0x9b433ab3f16bde35U, 0x7fff9dc5423ad627U, 0xb1628a2bd5f5f442U,
  0xd5c11306f91758bfU, 0x567a116a13cff06bU, 0x3efb831686e93129U, 0x6e143b7fd34d2ea1U,
  0x406481e59c4d44d7U, 0xcbccd3b01398fd37U, 0x45a62c8240e9ed5eU, 0xde9286ab0ed645acU,
  0xac5881464d65205fU, 0x8f15d7874e6d4c2fU, 0x76d33e0a48e84d0U, 0xb9a05789c8fac02fU,
  0x315d6c7856a041f7U, 0x9d2b6fd3328afad7U, 0xb8a62e615ebdc81U, 0xa5f232967bb5dedaU,
  0xe9c94b315203e838U, 0x6279e40a89a0e941U, 0x6bb664b6950e5eefU, 0xca4c77b343cea775U,
  0x1b207fda6295U, 0xffffed98ffffebf1U, 0xffffe430ffffc401U, 0xffffd4f100001cf3U,
  0xfffff7290000261cU, 0xfffffcddffffed54U, 0x1990ffffdb5dU, 0xfffffe0a00001dfaU,
  0x81724c6effffef48U, 0xf54645941add36feU, 0x3154c5a3fe15ffb1U, 0x323e90810af6b064U,
  0xb57774844f440177U, 0xf9cca7620360e081U, 0x4f8fb527aeba3aabU, 0x7f03ea476821a8e3U,
  0x7523b481f1ef915eU, 0x905d4abf5a4a34f3U, 0xeac2f9df96a6a633U, 0x431a567f6d6a4cc5U,
  0x1e6d10d209dc671cU, 0xfd170ee62450f2bbU, 0x31e5f5e00de77f07U, 0x647fab7248e5deb5U,
  0x4ba3146a9efcfb9bU, 0x9b81ffe440cc107fU, 0x49b7b6d6fd4f4ad3U, 0x8dc6ae433f94816bU,
  0x1528c0e99daef4d6U, 0xda5fa66d819d2a64U, 0x66c613973eb1a29cU, 0x7e811b6c16df0febU,
  0x2521d52fdd6a5ff7U, 0x8187bc59be008a2dU, 0xb04e2b61afd77948U, 0x2da8672bc9845011U,
  0x38a6af91b9437281U, 0xe4e4f245e427ef7fU, 0x649a07e9a038edeaU, 0x81a4dbc1a9b2281aU,
  0xfffff3df8bf2efaeU, 0xf2efffffb2fU, 0x70dfffffcd0U, 0xfffff073ffffe002U,
  0xfffffa24000003d2U, 0xd3a0000274eU, 0xf1afffff24cU, 0xc0cfffff541U,
  0x277fc10b00002865U, 0x87c9d25c59cc81e8U, 0xfa8fcbc7e8a40b7fU, 0x7ff6688163c41a45U,
  0xfc20bd81503fc2adU, 0xba7a2aefbdde7a85U, 0x180167716b81895aU, 0x6fca1630231ff9d4U,
  0x4315dd42a6c891ecU, 0x68dda33507d3522eU, 0x7ff8813f21e561deU, 0xb4340533da6c62aeU,
  0x38332000af20d979U, 0x6c22b4d2b057a381U, 0xbe0c8d877f1e8746U, 0x717f7f90c4814f5aU,
  0xf25e5900dbdb81e5U, 0xecfaf77f81d8edc0U, 0x2a198cb7b88U, 0xfffff25800000e93U,
  0xf92fffff487U, 0x8e5fffff5eeU, 0xfffffc1800000628U, 0xfffff4e2fffffb74U,
  0xfffff967fffff324U, 0xd5e00001649U, 0xf682c65dffffff0bU, 0xacc27e818170697fU,
  0xfa40dc45439b60b5U, 0x963463ee20b903beU, 0xae456e267fd0d8e0U, 0x6481184749277c72U,
  0x180cc0c76a2878b6U, 0xf46b92b9dd737fe6U, 0x8161da42752abc59U, 0x21fa812cecd4731dU,
  0xc319c07f125664dfU, 0x78ce46cff90b24b1U, 0x79e1531e3c631e18U, 0x426c9e5868f9f34aU,
  0xef8fa416b881e2b0U, 0xf47f6b343962e9a5U, 0x91a0ce814bede763U, 0x6d7fc20e62f96a85U,
  0x8391ecf557e88d51U, 0xa030a3109d945519U, 0x29a338b2b61cb581U, 0x2bca0548480d69eeU,
  0xb4435d5349747fb2U, 0x7400cf7007b94f81U, 0x32d86a7d2db861bfU, 0x383f4e68815ae11cU,
  0x3c340253a5131aeU, 0x742e7fde4a306bb6U, 0xf5f21d0c6595973cU, 0x3df6a1e2dffd47aU,
  0xa69d40019281fbedU, 0x1b8122024620254dU, 0x262cca91aacU, 0xffffdb48000000b0U,
  0xfffff4f3fffff5bdU, 0xfffff728fffff408U, 0xb3afffff80dU, 0xffffee7b00002841U,
  0xffffe13bfffff5f7U, 0xdaffffef52U, 0x3d23716b00000bb7U, 0x187fbc1934fbe449U,
  0x8185c930e499ed59U, 0x6f2a285b1277fca3U, 0xd331e4ef21c8d8e1U, 0xd77dffd24fd79348U,
  0xfa045b7681684430U, 0xa41257b5975fc0adU, 0x7519e268169acc2U, 0x9481294ae20fff55U,
  0xd3869714e0d198b3U, 0x92397fbe1f85d9a7U, 0x3a8f20dc6cb537dcU, 0xb39bf1357981cc47U,
  0x2640d566c81b7faeU, 0x786181f46139ae90U, 0x4b38c31daf24e4a6U, 0x4bef83e19171b087U,
  0x7f7369df0fd0811bU, 0xcb6c578b99cb73fU, 0x10867f6b14a1caabU, 0x35df7f99a2d0e100U,
  0x1c2735eb952d1684U, 0x26c68196561217acU, 0xb229ac49ab2f9fb5U, 0x8e8881a96f9db298U,
  0x272087d407a8e0a1U, 0x66d6ae06b07ae181U, 0x274df381cc785528U, 0x579ff2541844ff47U,
  0xb5a44c9d8bc96705U, 0xa439d10613cc81c1U, 0xffffe79d40b0ea14U, 0xfffffc66ffffff4cU,
  0xf8e00000a57U, 0xb0400001751U, 0x1364fffffd64U, 0xad0000005c6U,
  0x31d900001356U, 0xfffffb1e00000167U, 0x9ccf814000001e49U, 0x2214c9ce0cbe225bU,
  0x997f66812e5bba81U, 0x1745f95fd7f5924U, 0xa469281f7f221a7aU, 0xd77f15e318b6e89aU,
  0x11c25bbea9e7f31dU, 0xfe80317cbb97fcbU, 0x2243b739126cd42fU, 0x81d017f8efd1003aU,
  0x81fa4158b87f6d55U, 0x3f03ea2a345b13f0U, 0x32a69581232928e5U, 0xa878c9275e2102f3U,
  0xb567c5911f9e30dbU, 0x90fa281a3c2306fU, 0x6161e4b3a6187f2dU, 0x8ab07f0a81deca7fU,
  0x113b5615b440U, 0xffffeeb900000574U, 0xfffff2c600000e3fU, 0x540fffff149U,
  0xab400000514U, 0xfffff2eafffffd85U, 0xfffff42700000f32U, 0xffffebb2fffff8c2U,
  0x32eaf2cafffffac9U, 0x96227f9907c7c5f1U, 0x42f46d232a20a6fbU, 0x7f542fa76e612ecdU,
  0xccbe379c85643dfbU, 0x49e7bd97c2def3c2U, 0xbf685d96597f9dd8U, 0x6a64fe4f638f877fU,
  0xdd07ea82cd489903U, 0x588b8f3b3298421eU, 0xb5957fc234817da9U, 0x1a8b0d6eb31afa8bU,
  0xbc8138873e5e2be8U, 0x1aef19835388438bU, 0x200987b0dac2cc21U, 0xcd1643137525b1bbU,
  0x43b698e050408124U, 0xcc4d45dcd54e4281U, 0x7833bb50b957c92eU, 0x34d581c04df7094cU,
  0x3621346d8cb3362cU, 0x60cfb2d4ba5c1f37U, 0xbe97d968088116b1U, 0x7888c408812dd850U,
  0x81e0f611fe567711U, 0xb33ba63a0bdf0275U, 0x91fc4db1dc2f9efdU, 0x66a0f2f4a6534a7fU,
  0x9a43afefbb6edce1U, 0xb95f5105f2c05588U, 0x7f8f46f227feb5cU, 0xc7d32e408393e778U,
  0xf94ff91817bU, 0x10d6ffffde41U, 0xd96fffff403U, 0x1d780000061bU,
  0x45c000005d0U, 0xfffff705fffffb23U, 0x993fffffae1U, 0xfffffa11fffffa18U,
  0x9e7911750000041fU, 0xb1f49a907fe0a3ecU, 0xc8631ecdd55ba39U, 0x3da063ee65815862U,
  0x145ac04996895526U, 0xe9ace16b4f787001U, 0xaab34d57203a281U, 0xd99f569e6e83fee2U,
  0x8eb8e7816b81146bU, 0xf07e66c5faa4c875U, 0x819ea79d7878598fU, 0xbe141e3ae1db9af6U,
  0x27a0813afba5eeaaU, 0x4d5ae53dc7d1d879U, 0x59da8f3de39aee47U, 0xda2ca27fa0e6030fU,
  0x7c20b0f2af449ddaU, 0xd6ef45c049eb1e9bU, 0x40f2651981a3646fU, 0xc37795bc9ea197caU,
  0x7fd9dae7de7fcbcfU, 0x3e4b8f7b488d6aebU, 0xf6559906d84ded1bU, 0x8190fb0945d41260U,
  0xa97f9cd1a51a4cf1U, 0xd1f9e19caa843c4bU, 0x223b635e3b1f82caU, 0xe386e71c7f40e5c7U,
  0xda15c09e770bb028U, 0x97221b1ce60693bbU, 0x5e71257fb12e81e6U, 0xdf3f9725dc145cfcU,
  0x635e32e9421U, 0xffffed45ffffffe7U, 0x9400000936U, 0x19a00002ad7U,
  0x25400000b94U, 0xffffefaa00001110U, 0x1acb00000875U, 0x20eaffffeb9dU,
  0x7f817f2effffeb5cU, 0x6cc937b5819ce8ceU, 0xeaec7125e97fa052U, 0x81e19a3bc809c014U,
  0x787ad56c075a4c32U, 0xa27f08459c591bddU, 0x29ed2181565e6838U, 0x8da429268b819e7fU,
  0xb7d3c3e4ffb572ffU, 0x61b336dd6ab97f0bU, 0x71f697e325b98127U, 0x2ba5d0b259afc559U,
  0x21f5f899811775f8U, 0x44d85e66685091e6U, 0x510889177a618da5U, 0x31d17f815432412dU,
  0x1736ffed8b1f5d0eU, 0xe24f48ac6a0818e3U, 0x52e61f9e681U, 0x2560000049fU,
  0xfffff73affffe618U, 0x7f80000063eU, 0x833fffffa4cU, 0xc80ffffef82U,
  0xfffffed6ffffffc4U, 0xffffeeebfffff77cU, 0x17f882cdfffffb65U, 0x526e26cc12273989U,
  0x6cf92df981977186U, 0x8199e651034ba7d7U, 0xae150aff4c24da58U, 0x83c3031865546081U,
  0x589592ecc617acbcU, 0x40e8df5beb617ffdU, 0xf2e349a66bf5a90aU, 0x257f2aef57c381f2U,
  0xc5594308647ea610U, 0x76c3dc237f23c241U, 0x7f97414703067bd2U, 0x5ebc2337031cccccU,
  0x2a26e4b217b3dbafU, 0xa6a2c6f37f3d4c04U, 0x38842d8eba06221bU, 0x5d6f2ce3675651cfU,
  0x89160666b37f0a2aU, 0x1df990d553893decU, 0x96e7e1cf3b788126U, 0xc6876ffa51a7cc68U,
  0xd52c67f817daeb6U, 0xd7ffd8e759c02d60U, 0x4fe4cdaab5910597U, 0x9e7fe5f0a8df1215U,
  0x2d921eb661b8f48dU, 0xf3ff9a978959da55U, 0x43ec45038178f90cU, 0x67761dd5a9d4819eU,
  0xa96de45e086e9f6bU, 0x6029d0b14084557fU, 0xd0f431c99dcU, 0xc4afffffa83U,
  0xfffff5fafffff3a0U, 0xfffffce1ffffeee8U, 0xffffe64dfffffeeaU, 0xfb400000223U,
  0xc0000000369U, 0xfffffb6e00000c80U, 0xa30a89defffff715U, 0x5c0ccddf463b9396U,
  0xe672011b1891a85aU, 0xc8767f8e608a72b0U, 0xbf4f881c40d83b0fU, 0x98fa816df25f825bU,
  0x8b8fdd15a47fb45eU, 0xdef886c6294a1a6dU, 0x87eb56b821f13905U, 0x6fa7447ff3eae64aU,
  0xa0fa36eb96c3b9b6U, 0x6b2329acb60530a0U, 0xf05c415608cf2c2U, 0xa7f2a5a5b0b4170U,
  0xca0493ac70d75924U, 0x239ea55f55554d2dU, 0x2cffc1f040b0f8ecU, 0x3e2a24e4b2e2048dU,
  0xb60f610631befa51U, 0x60a2acf60566cf81U, 0x3502e6248c4264e6U, 0x1b20ed65257ff72dU,
  0xa45673038f8cb4dU, 0xf143e206b88ff92eU, 0x5d989b1c920ad1e3U, 0x4d8179688f08fc69U,
  0xe74fcd494c0e989eU, 0xd8a341842f8bf71cU, 0xab9e26ee257283d0U, 0x904f9f1dd7f47f88U,
  0xcc215bce84394961U, 0xc89da1d28a27265U, 0x9e1961b6d24f32a3U, 0xcff392fca95628e2U,
  0x6933b7a548b9cde0U, 0x81d6e4e739161fb0U, 0x30067f0e18d503ccU, 0xd73c69e1c39b91d3U,
  0x7a3ccab73ffcd6bU, 0xdb49e434e41a373eU, 0xc8044e5b307e5e3fU, 0x607f02c815d549eaU,
  0x693f006e2336a3abU, 0xcc0ffcd80f4aa422U, 0x33f8818604a71aaeU, 0x361e8ad13191141eU,
  0x7969d972fe61fffdU, 0xfbcd2cd1ba925905U, 0x87316593331a6437U, 0x9da2b6f322382dc6U,
  0xc9ed495a5fb781fbU, 0x485ff03746ab269fU, 0x3177dfb28856a32dU, 0x60f51851b46d2884U,
  0xfa72a3237fe6a76bU, 0x29abe08629ad3ba0U, 0xa875a059d7593881U, 0xe3b5deaef099497eU,
  0xf562196d171ded51U, 0xf481f95e90bb77ddU, 0x1999cff887d69dd0U, 0x8ca9443bfe97cab5U,
  0x1e57bbb5c1e5459dU, 0xb496957f4cdc36c5U, 0x1cbda36769b8a9e8U, 0x8aaadb6771ca4a54U,
  0x6c51cd16352b81dbU, 0x37a28e5ad605ce0dU, 0x43e36549c711fea9U, 0x9919e8b61154426aU,
  0xbe2c5edfb607ec04U, 0xb05081ce4dc5acccU, 0x2d65b9ffaa75e85dU, 0x549a5b7f5908c099U,
  0x61c1b393955733d1U, 0xf075c3312b051bd0U, 0xd6f3f5eb3a1e7533U, 0x566e3e39fdf18120U,
  0xe4199d5ad1feca53U, 0xadf4da016645d8b8U, 0x43ce0c5dd2a58abbU, 0x5a4325ef6fe87f9fU,
  0x8c22ac0d6585bb6U, 0x2a153f683e0bece6U, 0xf19fc467e01b84e6U, 0x8f094c01d99d8be1U,
  0x288cfd846d15f6ccU, 0x9881598f4dd9ad09U, 0x488143e5a3075e22U, 0xe32e614810f83244U,
  0x5e4109b0965140afU, 0x3d991a9736683a50U, 0x784257a33c1d37a9U, 0xbff514fd9a156c7fU,
  0xa6e0fede09032bfU, 0x19bc2a503717c0acU, 0x79f7e6417c1852adU, 0xa53d7473858d5ef5U,
  0xc63dc4b1a60e8ceU, 0xd518c9e143e295fU, 0x84263310a812b8fU, 0x63fc6d7d05e9395eU,
  0x902e406558c337ecU, 0x14e27f53e29e533bU, 0x3a0edc5596f8374U, 0xdc0262fe4b28c061U,
  0x97ec77383efcd37fU, 0x81995b521739b719U, 0x9286c58dba67c261U, 0x6a98be7b6f52f000U,
  0x81608e1803cc92daU, 0xc887befeaf5b9cd7U, 0x9696444efe761a7fU, 0x81c0f577c4c269afU,
  0xe3bedc303daae18U, 0x296dead8d3490dd7U, 0x81c68d1114f08836U, 0x452040005dae5774U,
  0x3ac4b3b6b2cab518U, 0xee381a98b02c5b97U, 0x52cad328ff70a85bU, 0x14069e10ed7f27ffU,
  0xa9586902151da6ecU, 0x2255c24559d433faU, 0x4e5052859f8726a6U, 0xcb1b5d124a8eab3eU,
  0xcffd86d29f81f3c3U, 0x44c2d3d81cfdf4d7U, 0x12d7b78e0821U, 0x10d900000856U,
  0x775ffffd03dU, 0x384ffffe0c4U, 0x17a600000c6eU, 0xffffee6ffffff168U,
  0x17b9000006e3U, 0x496ffffeddeU, 0x19400002a48U, 0xffffefa7fffff4cbU,
  0xffffdf8e0000000bU, 0xffffe9fc00001b57U, 0xffffecd0fffff4d1U, 0xfffff2e8ffffc666U,
  0x14bb00001b20U, 0xfffffaad00000844U, 0x4d7e2db6000014dfU, 0xa5c8817f7f311c56U,
  0x7f7f2f3b85057fcaU, 0xb1acd8d4aacb6d00U, 0x237dd541af515481U, 0x8142a0f303c44d74U,
  0x30f97f627f2be3b6U, 0x55885e02a157c2f1U, 0x157a0f98adcf618aU, 0xbb633c14e57f460dU,
  0x1a79bb9483c61f3bU, 0x81137f3335e06a1fU, 0xd70a7ee1e6a1cbe4U, 0x7481c3222aa70347U,
  0x33ada7cd7a33d0f2U, 0xe77fc742317f67c7U, 0xceb1f4d1f912f21bU, 0x43bab33eb0a97f38U,
  0xc69c29dc1f36e01U, 0x8e63858df55d47fU, 0xcb5c5fd3d77fd634U, 0x97cbe62d209fe019U,
  0x19f06c1f26979a0bU, 0xb42622e52aaef8faU, 0xc5881c38117b16fU, 0x2ee2b0d76438e97fU,
  0xcae150ad8a6de346U, 0xdeafbf781dd8173U, 0x7f4eaa7f6a14c151U, 0xb22615b91f20748fU,
  0x8574028196864c7fU, 0xb8c32ce6bdf042b1U, 0xb381b1e940bb812fU, 0x551b5e43b66486d0U,
  0x6736cd8eb981c570U, 0x9268158143f71b93U, 0xb19fadbe0a7U, 0xffffe8920000030aU,
  0xffffec83fffffc98U, 0xffffff0bfffff002U, 0xfffff222fffff780U, 0x72f000011ecU,
  0xfffff219000008b1U, 0xc25fffffb35U, 0x175b0000125fU, 0xffffe8befffffac2U,
  0xffffffcbfffff52bU, 0xfffffabcfffff6e4U, 0xffffff9800000abcU, 0x214ffffef55U,
  0x2d400001315U, 0xfffffe6600000b49U, 0x3df2424800000b3fU, 0x49c9b52e1f3490feU,
  0x872994b9cedf5e2bU, 0xfeb66673c47f2eadU, 0x960c380a55318a03U, 0xebbf4ea1cc836e2bU,
  0xef490bf3c4221ffbU, 0xbbe691a0f6b8b051U, 0xa9c95cbd0081f0f6U, 0x38363e5ee2989e77U,
  0x9e1f5181edbfd0bcU, 0x135d71527bdbc804U, 0x6ef6e4dc8c6368e7U, 0x18eefa29e711c324U,
  0xf155f677f19f42a9U, 0xf51945292b7f41d2U, 0x704d93a6aefacbaeU, 0x1d17f56bf9ed6885U,
  0xcb5c8c7f301cbbf2U, 0x15848d0345e827beU, 0xeaf12c7f096aeb03U, 0x141ad9ad72a7e2a5U,
  0x1f517abdf5444d46U, 0x6b7ca43d5e22ba3cU, 0x54ba11d9ef2ee18U, 0x9928bc81570017c9U,
  0x277a57649bdccc9fU, 0x307b1ea2f476d38aU, 0x622e3fa0fdf74572U, 0xd90ac417d73e2559U,
  0xb71706c97fca90a4U, 0xd85afe6e29e5b031U, 0x17e6e60b60e96624U, 0xd5fde218c3f74befU,
  0xd555cc9a46236161U, 0x56df09bc0a7200a5U, 0x469eaa9d128127f2U, 0xbcdd192440b9420U,
  0xa1f478c4d194949fU, 0x4f3177b8c6dce525U, 0x62b35cb8402be07fU, 0x7f9c624635534645U,
  0x8acfbf4239546fedU, 0xa7ecbb91afa93d08U, 0x7130a413c4c176afU, 0x996497575b6425cbU,
  0xca0f9afdbd27dad7U, 0x7f3274f697ab26b8U, 0x3202ca594f4a76c4U, 0xc043398f77b1e151U,
  0xed612f7cbec37fe1U, 0x2f70e0867609f151U, 0x8ed4487abd6ceec5U, 0x29226998159a62ceU,
  0x398687a64164a7a6U, 0x33f0b7b8a1d45c0cU, 0xbb23ec431b7f429dU, 0xf4cd275e986a6a1cU,
  0xdc1cb355ba337f01U, 0xcafee577ee1a6950U, 0x696044135434cf90U, 0xb06733676f4a1fbfU,
  0x2e6f87fade9b0c40U, 0xd64e69f75fc5eb81U, 0x5c1009cd0a839963U, 0x1773cc3dcf0db052U,
  0xce1fa7f581e7d213U, 0xd1ee2414aea9911cU, 0xe6c10ae02d65b4aeU, 0xbb59d763f4da6927U,
  0x71b1905589164973U, 0x4181bdeceed86ee8U, 0xcfe6603ab3002abbU, 0x27733696e8dbf0c5U,
  0xfea9fbc718c47f29U, 0xee7cd233261b8f43U, 0xef8b16adcfcc6f2U, 0xc8bfc966a3380b35U,
  0xde028190fb9f260dU, 0x8f33a8112d91aac3U, 0x4c6b72229274cf5eU, 0x8b7fa54c14b21c5cU,
  0x4cbd182e22930dd9U, 0xc522390292de063bU, 0x2ed471662dffa247U, 0x762953473eb9a60dU,
  0x54490a12a3b30ebeU, 0x4d2c580cbeb50781U, 0xfbc8cb258d011e5bU, 0x27dd31ae78ed8114U,
  0xf7a29455b1eecbb6U, 0x2d75b1e59272909U, 0x63ec8472c730c039U, 0x3784815f39a15746U,
  0x9a0e08f1c6ee4400U, 0x39e0fdf857e03590U, 0xa240b7e250d28eaeU, 0x75e295748fd02ffU,
  0x18052aeda09c3681U, 0x2ea3dd24ce1ff3b4U, 0xfd293d51ce1b52b7U, 0xe5403d3d5e1464b1U,
  0x326cbaa3c6fd5eeeU, 0x46ac9f9d54da3e6cU, 0x337fb827392c497fU, 0xfe34df3550524026U,
  0xa169156c984e71a7U, 0x9eef97489ecfeadfU, 0x3dbd5a7763b2bc09U, 0xaeeea4e29ab1374fU,
  0x43d8ef0dbea2139cU, 0x3d53151cc2632cbfU, 0x88d30f2afe1f81acU, 0x562e074775100491U,
  0x28d0f99b5da45b0eU, 0xb8ea3075892c9e6dU, 0x2799cd38c9819da4U, 0x27f9547f395c4219U,
  0xea53974d6c93faf1U, 0x6da8dea5842aa58dU, 0xe5242c9f1a1e68f7U, 0x3d53a7301dfaee29U,
  0x49278953baa394caU, 0x93974c8e081a81a4U, 0x27f9f6186631e8dfU, 0x5cf26e7149ed35c7U,
  0x3b2e6798b8369991U, 0xa381d9365bf11ee9U, 0x911955f91fed4172U, 0x9bd837eb8fa7cd6bU,
  0x9de52b08d4ad3e93U, 0x98f16b3525967fc0U, 0xa7f68a9262950fbU, 0xf67760c049ccebd9U,
  0x4df516f213fa4c6U, 0x12ffecc606ac2544U, 0x1c7f55ee1fc8d76eU, 0x78a990b1fd98bb91U,
  0xaf410a6457959aaU, 0x2d7dcde5579cacbfU, 0x597d2dbc0b40744fU, 0x93c81fd579a2813fU,
  0x380120f4740ccc42U, 0x1f5628e5e4bf723bU, 0xf396aa508ad0d842U, 0xb9ef1aa521578155U,
  0x4a8a0be2332505U, 0x765285ec96df4c97U, 0xf53d8d0517be2655U, 0x6c34e108a75ec516U,
  0xc57f16e23ba565b9U, 0x321338736c7aaad8U, 0xa9a50068474726a4U, 0xa6b329f8c8c84200U,
  0x7f2c4fc3e6f9f13eU, 0x9f245c12601a6013U, 0x778185deb1b7d5c8U, 0x440e9377aceba8f5U,
  0xe968ce515666713U, 0xc5ffedce5b2a1a9eU, 0x670e9654e066f0ccU, 0x64fb5289bde6d66bU,
  0xf30e230f61d27fdbU, 0x16035d11e4ececa5U, 0x94619bb7d75e1847U, 0xe30130fc409c51d5U,
  0x4581f0c5bb109ee3U, 0x2ae3bea246013e2dU, 0x422cf35124472b1cU, 0xbad50301423b04f5U,
  0x7ab3fe0c0fc3b447U, 0xfbbeea5deb5ccd9cU, 0xa7b7d65172393d81U, 0xafc27fe4ff11e6a9U,
  0x465269c1d354e9d5U, 0xf0fb026c17de5a9cU, 0x5b04370dcbec02cfU, 0x27f8be2c3494c33dU,
  0x506850ef01ed5d28U, 0xf4ee72b0d6cf7f02U, 0xfda595b22c043e9cU, 0x371967246559e3fU,
  0xf8f08a672a7b81afU, 0xa606a1f1e6323fc1U, 0xd4a65f32205d2bebU, 0x1a690cb7afe2f081U,
  0xb6e24e174742d2e6U, 0xeb5b8595fe346224U, 0xd7afa938ae7200a8U, 0x8d3e5847d4813ccfU,
  0xa0c1a0278ca5dea4U, 0xfddd3a21d0fc2401U, 0xf737b0ed3feda1d2U, 0x3cc9cd069dc10ed2U,
  0xc43182c17a491087U, 0xf5c433eb15857450U, 0x8b7ad370220daa81U, 0xa6432484473e378aU,
  0x257f99a3eeb46abeU, 0x61f87f43346fc293U, 0xa02e3c6d1c3e423eU, 0x9ce63a5abc561020U,
  0xa481eebe5afcc791U, 0xadabc16932e9fd61U, 0x36f78949106e8aa3U, 0x94d2bfced0ccace4U,
  0xcf74816455f05710U, 0x5317613ad3840d32U, 0x46c67b838a4af57eU, 0x20534d574ace38fdU,
  0xde7fc16170f51726U, 0x502673d005ef77fcU, 0x5645935c71d22dfeU, 0x63dc8133a5455e09U,
  0xa0a49a29eb402312U, 0xd3fbf230e99d604cU, 0xc5792828a792cdd0U, 0x901bca7a7f39c853U,
  0xa47e6ec8170c4d14U, 0x269286da1ef34898U, 0xb9af9f2f2253c094U, 0x54951479408ca166U,
  0x197f38a32224d667U, 0xc77f9e04f0ee638eU, 0xedb63df84ebbe860U, 0xaa5ed69722892fc5U,
  0xec3f98f54dcbde8fU, 0xc198f948c89abb94U, 0xba340ebb7f3f6f4bU, 0x835b9c7169fcf835U,
  0x7f6dca4ec52c085bU, 0xd9bf18359d6af924U, 0x9246aea07b065aceU, 0x4fd2efe785ba6fc3U,
  0x31d944e7b7e61f2aU, 0x9cccb17f13022e78U, 0x159c681de220f62U, 0x9df7a3211a0f7f6cU,
  0x2751ad51ed493d1eU, 0x317db248f1c9c9f0U, 0xf9039b5cf750cdabU, 0x7c0f27f062894056U,
  0x81603e4fa189e754U, 0x2ff8761a459f56a5U, 0x798534ad00ef9d8fU, 0xbb1c6458544f5eb4U,
  0x82c00cf59fceaff5U, 0x28067ca39ac71bf0U, 0x27a881cb811726dfU, 0xb6148daafd93b227U,
  0x36b18907fa781507U, 0xa6ee0d4a94213b4aU, 0xc5dcd1a09180192U, 0x1a3fc2544b7fda58U,
  0x22dd3968ae414e29U, 0x68a6ad183fcd8ca9U, 0xfffffb29e98ccbadU, 0xfffffe950000213eU,
  0xfffff58cfffff812U, 0xfffffb5effffe60cU, 0xfffff625fffff414U, 0xfffff6b10000216bU,
  0xffffe72dffffef98U, 0xffffe20f0000097aU, 0x1894ffffe2f5U, 0x46ffffffdd2U,
  0xfffff017000024a9U, 0xdedffffe9b4U, 0xb69000003fdU, 0xfffff5cfffffd3bcU,
  0xf700000117eU, 0x18faffffeb90U, 0x131effffee12U, 0xfffffee8ffffe964U,
  0x6bcfffff09eU, 0xfffffff5ffffe72cU, 0xffffe897000011c6U, 0xfffff39a00000cd9U,
  0xffffe02b000006cbU, 0x846000004ebU, 0x18d500002a00U, 0x1246ffffeaa6U,
  0xffffbf1bffffffabU, 0xffffef1300000939U, 0x1d0cfffff388U, 0xd5effffddd6U,
  0xfffff16bfffff3fcU, 0x26a300000fcaU, 0x1fe65b86fffff2adU, 0x3612c48364c313cdU,
  0x18e3a95397434fd8U, 0x6c4aa8b565b3d85fU, 0xe0a9164fddfe0cfU, 0x71f03d8b4ed5d30dU,
  0xb5a27f2c81356d35U, 0x57b39b083d5e2c98U, 0xced1882d39e175a3U, 0x860650e617d9af4eU,
  0xafbde6cf475592efU, 0x31db23894e8f3169U, 0xf900a9e6d6d44f1dU, 0x6fe28e7fce5e462cU,
  0xdc5de24640c01fe3U, 0x8fb76b92ea30a696U, 0xe7ff53e45004fb35U, 0x459dc8c6a2aca03dU,
  0x3a6ec4fc8c010ecdU, 0xe10f05ac2d5781aeU, 0x1abee9cdbb4d9e63U, 0x140b0978cbd82086U,
  0xfa8f9d7ba81b30fU, 0xbddab55942cbf001U, 0x5bc6fdc776f7bd96U, 0xf1aafe544190d885U,
  0x1c9981f4b1ffaf0bU, 0x114e72609973b6efU, 0xe3da3151627c4fcaU, 0x20e594be33f0aec5U,
  0xdafa6c47d8d456edU, 0x79fefa2aa59f2e1fU, 0x5d06aa5631e302f2U, 0x8a9d29dfa9a4f545U,
  0x8d692157835abb06U, 0x6f0b4f76cc9a9a93U, 0x6815b16174eb436eU, 0xbfc257f87f8c9b37U,
  0xb9efdcfcc54bed1eU, 0x2400cf14efd79eb0U, 0xad3c96e33f2a9e9dU, 0x114521b887cadde6U,
  0x7920dc01dd2c2536U, 0x6337c7f6dc97f0f1U, 0x2f957c817a43a9c7U, 0xd35056969346221cU,
  0x9155dadf22e2b417U, 0x41112dcede935dc5U, 0x8a3a4fcc9e8568e2U, 0x2de1ac1fb92a5592U,
  0xd739f5a9cc60620aU, 0x8808bbf3b01a0357U, 0x7970e863d2264990U, 0x9fe3f815e55be7fcU,
  0x238817ff5815baadU, 0xb8b741dbb87f14ddU, 0x2b589abf23453f38U, 0x409cb08be3fe4d9dU,
  0x709c4f6424d2a9d1U, 0xee25c7f9a43e545U, 0xe16a4126f086c3ebU, 0xf6121c6632d38e59U,
  0x30002d1d22dafd18U, 0x45de11aba63f421aU, 0xd5eff3c3b0a47166U, 0xea6c1942dcac6d4aU,
  0x9af6233df22a0043U, 0x4bd774a7334fb52cU, 0xc63464b899caabdfU, 0x31be2ad6acdea207U,
  0xf8f9e28920ffa78U, 0x9c455dcd797f7a33U, 0xcd067ac41f0ac8a3U, 0x95f9a032666dedc1U,
  0x3314e9cad294abb0U, 0x284ea822eb500ecdU, 0xe20e0ca9538193a7U, 0x31c89332b226aa4cU,
  0x115dfd282e0e9a71U, 0x6657fce5004d0328U, 0x377b36e4ec1ad4b0U, 0x79fca919e4f3bb6dU,
  0xaad5472c395cb960U, 0xad1a76c1cb36f45dU, 0xb26fe557a8ba360eU, 0xf0b97fbb4ac707c7U,
  0xb9b5684a590c1d35U, 0xafc9bc9027a1babbU, 0x5728e05989ef282aU, 0xda81b8f14bc4fbdbU,
  0x4aa5ef028394440dU, 0x940d32e0a46bdda2U, 0xaa4baae20748b411U, 0x21ef12b722bb4235U,
  0xdb0f3fbec9a20d92U, 0xa41595d9598d4e05U, 0x6bd383394c8abea0U, 0x48b520df17c67c3bU,
  0x3958c3d51c7d0821U, 0x4e8f2b55cd5d8ad7U, 0xc65d34e37936da52U, 0x6e93fa2ad9c7dbb0U,
  0x3b43665a43b3a01U, 0x2b71e9812b2fef69U, 0x1499aa071a70c4ffU, 0x509f3b25b021df3U,
  0xb8fc684be15647b8U, 0x1987fb93e0a6e725U, 0xfcc702ce9b5f97a9U, 0xd992124d716581f3U,
  0xb8eac4da66300964U, 0x8a5092972d364efbU, 0x2df79a33fff917bfU, 0xccdbcd8ffe7f45ccU,
  0xcb004df37681995bU, 0x86fea68ca421bf02U, 0x626d3635b4f4f6fbU, 0x12b490724d150671U,
  0x48b07109d217c4e9U, 0xf924043a391b4758U, 0x11badba5c24ab3U, 0xeae10b166c578467U,
  0xdd98980c8a0247d9U, 0x9a83b63ebcfe607eU, 0xb7b6b284a5fbc630U, 0x81213a8639b3525eU,
  0x8f9edda160cab609U, 0xc7344500165f5867U, 0x3ccd73ca713566c1U, 0x62bb757458a8d22fU,
  0xae5795420fba34dcU, 0x81c1b39bcf202471U, 0x1eca9a12d42690eaU, 0x8a2eba2d6b4b9310U,
  0xfa0dbfed7314a3edU, 0xb19c9879935b630bU, 0xcdeb620fd218b263U, 0xb01dc624ab6a134U,
  0xebb843a04f35f030U, 0xf223ace0b3661526U, 0x1828ce90bf2c0faeU, 0x3aa4f81681150510U,
  0xe6499a25e64f46e5U, 0xe1c71050da7547c3U, 0x31194b96a1573221U, 0x41a4a707c7d1c2adU,
  0x4bfd1a49b9e94dbdU, 0xcbc46e144cd6ca2fU, 0x2430ed146826d2acU, 0xa389cf9281d1d94cU,
  0x5ea022ae9a459f92U, 0xaf88f32601214e1fU, 0x183d82aeab043c09U, 0x719c614feed15e34U,
  0xc01717d0c8bad2deU, 0xd46cae69b3e87d69U, 0xa6102130314d08b8U, 0xca9c65b1cc897fcdU,
  0xe9723960f01c1e08U, 0x1ec16eb0dce2d345U, 0xfdc9417f3e0ea50cU, 0x937144610ed3ec03U,
  0x4c0a3d2904ca09f6U, 0x354a6be840f7dcdbU, 0x36471f1ce45965e4U, 0xc24ab37860f5b629U,
  0x3ffaa0dc311e642dU, 0x48495020cfd8fd91U, 0x17f2ad0a1291f23aU, 0x493246085d97646aU,
  0xee0fac6c7f2c2d1eU, 0xf547382410417f28U, 0xcc26a453764d1164U, 0x5d2d19b4c9f7c8b6U,
  0xb550e0da5218aa51U, 0xbab507baa25543f0U, 0xea972718b2e56122U, 0x7cc11ff5e64bcd5eU,
  0x254c18df385d5eb7U, 0x761b4e088b92fefdU, 0xa025baf91913372eU, 0x153a592c44bc3512U,
  0xd44ecce1001b8149U, 0xc7e313e0130e0c26U, 0xdb9fca6ddd073e08U, 0x519b234faf64f9b4U,
  0x447f7ac560b97d52U, 0x414b99f69561eb6fU, 0x4eb4484a3f4b0d51U, 0x40b5a3b6faa9199U,
  0xa9cac33632b2f8fcU, 0x3c3d3cab43ca51a7U, 0xd1f66530ee08cd63U, 0x429122f0090806baU,
  0xb400048cda1e814dU, 0x96e1ec1940e99a00U, 0xff66dd45518c3b01U, 0x263cfb9a9f46652fU,
  0xb44fd3716bd59a62U, 0xbce86ca80cb39294U, 0xa5a929e3efd34813U, 0x5d5229445ed0262fU,
  0x55229a84eadec9bU, 0x40b39ea510e75046U, 0xcf17b6341e05e87fU, 0x5f37d4fcc3f40548U,
  0x51f65830a24e4d67U, 0xe4d32b63703bc44eU, 0x4781b4da059553b9U, 0xd34c4daa05bccf1dU,
  0x2e8b59ef27c6f5faU, 0xd5e9502c379908a9U, 0x2d69a6430a2db25dU, 0xd9ed9dc8f34da413U,
  0xa4fc39fd47cbf1fbU, 0xa43bebcf18df66a3U, 0xec19b03444114640U, 0x24f88b3214446c16U,
  0xfff25298c19559b3U, 0x59ef663111f74b01U, 0xd86d0244d1df0dc1U, 0x9fdd44007f320898U,
  0xabebfdb414ec89ffU, 0x93ca5d1d0a7a979aU, 0x120413ceef182784U, 0xd3cfa0d4f4586637U,
  0x73311dd7eeb82321U, 0x6e005a103feff1dU, 0xbea1c006cab02ad8U, 0xd5cd16efca3536d4U,
  0xdc3f4b0ffede7fabU, 0x3ab6d453fb159fa2U, 0x5f411fe6aeeeab9eU, 0xd290f4c0cb501038U,
  0xba940beeaf60a1a3U, 0xdc8151964a63dadbU, 0x38d13db9f473e9dcU, 0x7183a8c551ab236U,
  0x830fac21949d0f36U, 0x9897f066f5f61a00U, 0xce82ccda566c2f13U, 0x40763500a405dd0eU,
  0xa378479f9ad5a6fU, 0x352c2a6394c06258U, 0x7ad38fba3ebe77d0U, 0x11750a8f1b29b686U,
  0x1515e77d15edfd6cU, 0x24fefd021a7f1890U, 0x12c15aa761fd8ecdU, 0x6d480c9d8ea4bd2eU,
  0x679c6c03d62f2105U, 0x78ac2a3bfdff5fecU, 0xc966aaa83022404fU, 0x5fe52e7b7fd4adc5U,
  0x7d89f6ccaffa6304U, 0x1ffa58e56e695d17U, 0xfffff6ac5373edd7U, 0x46f100001135U,
  0x13750000098cU, 0xfffffeba00001f27U, 0x28fffff044U, 0xfffff9ee000012fbU,
  0xffffd24a0000436bU, 0x4150000229eU, 0x145f000022dbU, 0x3643fffffebfU,
  0xffffbca1fffff0e4U, 0xffffdb4cffffc451U, 0x11d7ffffcf6aU, 0xe99ffffcf6fU,
  0x283f00000862U, 0xffffe46c00001e7eU, 0x50a5096cffffc586U, 0xc26100d00c56a3b2U,
  0xaaff0dff6f5f788U, 0x115aa819b5af901bU, 0x33fb432ecdb2b06aU, 0x36102d88a751569U,
  0x707f48c8c3536d4cU, 0xa8cb1bd31088eb38U, 0xd56abea970745aceU, 0x9ebb07a650bda0f6U,
  0x23a8e8c54c09841U, 0x33635142f0c17f2cU, 0xb7d3e43b7f66b63bU, 0x433ec7788bd2d23fU,
  0xe8f1b41aff44b4f3U, 0x2e2554fbc0c3fd40U, 0xfdd5b6c41926d7cbU, 0x5655449ab3cbc671U,
  0x7454d852de7ae5a0U, 0xb0db71fdee2f4f41U, 0x5a3ca176ef15b253U, 0x9c4a953570cf49e4U,
  0x936a247ff258af13U, 0x9ada3bef2c40b164U, 0x305fe6ccdf72ce7U, 0x6a34dcb62f6745efU,
  0x362314d5b47f0904U, 0xec74e4fffb38311cU, 0x1fa064b0a16bb94cU, 0x74625ec5c6fec00fU,
  0xe66363f88f1cffe0U, 0xf256339120650bfbU, 0x6ad7c19b5be33454U, 0xb651d9e03064c74fU,
  0xd4f1faf011643fb7U, 0x34dd24d6eba4177fU, 0x76c2a56f6515015eU, 0x644d01c65aedfc26U,
  0x97d5eddc2b3f21dbU, 0xf2ec9e1802dc4440U, 0x2db1b3a03ad36cb3U, 0x4c39ff175d94bbe0U,
  0x640b9633a3f82fe6U, 0x87b529a181f80834U, 0x1367299691ed930eU, 0xf4c3f568ef4845e7U,
  0xe493a204811dbc8U, 0xa36646348d90f611U, 0x786b42203d36f4f2U, 0x53c9c0c0472af80bU,
  0xe3134c3d2c1430d8U, 0xcce418aa19c5fcedU, 0x367fa36a0dc8cf56U, 0x1735d54ff49d0fcdU,
  0x2cc0bfe4ae415f7bU, 0x5a50a02b533d95caU, 0x35e6f4a7b75c4379U, 0xbcbce0ee243220dcU,
  0x6496039926ac413dU, 0xb6b5dd733f604fb0U, 0x599cf5aae257410aU, 0x795d9bc0ad27c107U,
  0x53f72313fc7f6d62U, 0xca4df8c290165a37U, 0x16ab1f63c0b5bb9fU, 0xd1f88fb1c3aa292fU,
  0x8524d28de29d488dU, 0xb5a1d9355571d0e4U, 0xe50f52c1b505b96U, 0x789faa0b32530c2U,
  0x5a498140016a9d24U, 0x5324589ec21ff9b9U, 0xf61fb2e5fbf52f6cU, 0xc0b0cc39010f5faeU,
  0x9141f7de33b9668dU, 0x26915acc643aa581U, 0x203312c8f70e68d5U, 0x651bf74f223066b5U,
  0x20399011cb44481cU, 0x52091fbd9f3f2b92U, 0xcb52030729013f14U, 0xa9ac58c91795004dU,
  0x1dfc52a0b536d2c7U, 0x684308a10344d6bdU, 0x1706c85ba9f72064U, 0x5305ea34f17f0326U,
  0x50c902e1e2b4d345U, 0xec60bd131508bdecU, 0x348c516e41dd03bU, 0x6d0c243e18f30f1eU,
  0xdcff7f3b6b05c34dU, 0x6aa171f5c25dcf61U, 0xfe31db2d508df715U, 0x96389c67c8c2c993U,
  0x63007445580aa395U, 0x2545e6525227f9e3U, 0xe1e42ddb628fd69fU, 0xcbc3a75e19157c06U,
  0x10ecf3d14b375a41U, 0xe64463af5b183bcbU, 0xe65a4f3003c6637fU, 0x29c14a1ff75076f8U,
  0xeccff8ae2dc359b2U, 0x9b84bcb56d6822b7U, 0x1f3e6a79c833b759U, 0xc362360a4faa975dU,
  0x2b2c55a45811b1baU, 0xdf3e6d32538d00d0U, 0x50469ae3aab15cbU, 0x25c512388539f9b1U,
  0xcbc9c3d6a7f01b90U, 0x375eb6b4162d0af5U, 0xc6e5d5337f32aafeU, 0x55b19b18bd2dbc4aU,
  0x76a50f89ad432a71U, 0xad06f9b4eb0dacadU, 0x1d43fb4a8ad07f36U, 0x76602f559ae370f3U,
  0x92d5278aafeb6498U, 0x30cfca0583a755d6U, 0xab9c2d5db731f9f4U, 0x88ec4d45e481bd5aU,
  0xf9fcf075a4518b85U, 0x41fb140af0400556U, 0x4252b25b225f3705U, 0x99cbb79b1f5402c9U,
  0xc031b0f4548ac63U, 0x9cc3a13517e8e30aU, 0xa457b7b1dd002bafU, 0x86f72cd516228b05U,
  0x3d2000153a90775U, 0xdea25ee3bfaf3a26U, 0xac69ef36fe5ce014U, 0x151335ff111af1e0U,
  0x9548f2cd9a50b107U, 0xbe328952887f23f2U, 0x68fd59d2f9fad533U, 0x66be060a6cead61bU,
  0x5007488f5d8a8e21U, 0xf8f3209aef33ccceU, 0x9a56df9e162a4387U, 0xdbeea79c1de2520fU,
  0xbd12aeffd2aaf92cU, 0xefd776819decdd01U, 0xd3a159ac463c4afdU, 0x7507a6d54d6544b3U,
  0x3bb63f8529f5159U, 0x70d45e09cae276f0U, 0xc55b486b6d40a65U, 0xb5f3ccfb0928f1c6U,
  0x52deddeb73bf0800U, 0xf88141a2b0f9c8afU, 0xb341381566061266U, 0xf2ba965b5987929fU,
  0x772858c8ec192decU, 0xaaeba1ead8e314bbU, 0x7fc42ae856d90a8bU, 0x471c700fc8a86d1cU,
  0xb1c64f144db62ac4U, 0x6be211e501fbe9bU, 0xe6a9b4de9df3c892U, 0x851b4c27f0dd6286U,
  0x78ead35eb4bd5472U, 0x42ecaf2ad5f061adU, 0x6adca0e911e9aec8U, 0x98b0f53fa4412fe0U,
  0x977f793bd161f4dfU, 0xe4b012537c82fb8U, 0x5ba8cdd8816b3b4fU, 0x5ea8f3d88df7efd3U,
  0xede05b4d1429d455U, 0xe8d85e20cdb59571U, 0x6d35f17fc56cc7a6U, 0xc0bd730ad6b3ba9cU,
  0x48cd9cd8b4984aa0U, 0x2cda1d160861a7edU, 0xbbda49cea14eb436U, 0xcb2f4426fd4ea55U,
  0xb498ffe55e6e8ed2U, 0xb52511bd02680876U, 0x7f61c99ef4587053U, 0x8da210cf33af2U,
  0xbca51ec85ae60d4eU, 0x3bfabeb5feada56bU, 0xc0999d00524e02a4U, 0x7f904799f534041aU,
  0xcde7ef99a266c3ceU, 0xcaf0ae3fe00cfe24U, 0xf07627c951683cb0U, 0x22e79bb0c9b00e0eU,
  0xf64764e43d3b0c70U, 0xf001ff4cb6db6212U, 0x7a6ed1aa37655c0aU, 0x3cdcc00301391f1bU,
  0x45f35e7a23abafe9U, 0x44dd804fe91305dU, 0xd0d6b13ed13eedcfU, 0x24d320396cefc038U,
  0x514074ba8ad54f54U, 0x7f0c2915a5b6da22U, 0xcc6798062f4a579bU, 0xcb519cc4df0003a0U,
  0xb12f3bad35c4ed23U, 0x2a1010560816cb00U, 0xe7bb397fdc5e0101U, 0xa4bd347f73c6407U,
  0x35f224e9c342df07U, 0xdc740f5975da4acU, 0xdd75a671a150c7a2U, 0x5123facb95835ceaU,
  0x2f66d00ce5f3fc68U, 0x3ab6005010a02982U, 0x9891a8e552875ec1U, 0xdf9c5c11d1a72b3fU,
  0x36859d327f6e170bU, 0xa3a4e9effd4271fdU, 0x7f96c0e48b2f6a73U, 0x150e1560fdbbb810U,
  0xb1fcc16a22662e9U, 0xd758e04ccc32b849U, 0x660530c5163367a7U, 0x913aa1e5225d2325U,
  0x37cb081f482da72cU, 0x65deb6dd514ef9d2U, 0x2a9bf784b9e8f5eeU, 0x94ddb97081ba174fU,
  0x23f2557541dbff38U, 0x6dd50416b7c94641U, 0xad825474cd6e4f1dU, 0x36a4c40f3a025a46U,
  0x29990bcdbe1bacb1U, 0x9eb32dc3f145ac0bU, 0xa6db0da9418e550fU, 0x68067fdfe2e6f2c2U,
  0xef4af98ff8689676U, 0x62b2c9d572ae51eaU, 0x5342f5d0ba4afbbU, 0x280f195222bc4b5bU,
  0x6f125005a463ce5aU, 0x5336509e13f40df9U, 0x3615540306913ee3U, 0x22042aa676f75600U,
  0xd92dc865f65a5846U, 0xff7011b632244be9U, 0xaa52cce1c1650bbbU, 0xa3c9b661f0435a8fU,
  0xd2cebf2e6231561bU, 0x7f453108ea583946U, 0x67b45d4c4be3b1c3U, 0xd64ed86d9b18386U,
  0x8c98f60f02ace5c5U, 0x6fcff5574a986f3bU, 0x223aa63494ffc14cU, 0xecf120ac0f53d7efU,
  0x9993e826b15f370dU, 0x7f4a39397161b7e6U, 0xffffeee9c3eea7c9U, 0xffffd940000005c9U,
  0xffffe03fffffbf3eU, 0xffffca63000015c6U, 0x1b3a00000525U, 0xfffffaf6fffff34eU,
  0xffffd854ffffcf4aU, 0x242ffffff78fU, 0x10ba00000339U, 0xfffff78500001ca0U,
  0xffffffb50000209cU, 0xffffec0b000022e7U, 0xffffd6cefffff89bU, 0x4a300000889U,
  0x9e7ffffed22U, 0xffffb946ffffe2d1U, 0xb90e7f9200000febU, 0x916b48505704c7b9U,
  0x6aeaab18a4df35dcU, 0xd3a2f60cfa130e8fU, 0xabacf0450e9bc259U, 0xc265b61a48c17f6cU,
  0x52e495d72b488792U, 0xd5310a415075de0U, 0x3b8a515af0461fe3U, 0x3811510e9d55f9e3U,
  0x81bb16774f1ce5cdU, 0x7e1ba759e34c6bfaU, 0xea7434db24e2f5cdU, 0x14fbd6830d4bfa9U,
  0x581c618f4101ace3U, 0x2e3b9bc7055a2981U, 0xce09f5bf93e1ed1cU, 0xc9d535d5411cfaa5U,
  0x193b6b368e33a5cdU, 0x31884e70de093627U, 0x9a44e6c5687f0cd7U, 0x81a745114c766805U,
  0xbf02e93552d6359dU, 0xf073bd94f05ca97bU, 0xe5c4cafee0d37499U, 0xcd077f462e3b3410U,
  0x249aebc2e356e424U, 0x38b597f94157cfd8U, 0x94c27f2baa2642d2U, 0xf7c3c84d36e57ca7U,
  0xf7fe8d783acd3262U, 0xd5e23425169095c5U, 0xa7604ac5c0393ae0U, 0x81d70fbe31feeff7U,
  0x4f45e7416388edb2U, 0x69091ec52aa2f206U, 0x417f035bf79bb673U, 0x11345823ab298b60U,
  0xc0b54d4f05ec3bfcU, 0xd073d4588915d49cU, 0xf4022ae21916154eU, 0x5ae6ac470d71a521U,
  0x2852c281612f538cU, 0xc6a81435067644b9U, 0x67d6d7fff774b6bU, 0xb669c67b7ce1ed2cU,
  0x5503040a0b65c7ceU, 0xdbc9a6880008d538U, 0x1881d4a7468651f9U, 0xac6636e448ef29b7U,
  0x736fd62fb8237db5U, 0xbe98fb09878c404aU, 0x6b10201a2ff39a89U, 0xaf9609fa6fdc1ae0U,
  0xf911c66756f34f52U, 0x81980693cbdfb207U, 0xaa76e0eebac0cee9U, 0x9b67ee1d32e56d47U,
  0xfd1033a82fab9d81U, 0x846b40aae617c3d3U, 0xbc4f013f14b530f4U, 0xe732319997141bd4U,
  0xcc4a854fb2a44a36U, 0x1a921546a43866e5U, 0x7719029d815aa93cU, 0xb64c811dffb9e860U,
  0xe057b3946e2aa57cU, 0xe12d0f0ae5db2bd1U, 0x689c2e2810154a27U, 0x666bc6167e126b3aU,
  0x6191e2f8166c3f07U, 0x3cd57fc4fab6ec3bU, 0x70157e1e198d2b1cU, 0x99969ef3d3321b2eU,
  0xf2d42feeb18e530U, 0xa640d5e9d15c6be6U, 0x57d8b5d14ee71d7fU, 0x46489515c762ff0U,
  0x27cfd83192398e59U, 0x34a75f7fb2b8a41dU, 0xf76dcffda36b26c7U, 0xa49510501955221cU,
  0x336d8a3aabe00448U, 0xc6cacee281cb316dU, 0x713a4e52f196cd5aU, 0x93125bdad61c1e93U,
  0x42258193a1e623dfU, 0xec3c5d5a5dc1a8c9U, 0xce84ccbdf925026cU, 0xd627668b98608501U,
  0x8ad8a504e46a0e5dU, 0x778d83f615574f1bU, 0x5d7f726c03812ec1U, 0x3d6c39d84da50e6aU,
  0x69d163f16e3f2907U, 0xd7ee6d5152e14c07U, 0x495c8c17b3d0a7c2U, 0xc0eda678f1c3a0cbU,
  0xc07ffc45b2c1d8ebU, 0x9c5dd8129cbcc9e1U, 0xb8fdcb347aa01958U, 0xfd3c4c95b64342cdU,
  0x1e3ff4e1f48d2dcaU, 0x26e3d2810fe391c3U, 0x9d81148a209153c7U, 0xb4ec35c7643345eaU,
  0xa3d0c6d1fd6607d5U, 0xb0a461f4ba4ec705U, 0x5b5c6e6a0e0f6dc3U, 0x8ff1f02b38d1cd3aU,
  0x13812f0fccada9aeU, 0x79ecced24f43895eU, 0xa3e742616fdddb0dU, 0xec719a0eeb4a9ed2U,
  0x97ea6c671ac60413U, 0x38ffae819250a51fU, 0x75d650b13dacbf69U, 0xcc98f05e23e2ee25U,
  0x1cfd0464e868309U, 0x8aa9719ac6c48165U, 0xa0a5c7b42097c365U, 0xdab68844201a1d04U,
  0x391db665dc0ffda5U, 0x663f7f66f53c5422U, 0xdc1f56b90ed80a3bU, 0xfa2da0920e573136U,
  0xb37f332f6ae5095dU, 0x349626f66cb34063U, 0x11d6fb361e99U, 0xffffe7bdfffffea0U,
  0xfffff2f80000018eU, 0x15500000439U, 0x9f90000069fU, 0xffffdf42ffffe310U,
  0x1701ffffe59bU, 0xec40000147cU, 0xfffff78700000b26U, 0xffffe446ffffd079U,
  0x6f1fffff9b0U, 0x2310fffff168U, 0x17c0ffffbd58U, 0x1a7f00002080U,
  0xad7fffff422U, 0xfffff4d800001b10U, 0x1ef32cc3ffffe291U, 0xe6cc4f052e281b5U,
  0x7f6a7f4b94b03d4eU, 0xd7ca00db40716e2fU, 0xce77547b2750a1cU, 0xf06585adb641eddcU,
  0x387f57d10527817fU, 0x535e12121b8107bfU, 0xc1f53710531984f7U, 0x4470257fb4bee355U,
  0x99f0eae18a9487ecU, 0xfaaa15acf0b8a49fU, 0x8ec3df02db0be3efU, 0x38017ff0e19602efU,
  0x5ce7177f0d239519U, 0x98818133e73ead67U, 0x40fb818181b07fd8U, 0x6632e2daca310156U,
  0xb269d043bdc2af49U, 0x5bc3e3bc2f4e3dc7U, 0x81ad82f749f06109U, 0xfce54eed9e71647fU,
  0xf7fc30a42981f107U, 0xd07bae3f7fe198cbU, 0xac1846ea2f81d4baU, 0x868157477f810908U,
  0x255ae8c40b086e1cU, 0xaeef97d4c2d27f7fU, 0xd1e2c0d4348dcf43U, 0x81ba9b4301caa9ddU,
  0x33cdb049fec652a5U, 0xddac17816af83301U, 0xff7f3b542661add9U, 0x2b9574186adb42d1U,
  0x2f9ec97281713bf4U, 0x7f3ed6f22d83a704U, 0x5a89ccbce7fU, 0x42e00000108U,
  0xfffff9c90000158dU, 0x75c00000436U, 0xfffff9aa00000096U, 0xfffffe11fffffa4fU,
  0xfffff40ffffffe7dU, 0xd7a000006a2U, 0xfffff34900001196U, 0xfffff28bfffffd18U,
  0xfffffff6fffff5f7U, 0x93afffffeaaU, 0xdcbffffeda5U, 0x7a4000010d8U,
  0xfffffd6900000180U, 0x80f00000718U, 0x86ec1544000002d3U, 0x1689f281c6cd9bc2U,
  0x90f68ca2cec1fbe3U, 0xa3b5035e393ab4a7U, 0x35a4fd557da2442U, 0xb9e6574bb852bbbeU,
  0xa657370c6838a4fdU, 0x6e90e0b22a941fbeU, 0xb432460417ffaaeU, 0x9a3f338f668e5906U,
  0xb7c49ab3f91f0229U, 0xf61d5ec27f62fb22U, 0x3cc1f50dc2d7174aU, 0xedc36b3188efd56bU,
  0x918dddc76b2f8123U, 0x9265c8b19cb7dbecU, 0x93b5f6cc25aa3271U, 0x814b874d0d73e771U,
  0x76a3ed166a3a29bU, 0x7124ddbaf80cba21U, 0xe65386af2f05e7a3U, 0xcace68f651219fd5U,
  0xa7f4f3da62d51fc5U, 0xe7f847d66c308456U, 0xfa816d973981a9cbU, 0x572028fdb9c76dbaU,
  0x660a38a8559b05cfU, 0xfaaf32e532cdfacaU, 0x1d17dc4bda443d73U, 0x5197045dd58141caU,
  0xc2c5615ff7e54716U, 0xc2b5f3a5b26703cdU, 0x854a19ea5455fa0bU, 0xa27fd51c26d560f0U,
  0x4749348dc17b8b83U, 0xe5031755cd2e3f22U, 0xf8e895ba450e23ceU, 0xa812fd26a6968e9eU,
  0x955520fcc20c3905U, 0x7b5c425a4e1c567fU, 0xcf8f8149d2124612U, 0xfb755a1ab2a8faa3U,
  0x7aa37311d73aa9a8U, 0x2b23b46e3679c79eU, 0xcecc26ae87243b31U, 0xa7814b6464a3cfd9U,
  0x30ce9b9a49b8a43dU, 0xa3cbc60a1a0373caU, 0x47d28e9118612681U, 0x3f53704ba7f0eeeU,
  0xa1d6ed33bb0f7c59U, 0x5aa87154a497da5bU, 0xa2b82981d91af3ecU, 0xddbc7e5e9dddad2U,
  0x2265cc4ac9c05a4bU, 0x19d8b6ae39959cbaU, 0x129d2f6521dfadbfU, 0xba968d941b0d78b4U,
  0x680f0b0bdc440daeU, 0x1106dfba49ddef81U, 0xe0fd518d2d06f2eaU, 0x96484afd1c7f6e51U,
  0x47bb3725c3e2113aU, 0xb2b47845ed1c5e6bU, 0xd77649e458e954a6U, 0x26ac4239902cfe8eU,
  0x944ad71acf98ea1bU, 0x10db7f6d0243ee61U, 0xe5d48521b3ae36b7U, 0x7a4a58728aacc1e8U,
  0x1c588f4025c82443U, 0x47ffc63176ce299U, 0x3e81aa7a8b76b47fU, 0x314f6d54591ea79cU,
  0xd2bf1cac0c0afedfU, 0xe5c685990ce7e2ecU, 0xe7421ca6cf97a0f7U, 0x3e85f194503d481cU,
  0x3a9cc6dd54384241U, 0xb5b04c4720ad1681U, 0x81c69aa4c4085351U, 0xb1c0f8d923dd5211U,
  0xa1e3e996db23305U, 0x1d8d88dcd993061U, 0x24f684522008bf27U, 0x560628e951c1ecd6U,
  0x7fcea36ff6f72192U, 0x9ebda715bf82b20cU, 0x43939ba727d4c6cfU, 0x53a52b81d863ed07U,
  0x8dc413a6284933a9U, 0xf7795fa9da646633U, 0xf54e418ccf526daU, 0xd8de9be225b59574U,
  0xa679d0c1e06d124dU, 0xfac72d6fd8145a6U, 0x50844f7faa3b0c22U, 0x17b8dc067835282dU,
  0x645f1e890e2cb181U, 0x50c0fc09ce0ff8a5U, 0xb70e7a3f273a0f51U, 0x2f003bfa6219085cU,
  0x58e163675db1a67fU, 0xae81a4513f994729U, 0xf342ef77af1a4dcbU, 0xcf9dbfa740f831e1U,
  0xad3cdb2c6a81746fU, 0xe1fdb6452b0f38c5U, 0x81728149df9c395aU, 0xfc5f73a508af8275U,
  0x35691a28c4c07267U, 0x864bd735199124e4U, 0xbe405ced0619101aU, 0x3d96538abcf664f3U,
  0xc3ec8ad71ab53463U, 0xaa19078e4d8c7e7fU, 0x66691451face4829U, 0xb686095f15c33dc0U,
  0x7f6e3e0ff2d739f8U, 0x47a2776a35feed5dU, 0x5bbb1c4f00e619c9U, 0x1f18f9233fc17b7eU,
  0x1ddd5768113d3ca3U, 0x291246cb8b8131b9U, 0x725eb05f07798d9aU, 0x321c1b9056be220dU,
  0xb7e3996910dc9d2aU, 0xaca75226cae74ca0U, 0x31765481f019U, 0xfffff1c3fffffc92U,
  0x10af00001845U, 0xfffffe520000136cU, 0xfffff9eafffffe68U, 0x3bafffff536U,
  0xfffffea900001f91U, 0xeac00002f22U, 0xfffffd55ffffde7bU, 0x2093ffffeb1cU,
  0x229afffff83cU, 0x70900001bf8U, 0xffffe997000007e8U, 0xfffff788ffffe4bcU,
  0x481fffff8c2U, 0xffffea3bffffd159U, 0x8170f7e40000059fU, 0x7b4b695e9ba39cbU,
  0xa6b8a61eea49ae6U, 0x1a0fa74ea9bd451cU, 0x65a51ee3c86af2e5U, 0xc5a0cec7c8570775U,
  0x4e7cbc15e1ed1a77U, 0x9445551913963578U, 0xbebe163c7f5fcef5U, 0x5f62c39e0bd764dfU,
  0x69e2cb8b585e434eU, 0xf281e8bb2a286343U, 0xb07b07c79014b7cdU, 0xf74569a1d32bfda1U,
  0x94490d5844adc46aU, 0x58e4ac6cc64e6af4U, 0xbbbdafeda9a37f61U, 0x65c001d017bbbdb3U,
  0x86ddba541bdf3765U, 0x122feca81a8f815dU, 0xeb38e13c05f1ab2eU, 0x718567bd36aa5d7cU,
  0xbb13f9df7ba3ec91U, 0x127116d7027caccbU, 0xb553b9c681ba7252U, 0xbb2242a6e2814425U,
  0x748bb15871406fdU, 0x5999aaa8cc2989ccU, 0xe9810ec882a5fd8dU, 0xcf72d4914c492d58U,
  0x286cf52c3d0f18e6U, 0xbc8f47fa3d4a4e89U, 0x2fa95100141bcf38U, 0xf67b474825cbb66bU,
  0xb5c3098ea6238cd4U, 0x2c47152c73428144U, 0xcc0f2b3ed9ac5b7fU, 0xbcc13aeb2b21cfb8U,
  0x531900d6263fe569U, 0x68647b73c9a0b6bU, 0x8caae52691cd5281U, 0xbf2e8673896b4a02U,
  0xe7d15c359f1de75eU, 0x1181e17057019837U, 0x1f017c591bfbd039U, 0x3ecc5fc93055d1afU,
  0xbe223df8165a1681U, 0x58ed9e26b002ab0U, 0x252f7d632f85a4aaU, 0x7e1e0c34356b4e61U,
  0xfe2ae93994c67ed8U, 0xbeff7f22a05f5637U, 0xb2c3db305f4fe3feU, 0xebe6d76e9e0843deU,
  0xdafa992d6978d037U, 0xaca430dfad3b7f95U, 0xe0c9bc730324c454U, 0xc2b8947feeb25712U,
  0xb5ec32c0e5aacc32U, 0xbb768cec167f1283U, 0x7bb00ac1a97e981U, 0x49e84d0b2b27847eU,
  0xa4106c5dac6ab315U, 0xa2991dba923f90f5U, 0x50506adbaf81741cU, 0xb77fd2ae4eccabfeU,
  0x2e3442ef9bd9ce3bU, 0x530bcc0f704f88a2U, 0x3fae6b8288b3c4feU, 0x148c8b0496a7ebb4U,
  0x816ecf25990f339fU, 0xe08fba4e363b8e5cU, 0xa252bec6f498f55eU, 0xa43f62b39990a03dU,
  0x6529675132171d06U, 0xa8550ef7f99853ddU, 0x75983c2bd98d4d81U, 0x95e4d89a10efa68aU,
  0x27cb38577cb305e8U, 0x4270137f90dffa33U, 0x2742ad75bceb3036U, 0xbd2d2be49b47a9bdU,
  0xe93aa833ffb6ec36U, 0x62816baa6a2ef42cU, 0x81a5da30d1bbd8e7U, 0x888a7b20be475a4dU,
  0x7676cfbd2d088cecU, 0xf3546efbd8d706e1U, 0xba9bed5ad619afb4U, 0xf535814527a01b90U,
  0x8484adef3ad0d09U, 0x278800c61494b9c2U, 0x440b441bf592a33U, 0xd9a3ef43b4be67d1U,
  0xdea2f877e9d3a674U, 0xe6cbd1a0a1d1f8dU, 0x1636b08151fd887fU, 0x605d1ee1545edefaU,
  0xd7171d6c2ba2987U, 0x59e3e152e34abf29U, 0x483406b7d3c3eea3U, 0x53dba6fb1ccf270U,
  0x59ea2e2b946cfd83U, 0xf2b1ba4a11d0a81U, 0xfec657a1d193dd97U, 0xf98958f81221e83eU,
  0xbc243947b233d427U, 0x65ae4bac6c7f1d1bU, 0x9bae7fcc08659a66U, 0xa6b69bea3be072dbU,
  0x8d1dd8de68a2c511U, 0x1d3e4736d38b4506U, 0x578dc124efff5e53U, 0x311b752b46694151U,
  0x4b63e6f7fd5d5750U, 0xecee55b6636ef224U, 0x5b0f63b581319cf8U, 0xb8629fe24ff4d04aU,
  0x989aa2fdc2097f24U, 0xd8a56aed77f90f99U, 0x8e7040a257e3f45aU, 0x4c88879ff5ff7213U,
  0x9a72a57fc6229a05U, 0x9fdcfa4c8831f377U, 0x2a21d9ce5065f4e1U, 0x5aadf4123210e1daU,
  0xd9ab9ff0ded4b85bU, 0x33e0aee74fc3bafaU, 0x22a3dfc98138U, 0xfffffd62ffffe455U,
  0x254bfffff068U, 0x3d69fffff54bU, 0xffffee21fffff0ccU, 0x273000004fdU,
  0xffffb63a00000292U, 0x26db000009d6U, 0x700000012d6U, 0xd4c00002b35U,
  0x7e8fffffe59U, 0x1a4600000ba3U, 0xfffffa5e00000441U, 0xffffe60e00001287U,
  0xffffcae400000b17U, 0x9c5fffffbc1U, 0x20a97f5700002473U, 0xec3114a708ced85fU,
  0x8ab4de4479312c56U, 0x47b47f24460b90daU, 0xf360a48c160081eeU, 0xd5383a38815db57cU,
  0x810321265060bc81U, 0x8da1906fb8b94204U, 0xfc84623022be7033U, 0xac1e7ff8bfa22820U,
  0xae19f981575d08b6U, 0xc0c43d60db817088U, 0x2a85741a0139dcfeU, 0x8e819989d91fea81U,
  0x55f27ffc0a810bc6U, 0xd37ffa815e678d7fU, 0xb05f4f03bd81b1bbU, 0x8208b1a8234abd62U,
  0xf1e63deaf23446f9U, 0x81658f697a4e7ff8U, 0x554c0ad2ef03d941U, 0xa65f346c0a326a3bU,
  0xe476c76c209b0036U, 0x993f99ac0278f836U, 0xe642b67f66b66f43U, 0x30b303bbc67fc464U,
  0x4a7fba94a0527fdfU, 0x217071767faccd6eU, 0x1e68995189079413U, 0xff2f0481b0856a4dU,
  0x1ef2f77421b742e9U, 0x9525c8e9be490c78U, 0x7f8111372631b97fU, 0x7fb6e799ebb57fb9U,
  0xa4a2028981b3f798U, 0x87cac93654c3d826U, 0xfffff10281feed85U, 0xd3fffff55bU,
  0xffffe9b3fffff52dU, 0xfffffdf0fffff88aU, 0x16560000130eU, 0xffffffadfffffceaU,
  0xfa800001183U, 0xcafffff248U, 0x210fffff91cU, 0xfffffceefffffd43U,
  0xffffef95000010c0U, 0xfffffdc60000000eU, 0xfffff06cffffedf8U, 0xfffff67e0000081cU,
  0xfffff94000002176U, 0x83200000d9fU, 0xaaff54b60000082dU, 0x28aad4e639e642b8U,
  0x38b867e1b45bcbdcU, 0x87aef9c7dbd97d7bU, 0x108e8d3cbfe17f1fU, 0x28436c0dcae2f40U,
  0x3147595a7fd3229bU, 0xeadf86f865e3c589U, 0x5e22a1b498a94875U, 0xe82f9c6cdca3b4aeU,
  0x62daf1daca78934aU, 0xf13983dd4a75f91dU, 0x586fd83f7f102455U, 0x7784354ed60f97f2U,
  0xd91a8169f92b8847U, 0x9f07293d54a7e8cfU, 0x11a5e4c7c4b125f0U, 0x9746f89c2bdb0281U,
  0x25251cac81625066U, 0xd2fe2b3b985678bfU, 0xd61ad6b537609538U, 0x15e25eaf070999dfU,
  0x7f10eb026d36a968U, 0x86c94b06bd3ece4eU, 0x2eae290e541491cbU, 0xc14a4d2f4898276eU,
  0xb1502c1041ff81e2U, 0x214dfcc436aa6cb8U, 0x2e414eaff31b3aa5U, 0x95abbbc6ac28651fU,
  0x4190d2cc923503b0U, 0xf13dd8f67f699302U, 0xa9b4895060c8e96eU, 0x98e69b812887e474U,
  0x953e3b1727177b96U, 0x8a1a4b1e48718c5U, 0xcd9b0725cf496465U, 0xf35ce45108e3d03eU,
  0x841bc1387fbc1a32U, 0x3c67f13e01b23b29U, 0x2d37422f13abda13U, 0xdc32b3edf2bf0ca1U,
  0x95a232cdc8bf1e7dU, 0x31a26da4817c23c3U, 0x8a8d3538fbb15d48U, 0x52d87fe4f1cf4fcbU,
  0xd2f2e711fc6e5e38U, 0x9c6da930e8bb8ed8U, 0xe4a8e056f1be346aU, 0x7bd724021a407e0aU,
  0xc91a9ad11b960642U, 0x7f5bc0e26ca86397U, 0xe0085f57810108d1U, 0x7fe800a69f750ec8U,
  0x449e6625f2d55c2dU, 0xfaa28cd64dc6e7baU, 0x8bda59c0968fa59eU, 0x956c123542fa3efdU,
  0x5bffcc380c812f55U, 0xc12a9e9ccb709e7U, 0x8109c661d039163aU, 0x90bf9b7674aaa753U,
  0x4b5abe5614b7ab13U, 0x5302facfa328c327U, 0x20d270353d82da74U, 0xb5bd39f3cdeb13d6U,
  0xe19c39772fb53893U, 0x9e96f3bb497f41adU, 0x1d5bc65a9d2f9c50U, 0x21404f1cd03d8ccfU,
  0x204f41d74ed3e80fU, 0xec6db5e4bd17489dU, 0x4c5d345c7ff4b862U, 0x23d8280766c9115eU,
  0xfb4d978aa6cd9acdU, 0x5667755781f3635eU, 0x5f5d2366f49decb4U, 0x84c7b0614f91b242U,
  0x49372b9bf381d8b7U, 0x4b28b21e20a8d38dU, 0x98ba2039570dae30U, 0xbf3001d49cb695baU,
  0xd9f66e3ee9c92c5eU, 0x5ece87fb69812351U, 0xcfcea6570d3ce81bU, 0x37f56c726d9fa5bU,
  0xbcc76da3a34441e8U, 0xb8232a62299b72b6U, 0x3bc367e8bf60fa8cU, 0x3ec206b037a57bf3U,
  0xb74f75a8ec7fbaa5U, 0x382308b2d94914bcU, 0x5bb16a7f1b271419U, 0x986c4ac1132fd2aU,
  0x88bf51201ff583caU, 0xd75bc12960c8f7e8U, 0xa11fae5ef58dc9cfU, 0xb6eeb692d1d3a802U,
  0x5b5d8cffb066b137U, 0x9b7f267973291411U, 0xd5035197ee8d70cU, 0x1b8114738e6085e8U,
  0xa4dab4ab042d024fU, 0xb4a0d3dff524296cU, 0x8f18519308e6434fU, 0xc46e6406148152a0U,
  0x8831e42ec54e4ce8U, 0x8d6b23bdb7737ba0U, 0x4f119944e4d55913U, 0x6f32195d2687e14eU,
  0xaa6858503f2d8167U, 0xd0e8a395d1a705f1U, 0xee9ba32aaf0deaf2U, 0xd835ba0c00d09a0dU,
  0x4b213cdfa01613d4U, 0x781aaf18fcbfa3cU, 0x6109daf15557962aU, 0xc35c11352ad15298U,
  0xd973bbf281faff9bU, 0xb467078c5d36b742U, 0x81ac92d2bf0a1c42U, 0xd4394a2c0e9cd7aeU,
  0x35a82d6de61df279U, 0x8f3f14534fde54f6U, 0x2cf8ddf6724d117U, 0xd071817d38420845U,
  0x49be1c21f90fd91aU, 0x1fe973a9fec5ab0cU, 0xdb90bbbc311U, 0xfffffb8200000f45U,
  0x4a6000002deU, 0xfffff1bc0000020fU, 0x23ef00000799U, 0xba1fffff591U,
  0xfffffb58000003ddU, 0x450000130dU, 0xffd0000091aU, 0xffffebf4ffffe9b7U,
  0xe0700000602U, 0xfffff6e3fffffacdU, 0xffffff6f00001095U, 0x5a600000268U,
  0x1cb9fffffff7U, 0xfffffe430000047bU, 0x7fa6d6c10000016aU, 0x2cbf3c5016d6916aU,
  0x63f61ac05cad9218U, 0x5301fc5905ff8f89U, 0x4a4fc46367ed8748U, 0xdb4fe5d25ac09779U,
  0x4a7f69c1f0ccee26U, 0x51f063b50702c4baU, 0x9d5b43182b6209c0U, 0x6bcd58fb4252fd2cU,
  0x453aacbcd67fa67eU, 0x63b25253c727d397U, 0xeec8cb70f0a7e0cU, 0xe1f9ab180fae6dfbU,
  0xf7a41ee8e6efdc57U, 0xb110ae77108581c9U, 0x34660994d7b8664fU, 0xc05343a3e9677f00U,
  0x3eb3d6c0df8a6daU, 0x5965b9d1f6b1acd1U, 0x2c132bc21e915e34U, 0xfc7d2bb1c9d7810bU,
  0x3af3505be3843217U, 0x2af62785e35731a8U, 0x812a814c0c05066bU, 0x36b610bed93ca5a4U,
  0xc7e2b83ecd32e9f0U, 0x3ccaf2a052d5f5U, 0xbe36ab634139b3daU, 0x4910b27707e92229U,
  0x386ae76516ae0a03U, 0x496b2b9e8e4f81faU, 0x5ca6077f18f01U, 0x86d1732987f4535U,
  0xfe12c81728a64f06U, 0xe1917aa9ea5ae61eU, 0xdde333174e8d2facU, 0x21f94e5d0f7b96e0U,
  0x51ab8da9a466b615U, 0x3714291a71e5dc5cU, 0x36381e5de75781b4U, 0x2f8eb23e12668f0aU,
  0x391831fbd90f0d5dU, 0xf2a1f5592f7144aaU, 0xedb416ae4b7fcb2aU, 0x8c7f077f67fc95d3U,
  0xec169efa9c547168U, 0xc4995225db243d0aU, 0x2f24f93061a54cdaU, 0x68609312f568a4a1U,
  0xf0a495aa2c465b90U, 0x2cbbe97c2df1cf9dU, 0xf679695c2a6e7f05U, 0x9556baa041bbacf2U,
  0xa71093742d498662U, 0xb4f3a03f4172004bU, 0x1781cc4e81f8f20aU, 0x1e05608dd19f03c0U,
  0x83964dffba7b667U, 0x9940418514cc4d5bU, 0x9a7533598840f24fU, 0x54afbf3d6e9f8d0aU,
  0x4412a8b7ea761e81U, 0xb4f6b8dc85c409fbU, 0x2355a9dedacfb163U, 0x67e80212cb9044d7U,
  0x49cbd5a1ce6fc3daU, 0xe4d19751c025df34U, 0x254a2fe8f881b860U, 0x5b401b8db9396cc5U,
  0xf984e66dafc3d81U, 0x98653438a0f35f16U, 0xe07fa22a402dbacfU, 0x3c1bbe0f56575335U,
  0x9cee897a2fdef36eU, 0x9909699bcb0267fcU, 0xf440306aac61ec73U, 0xd999d046bfd9b68eU,
  0xb3510b49b11c3ccaU, 0xaff0cab22b578a68U, 0x20305c81810ce5f2U, 0x6d53bf5be335d2d2U,
  0xa1e771c0ca9da18bU, 0xad38d5e165aa26e7U, 0xaffdce2c392b5854U, 0x62b098a23e736939U,
  0x64d53bb28c67601bU, 0x71bce7627f2702bbU, 0xa2625e1d32847a31U, 0x2b833e5c9bbaecddU,
  0xb79e20d89a3a219fU, 0x814488579370d0aaU, 0x9eb31b7069612cbdU, 0x3cfec61ffae2ed2fU,
  0xc72b4d6d3181ba08U, 0xb239f0c88814c7ecU, 0x22eb4d207f84b79bU, 0x6d905826363d98ceU,
  0x814fc26b67665b45U, 0x1e5500ea17e1b7faU, 0x85021c592177227U, 0xfc390d163ff0aaeeU,
  0xbcdd6c5fbacd73afU, 0x617f4f115aefdf15U, 0xbd707af54b047acbU, 0xcd7fbd4d70562f9aU,
  0xeb82a42f0ba2e621U, 0x5ef357368760bf42U, 0x27a75cfac9266f01U, 0x73dc0c029a03abd2U,
  0xb19c400ff1cc004U, 0x3eef6174114f64a3U, 0xc4d4c2fdbbcc7fdcU, 0xddcc24eb535eb53aU,
  0xe959308fd86615f0U, 0xa299a07f612a19e8U, 0xc9209ec53a184a5bU, 0xa8e82523b7c76408U,
  0x6d2bf77ff554065aU, 0x3675a76659946b00U, 0x404f1c99cf521b34U, 0x4b010f81740b61abU,
  0xbf3a211ee0d4568dU, 0xa2b76e0af7eca3feU, 0x4ba58e7a1c00d3fbU, 0xd8296e1f4130a75bU,
  0x30001e5b0ea1c660U, 0xa24469e15d14827eU, 0xffffffcc7da95881U, 0xffffd6caffffe36eU,
  0xfffff2d4000023d1U, 0x243ffffff74aU, 0xffffef0dffffec82U, 0xffffd678fffff988U,
  0xfffff559fffff9bbU, 0xa72fffffe96U, 0x17d800001bcbU, 0xffffe6e9ffffeca5U,
  0x1f700001b41U, 0x15fdffffdf83U, 0xffffd95a00001b38U, 0xffffe667ffffd7eeU,
  0xfffff2f6fffff588U, 0x3f0ffffdcddU, 0xa66f1b54ffffddefU, 0x3e5fa3817f08e0a3U,
  0x8181307febef95a4U, 0xeb1b4b6281a77fb5U, 0x8ad62745da8d287fU, 0xe464d761a9b37fecU,
  0x7cc32c48a85da841U, 0x5ed7cf31be7dda5cU, 0xb4f88153c815d11cU, 0x3fc751102e4ad873U,
  0xeadbfc40beb31181U, 0x1eb174e314be1324U, 0x244c6576f3f25607U, 0x7f3f5b5a25fc35a3U,
  0x4f38b6e3bb6206efU, 0x4a98ed3238a5465cU, 0x812c4541063e3045U, 0xf8da7f9fda592f81U,
  0xa5245283bbcb952cU, 0x81297b9a07a2e9a0U, 0x6aa7a0e905aca9bcU, 0x197fbc2edf05a0e5U,
  0xa6bf18074ba0b2dcU, 0x7f81da7f27b6869cU, 0xc13ef72ab881c0d0U, 0x2c3d2048499e46fcU,
  0x91d4a4ce0e3081f2U, 0x231aff400d1f66e1U, 0x237fa0923f1e7f1fU, 0x2fac03dc73283a0fU,
  0x783817e8f7fa7dbU, 0xa232fa4a464665c6U, 0xc469307f814d069fU, 0xe539ad71cb81fca0U,
  0x8291a9017fcd6082U, 0xcc977fba9b7fee7fU, 0xffffe6ea0bf94be1U, 0xffffeae0000002e8U,
  0x1344000016ecU, 0x4f3fffff443U, 0xfffff649fffff4ffU, 0xfffff046fffffc37U,
  0x112dffffef18U, 0xfffffbf200001b25U, 0xfffff4d200000de3U, 0x1d7d00000b54U,
  0x11b000015d6U, 0x42efffff614U, 0xfffff27700000577U, 0x10d9ffffebb1U,
  0xfffffefdfffffcd6U, 0x950fffff61fU, 0x1d48afbd00000d95U, 0xfb8ded88126a5658U,
  0xd4c3d4724c189fd9U, 0xede4819b99720872U, 0x8189101a604c396fU, 0xc260e338d8a09cb0U,
  0xa22c3bc59b26de2bU, 0xf3c92bc9c65a08b8U, 0x1a5f1b0a61df3ce7U, 0x4ff773c82b0efa95U,
  0xa360b774df660a1cU, 0x4daa7fddf1f42cd9U, 0xeaec21208ff10f96U, 0x8ae062812532d697U,
  0x41bc41e2e6fbff5U, 0x31f585ace2e3a3d7U, 0xa181dba4701ee645U, 0xda47e76f225b41b2U,
  0xf1dc8a29f293e8U, 0x9ea6f28e57add0e6U, 0x706059ba35dcde5U, 0xfa4ae1af616aaefU,
  0x113e1c90a8c0b4e3U, 0x2def2b367f272c16U, 0x3f8e810ef9ce0597U, 0x7ecc98d82bca2d03U,
  0xf84610ae717311e6U, 0xaf4b1b02acb011cbU, 0xccef480d6342df26U, 0x18fdfac51f2c53f0U,
  0xa631317f345fc60cU, 0xc1c628f100516046U, 0x8259828ea0f0dbaU, 0xe009e6cc6847def0U,
  0xe08d21bc3c3de08U, 0xef0965292afb9577U, 0x4f9da8e8a98f5681U, 0xcfae57835b9bbe30U,
  0x649bb53fe3e9b0baU, 0x42b69ee25a811771U, 0x29af20f6c6f57144U, 0xfe2e929c7f9c07ccU,
  0x4047d99545ba3fa8U, 0x6d707956afffa3f6U, 0x533d3c3f3f99088bU, 0xc524bb7ffba8a51aU,
  0x2ecace5562c03ddeU, 0xd1d6a249699932b6U, 0x81db7071962c15b0U, 0xdcf2a124f81d3f4cU,
  0x658e2afee8571549U, 0x547e666132010941U, 0x171ab938f157bf32U, 0x81b7bcf33f563ee5U,
  0x7b955b2451d0da8U, 0x8a7a9d4cb714b737U, 0xbfb98cec51c0c52bU, 0xddf8618370b8c3b3U,
  0xc1810d90c41f16cdU, 0xde083f95db3b7bcdU, 0xbc680a7ff1688d62U, 0x30bf0b132a4ceb88U,
  0xb96abe382a776daeU, 0x11e96f39b796b1f6U, 0xc06a5e7f8d344aabU, 0x6c44f1eaab0e5bb1U,
  0x97a7d4a372c7a1d1U, 0xc07a6fac22c79433U, 0x3f0037e8e53dd9cdU, 0x7e712a02d373428dU,
  0xb6968e056bdf41b5U, 0x9e28c2812c4c3777U, 0xc9475587c4d30366U, 0x3b180e614b02e866U,
  0x2e224a9da62442feU, 0xfddec37f8dbc7478U, 0x4df67fc2e2323895U, 0x75459e8d0fff5febU,
  0x8824eb5231cb1dd6U, 0x8cfca1545b0dd6dU, 0x780c75c1c75424bcU, 0x49b675a2152cc213U,
  0xed82ecd9be1e2c91U, 0x859508c1fb7f88e1U, 0xa1c7b801b116fc91U, 0xfab0c84407394f55U,
  0xa477441d9ca50027U, 0x906109b8015d7fc1U, 0xc1847da624d2e819U, 0xaf2ddb360584918U,
  0x76f2a7abfc25bf01U, 0x8b835647f2ede22U, 0xb730c7cb30a7675dU, 0x91ed12024b811c98U,
  0x3285901134b5bb43U, 0xe3acf212dec12ac6U, 0xc79519c64484223bU, 0x9108e460e7ad8d5bU,
  0xc3dc3a797f4fd30fU, 0x46ad69652f56718U, 0x8993968af68fea73U, 0x6281cc324cdb2b45U,
  0xddd0b962b4f8952dU, 0x365ad7645ea23e6dU, 0x2ad3765eae6a3e5U, 0xaabeecb0d907d7c2U,
  0x5dc67bdeb46ee025U, 0x485c56993b9a1b61U, 0xb89b9e60a8d47ff0U, 0x664dd3752dd7a9dcU,
  0x7f56a93b9efde59bU, 0x1b2a07c465fa126eU, 0x9a702c2f92514666U, 0x134c7a2b8a435e90U,
  0x5baa2a49810e88a3U, 0x4ebcd2ca22ec0084U, 0xd6915eb3be3bcabeU, 0xf5e5861c5188b55bU,
  0x7feea0bbd1fb948dU, 0x565c83d8cac121c2U, 0xbab9521aba1e8b3cU, 0x8244041ab0d1a501U,
  0xf598c2c70481d0d1U, 0xb1edb3d547946e02U, 0x5430f77247a77730U, 0xe99d457fbc664f14U,
  0x3badc7fcca5752e8U, 0x2666da75fedc0931U, 0xfffff9f7970605c8U, 0xfffff17500002408U,
  0x2fa3000013a7U, 0xfffffc27000014feU, 0x8c9ffffe5ceU, 0x71800001892U,
  0xffffd33bfffffafaU, 0x2b9700000ac8U, 0x8c2fffff272U, 0xffffe8c6fffff427U,
  0x1d8bfffff7e6U, 0xffffeeeb000002fdU, 0xffffff6900002bb4U, 0xffffffaa00001571U,
  0xf47ffffed39U, 0x2cfa000032b8U, 0x57c0b2beffffe0fbU, 0xebbf5588471a2844U,
  0xb7e7aa619e738162U, 0x18fdb5df6f6a3c6eU, 0x5cf881c828caa0f7U, 0xce830a30eba8d326U,
  0x3225219cbf9e14bU, 0xf5d2a6ebbdc2f523U, 0xc02cb8e5bff33744U, 0x8efe290adabd492bU,
  0xf9b3e4350e14a314U, 0x371e73e6d92a94ebU, 0xbf4baf834cdfe381U, 0x6f03fec422814a37U,
  0x73871470190eacdcU, 0x1b1a2ba1c5bae539U, 0xee0071e8b704b0c4U, 0x4353b37456ddb2a5U,
  0xdb973cbe13998fd6U, 0x9042c424387a20f0U, 0x532a415bd85081d9U, 0x5d7816fd98492442U,
  0x6cf67fd2562663eaU, 0x2e49ea004555b853U, 0xd538a35873baf14eU, 0xb1da6ae806d4dabcU,
  0x2ab993c2a5d5f8a1U, 0xb607349ffbf68100U, 0x6975d322a4c4d5d1U, 0x59c8a341a95d9941U,
  0xe92c180ad04ba567U, 0x49c44dda7faa8fb3U, 0xc86ce4aa704b59e7U, 0x3e167b613088f998U,
  0x5b3b3a6ea198c89cU, 0x2c48cb8190606326U, 0x973420231c8825e8U, 0x163fbc6da400fdbdU,
  0xd4453a6ffc031dd0U, 0x3bfe67265b7fe59fU, 0x577489c24223cc0fU, 0x96ccbac17720f3c9U,
  0x31a0cb037f0d6a67U, 0xd0477a8be8c8da57U, 0x81c4b28d65ea9b7fU, 0x1313ad282bc21ffbU,
  0x41d85124c035bc0aU, 0xfa0652a5e356f641U, 0x2f5d19405e25eedcU, 0x7f70bef0356c4617U,
  0x206a2843b6a135a7U, 0xceaf6d0c16003704U, 0x75e89cc24c5cd8ecU, 0x11283e99021768e1U,
  0xae15b7816e9ef743U, 0x63c5a40969f595e1U, 0xa30fc304574421b1U, 0xc0c7277899c2ef28U,
  0x7f29e47a594a6918U, 0xa4e35b7569d1b001U, 0x758ea6b271bda1d5U, 0xd2f42a34e83b7836U,
  0xd71d810a5441c07aU, 0xcacae7499acc26f4U, 0xf5f6c18fd67ff81fU, 0xd12cf8de81562df5U,
  0xab0e09dafc1c714dU, 0xd1e1c79c1613ae00U, 0x4df7fc89cf2f0725U, 0xc0fa7da6e80e016cU,
  0xebdec88b7f449af1U, 0x1a1e9e59cdce2fe1U, 0xbf7162ed83295cc6U, 0xd6d8db1a605f81d5U,
  0xe9aa2d1d6973f86cU, 0xb0526f4ea30bc60bU, 0x5abcaed8fcd8bf0cU, 0xeab24faa0ce8daeeU,
  0xdfa5813d5fcf55efU, 0x64330f631655646fU, 0xc3a4e7057fd57e3U, 0x5640b414a1e4726U,
  0x957fe199ae84023aU, 0x32fbe38914f4fbccU, 0x9334b94657eac0b0U, 0xada9b6bcd10089b1U,
  0x811e76319c2b5705U, 0xa947f01ab2f54d58U, 0xc2ab080d6f3dce34U, 0xc3815d6f2952fcd9U,
  0x39ffe4ebd3c23187U, 0x839a9197c5d1e261U, 0xfdc039fb1a492abbU, 0x1b9549d53e8f399bU,
  0x7eae6046849f13c0U, 0x50bb781cada17a81U, 0xe0af24dcaa96f36aU, 0xa4ccf70858419322U,
  0xb4d6d324e6167ff4U, 0xd95208ec190dfeb3U, 0xd35bd2eac77d2240U, 0xeee0966179b6092cU,
  0xadafef844748c3d3U, 0x406685f5ccc75b81U, 0x318129372101a84dU, 0xf46a56ec0a75b2e9U,
  0x705eb7907013c6fcU, 0x272bc55d12bab6d7U, 0x858c1776a2d35af8U, 0x68859d350ec8f631U,
  0x90fbd556fa37c9dcU, 0x432db00c4214ea3U, 0x7f3cb42d7f86563dU, 0x8dff521421a62008U,
  0x571bf97d5a9df42fU, 0x849e65aec54c7074U, 0xb0d8b6b8d850eadU, 0x8b5f4d6aa3024e11U,
  0x485c2b56931469b3U, 0xb10dd1f57f09ccdaU, 0x593b561f17b560b2U, 0xf3f8496542cbbe97U,
  0x219ab8ec4d7f5087U, 0xbf3cb70814417455U, 0x31d62740a2e0e6b0U, 0x4d827ac30e9e860U,
  0x94d13a4b45c15e8eU, 0x8b61ad0b98aba27fU, 0xfffffeab3d3be1f4U, 0x187100001ef7U,
  0x103800001af5U, 0x50feffff9f71U, 0xefffffe1e4U, 0xfffff395ffffdc1bU,
  0xffffc32c000008bcU, 0xffffeb160000094dU, 0x1b0dfffffb77U, 0xffffe92f00000ffcU,
  0xfffff56cffffe5cfU, 0x2d5000001458U, 0x39b00001823U, 0xfffff1ed000016ddU,
  0xfffff87e00000ac4U, 0xffffee3fffffebaaU, 0x91ceda7d00000517U, 0x8c5bcbf58e643c00U,
  0x7f0a810b1304bac6U, 0x81649cf3fd897f6cU, 0x7fe9b09d14f3e33cU, 0x202881e69081f1efU,
  0xfc2aa7ad7facbb49U, 0x2ed4a92e7f8c70ceU, 0x651c2481fafa0cdcU, 0x97cae9217f0fe436U,
  0xf2b54b50a9816ea2U, 0x58c4af79a46f319cU, 0xa2cebe70e9b2754fU, 0x137f8df650748eb5U,
  0x9272ade8c918a72U, 0xa5e313c5d7085081U, 0x7a7f7f649c81a7d0U, 0x1c41e557d6d80b9dU,
  0xec7f6e3136217f07U, 0x643e60c35681bddeU, 0xad26e0ef7f28b481U, 0x65b047f1a08d8175U,
  0x622136c243bc027fU, 0x8d7f3f32529db6c8U, 0x17903aab2fff560fU, 0x7fdecae9be2d3867U,
  0xdef2fc407e14fdddU, 0xa9f24cef4fb646bdU, 0xd4ad9eb51ebadfc3U, 0x2eae2f7fe3f5bc81U,
  0x26f8a28148589383U, 0x2b61a17fb1aea67cU, 0x46ec5401d7e9b6acU, 0xf4d0c42aae578671U,
  0x159b83b93ef7bf7cU, 0x32667f561cb14552U, 0x45aa4697f4bU, 0x7d90000006aU,
  0xfffffc31fffff8faU, 0xfffffc400000166fU, 0xfffff4230000131eU, 0xffffff0000001364U,
  0xfffff701fffff93cU, 0xe7b00000ab1U, 0xb13ffffedd4U, 0xfffffcbb00000785U,
  0x6b6fffff3d4U, 0x2364ffffee72U, 0xffffefebfffff413U, 0xffffec91fffffe4fU,
  0x7fc0000057bU, 0xa3bfffffe84U, 0x4215fb300000285U, 0xfa4f243a78a6f4edU,
  0xd32cf6856383d2aU, 0x7f226a5905f70995U, 0x3f3ec545a22faea6U, 0x1f84e749e5c911f0U,
  0x57b2e467ae0dbebfU, 0xe6dc1d5609acd8e2U, 0x49f9647765147f5bU, 0x2c506cebdd9f7f3eU,
  0xb86fd7039230a5ceU, 0x6645062ad7a19056U, 0xffb09647acae7b02U, 0xe43de818bb4716eU,
  0x7bf51ab3085e93bfU, 0x4de37cc9b7916ea2U, 0x7e8139a1e8b0e40eU, 0x683d3f24226e1c4eU,
  0xdc1cbfa836db4addU, 0xbbfd19c4e5dccc0U, 0x58489b57b9bd1e41U, 0x11f8097fdedd3005U,
  0x20f0556615e943a5U, 0x1c4cf90b67bbdf77U, 0xc6810b4567a5bf69U, 0xe95aa1e52b21f39eU,
  0x96717d8539563bd1U, 0x6b9244a5b1b4abd2U, 0x9d4759834f8bd7a1U, 0xe21520513a3d7ff7U,
  0x3dc4ec5ef2ba53a0U, 0x1dd36f5e2e573b7eU, 0x4d7fe6c3e60fd66dU, 0x7b669d8272f56a54U,
  0x8c72d008fdff1123U, 0xcfa48e58f250c613U, 0x7d5e745076820fa0U, 0xa3474cd631b1a98U,
  0xb5338188c3e01a2dU, 0xae12d71d51980885U, 0x91444e1e2afe4459U, 0xdca499c4be9af040U,
  0x622c83ae744cc4ceU, 0xfe35492459d2ac7U, 0xa3ea0cf35f7fe1beU, 0xd96db408541b0c2dU,
  0x24a439e598467fa2U, 0xb0db5c09b05769c3U, 0xbecba10b25d69d06U, 0x52736e0219d01292U,
  0x6d2025db70120d21U, 0xf98154d619bdbfffU, 0xdcb5924b409f53bdU, 0xabe4c246be6b81d7U,
  0xf716d468d014d2eaU, 0x17f43ef0745d7679U, 0x8dc3a59b7498d7fdU, 0x22edaed93da05c4aU,
  0x670f03a33bd37facU, 0xda57371322509bd1U, 0xc3be456c936f26e9U, 0xc3489fca1e06d8acU,
  0x7bc84981de38bcd8U, 0x942209a6c793ee67U, 0x6ab4e0a0d5f401dbU, 0x450f600a34e4810dU,
  0x98aee32cd1f2f90dU, 0xeed9a256906bef9aU, 0xd0f1d910e45c06c0U, 0xc61d87cf18e6b6a7U,
  0x5cd1f1b0552ed82bU, 0xd07f8d6ed27ff80dU, 0x8c797fd2d59f103cU, 0xc723d6d62bf41c5U,
  0xab80527c22a0dceU, 0xe711fe502d8b4f5U, 0x2e0311e9061a0e8bU, 0x6f4616996bbb3781U,
  0x43f8e83856661f0fU, 0x9d559033a4c65469U, 0xa8812dfd0283e963U, 0x4861e19a64d54beeU,
  0xfd4ea1f582ca377U, 0xc6ff197b565dd00fU, 0xffbd8f439f34450U, 0xee3d4902d3ecd945U,
  0xb7c0f7bf7fafeac2U, 0xbd7312aa76a2461aU, 0x4e6c7251dd35792fU, 0xc716ab26ca21059bU,
  0xb3c2f91b0184b517U, 0x3894dcba5e0b5e30U, 0xac8f3a7f6bde1881U, 0xd5023b5020371ec8U,
  0xc73cf6516e540250U, 0x78154823bca75a1cU, 0xeea6e079f7f232eU, 0x8beb45e14a13723U,
  0x61c6a0358ed5e888U, 0xba2c09f781e9eee8U, 0x74da41b95f36afeeU, 0x143f81ceb346ed31U,
  0x635fdb1f5b09caa3U, 0x1890490cec47e58eU, 0x15b9853014df62ccU, 0x8caf6f52b97f545cU,
  0x2b0c7a83a567518cU, 0x8192aecf688a7640U, 0x54baa8db40bb94caU, 0x916e2d3bd48f440dU,
  0xe6ae4a3a873d1148U, 0x2e7018818a796617U, 0x46539b33feafef56U, 0x82df76b57f3eed78U,
  0xa9251d3640583044U, 0x4601afacd1a1d9e5U, 0xc167434f4c1c84e7U, 0x1e7dc202c22eea1bU,
  0x2195516668106c1U, 0xc8b522830f5497a3U, 0x5c0ffbf937d3ac66U, 0x2b5d0d6b48dacaa6U,
  0x87f3e72aa1f0ef95U, 0xbd3ff60bdb6870e8U, 0x756085507f5bf526U, 0x6165411eaca79372U,
  0xf08a5f0a608a0654U, 0x11799d59c3957ffcU, 0xffffddc2c1014ab8U, 0xffffefecfffff567U,
  0xfffff55500001349U, 0x2176ffffd64bU, 0xfffff56bffffcf7eU, 0x1140fffff245U,
  0xfffffc830000003aU, 0x786fffff79cU, 0x15a300002605U, 0xfffff0d500000e12U,
  0xffffde5effffed07U, 0x22bfffffb08U, 0x15c4ffffd32aU, 0xec5fffffa01U,
  0xfffff461fffff8dbU, 0xffffed81fffffd41U, 0x1f5a6b3cffffebd1U, 0x46c66eb3b6bf6e7dU,
  0x4dc9002b68fab707U, 0x23951d9f13e2d4c0U, 0xdf5228a77f002d58U, 0xb7cf4957068ec108U,
  0xb8e4da7c218fa01fU, 0x180a3fe3337f5c00U, 0x864d4558d5b1ff40U, 0x464578b4e4d04be0U,
  0x7fed22f7960a57a8U, 0x76fe1826a72acd2eU, 0x111efa2bfa10a8f2U, 0x2a0bb3cb7f0981fdU,
  0xcf3e9ebb252a4feU, 0x894251ccd9321257U, 0xbcd7d3ac9fcf193aU, 0xb1065039f6a517ceU,
  0x7fdfc5438d3b427bU, 0x7a0115576744294dU, 0x9b49ab814fa6dbb7U, 0x50adb407a9be7816U,
  0x46f27edcd67ded6fU, 0xbd30e430cc28db5cU, 0x713ba11b7ee0fe1dU, 0x682267a93e655099U,
  0x137c37b2504a3f2bU, 0x6b7f07a7b28c9910U, 0xd1be0d78c4d0b23aU, 0x7937da4688da4ccbU,
  0x582ed610fbd62e0cU, 0xe1c47493be016779U, 0x94ce78ee81ef5defU, 0x64cda0760430aee9U,
  0xc376b74b7f6f403bU, 0xc319e5e59f9f60e7U, 0xfb315ec094f8d3ddU, 0xcdf3e9f3416aab68U,
  0xe137fb2f0d00d95fU, 0xdd46dae900b5321bU, 0xf0655a197a7f3429U, 0xe44d7fb810cb0116U,
  0x1dcc120b8f1ad267U, 0xb0acc10fdf6cdcb4U, 0xe15a4b5f45f3792aU, 0x5a4e4559f5610f10U,
  0xe442ee41001b12f5U, 0xe4e3d8983918328eU, 0xd61cc0417ffa5706U, 0xf5f6c3f9e045e57fU,
  0x6eb977483199b587U, 0x51c7c6eae1d2389fU, 0xda2377e5a45e6e3dU, 0xd51e4ce238654327U,
  0x280fee1672812af6U, 0x83bc0b171ad0fe62U, 0xe9bb0ddadf352a25U, 0x9edf55e702d3e301U,
  0x7fc40dee953c6dbcU, 0x263fb116e68bde9aU, 0xfd33a0117b6fcab9U, 0xd0721c4fd4d1ff7fU,
  0xa96edbd9a6f02f3eU, 0x55a6aa3c30e0e7adU, 0x6896382ea98fb09fU, 0x948187de47b25717U,
  0x4ad7caaf937de587U, 0x14c613e7ee60ab45U, 0xd90e2281fba3fb16U, 0xe5e0da704290bfd0U,
  0x712705f64b1bdd98U, 0x24e88dd43f91f59fU, 0xb183d16c9cac4f6fU, 0x15deda35e8817ecfU,
  0x86932fcb0330db3bU, 0x35cfe2d0c1a8b80bU, 0x79d8a41a148152dU, 0x3e8d22cb54185c1bU,
  0x40303ee0030d805U, 0x90814915b00f914eU, 0x38d11236e69a33b2U, 0x5d2f3fb88fd24f9aU,
  0x560b1560568a4355U, 0x8bafce21d4097f0bU, 0x958946f97d048b55U, 0xe8e853573046abcaU,
  0x93d27792351a4cc5U, 0x5f334707d4816037U, 0xe1d92a4832042fdeU, 0x6c7c8176b2876570U,
  0x539e22e6187923cdU, 0xf36ca6cc2c4f430cU, 0x19ba8f3658f08aU, 0xf8b95901005b64e4U,
  0x8b72953400ca24d7U, 0xeb5c3317a27f1af3U, 0x4fbbaffa8e46c3afU, 0x39b627e3b19ce1e7U,
  0x52332562ec0f2781U, 0x979f48a8b4fd28aeU, 0x8a4c58eefb4df3e1U, 0x197abc0c850e1772U,
  0x2e10c66b7bb1c0e5U, 0xc2a65709b1c19a7fU, 0xccc5c162c7185bf1U, 0x2c7f4deeb8abb0faU,
  0x33ccf2d7e313186bU, 0xc6e6edb82e424257U, 0x23d8463f5bcfb8a6U, 0xf72730c2618c599bU,
  0xb58c626fca312e97U, 0xc17f8f7ea5bdecd4U, 0xc15297405e2dd1e7U, 0xbbf66fef5bd5c4bcU,
  0xc9be86a39f037f9cU, 0xe603c73f5d77319dU, 0xbf07bf4fdf19f590U, 0x45be4bc04f0d0ca5U,
  0xa17fe599f84f6220U, 0xe47452a04cbda8e3U, 0x1dc249062b4c0deaU, 0x5f98629a553d70c2U,
  0xc30100ae906f4709U, 0xf3f67f039955674aU, 0xf9b8a66fb9f31f6dU, 0x8ad84f08fb38aa5eU,
  0xc55ccdc270ba471cU, 0xc4813b94e7b6e157U, 0xffffd4d50685b3a8U, 0xffffe5300000016eU,
  0xffffe5f700000762U, 0xffffd5a6fffff24aU, 0x4ecffffeec7U, 0xffffed0bffffd043U,
  0xfffffe68ffffbed2U, 0x1a37ffffd9acU, 0x264600001da0U, 0x316300002373U,
  0xffffe41400001eceU, 0xffffd1fbfffff2c9U, 0x24ea00000982U, 0x3ebfffff92fU,
  0x27720000011eU, 0xffffd8c0fffff332U, 0xb558e54200002efcU, 0x2def5208e1ddc1d9U,
  0xb1437fd2e9440447U, 0xf2726ab22e37d147U, 0x81fd9f294af7075eU, 0x59ab1e4143bb81a3U,
  0x7fe0ea1cb7242c04U, 0x12d9fd3881c34c46U, 0x57fd68deeacfb93bU, 0x8f5117f729303a3U,
  0x9bfd641b5f1b49ebU, 0x2532dc4570687fa6U, 0x7fc781e0e2b275a2U, 0xd7e935d9c89fe54dU,
  0xa97f69e1cf7fdc3cU, 0xb678e28115a5bf2aU, 0x380b1b9da5815e39U, 0xe833cb833f3e2c81U,
  0x61db22b7a23c6a81U, 0xc3118146a90b1392U, 0x44769181aa536f05U, 0x94f281b4928d0084U,
  0xf9ed6869afd1fa7cU, 0x178148faeeb55286U, 0x8237ab6813980881U, 0x8124e5e727aecb27U,
  0xdc224c31b1e77f19U, 0x38931c61f7816f11U, 0xaa7fe1725e87cd0aU, 0x8e7ff7f87f8114aeU,
  0x37dfae817b1ef0cdU, 0x7febd1fc151f6f03U, 0x1329264ca267cd74U, 0xa4e15696a2dde028U,
  0xf0684e997fde5c84U, 0x589872dbcbf39d7fU, 0xfffff97f814b7f8eU, 0xffffe7e800001134U,
  0x1c1b000003e9U, 0x220a00000cebU, 0xbadfffff8edU, 0xfffffd98fffffde4U,
  0x1f1000015bbU, 0xfffff171ffffe838U, 0xb1800000349U, 0xfffff4a1ffffdf01U,
  0xffffff46000002d1U, 0x997ffffee42U, 0xfffffd340000054aU, 0x4ebfffffbc7U,
  0xffffff3dfffff4e7U, 0xcc9ffffef54U, 0x554bcfdf00001152U, 0xc62c9bb6df3df0dcU,
  0x5821f51513484b01U, 0xeaac350c8ff94b65U, 0x88a911ea08173b7U, 0x668995f0f63c7f9dU,
  0xaa5f50181921579cU, 0x63a1a7526646d35fU, 0xbac28fc0219134d7U, 0x5ad77fa591484647U,
  0x3aa66e93f126f950U, 0xac1a9ebbafce198dU, 0x1ae5e6381cc995a7U, 0xa66967fba7ceeb3aU,
  0x4b030faa8d8c5252U, 0x91cedded4d9e2533U, 0x5fdffaa2ea819e14U, 0xc6fcf2ac38527909U,
  0x29c9c64a9981376dU, 0xb0381cc425e38a08U, 0x15145359f339378aU, 0x222f7fddd2c4e1efU,
  0x314094036fba2304U, 0xe3bd6bea15dee333U, 0x812a3bdc65b4e1dcU, 0xc5ef18049bb41b95U,
  0x8d9a01f029ab66e6U, 0x18aab70dd63b9be6U, 0x5d7f51bd4effe0d5U, 0xb2ae0c8963eff8cfU,
  0x7b29c5bae1f0d472U, 0x5a8291c8540e13a1U, 0x3eb4a25625381cb0U, 0xcd9b3c06bcce4f94U,
  0x353ae29e05f98169U, 0x683015012ddee80fU, 0x2fce4ec3de590b72U, 0x74007e9b035d8ce5U,
  0x9c86bc1eb64492e4U, 0xb536e06b20617fadU, 0xf72c344278e7022fU, 0x3d60c3842115a41bU,
  0x6b0b14e784d21679U, 0xdb0e7be3dd5ae16dU, 0xb47fbc769172c181U, 0x507d28935004ede9U,
  0xfb1ee8057a5c4f45U, 0x784e4da4f38e1efU, 0x77efd01324fa5b6eU, 0x9711b3185f620993U,
  0xd45066f8a47fdd9aU, 0xab29c5f61c3f7aeaU, 0xe29ae054b69f37f1U, 0x956493db319d5690U,
  0xde8d7faa82dfb098U, 0x1adf2be9f2f8857cU, 0xe2f1bccaf8f1c532U, 0xe86b9fdece98aaebU,
  0xbccd90d6a010fca5U, 0x7d49b9632a8519f4U, 0xedf55c698169ff8dU, 0x49868ff1c3674b6fU,
  0x6962d0c0bfffd5acU, 0x3de9b3f22a6a6220U, 0xca4ee2a3264d3681U, 0x385bfc439d8133edU,
  0x1d9be87a5f5d29c6U, 0xe9669058dea54f41U, 0x3e45d5ff6d447bbfU, 0x4bcc5044dcbac7b8U,
  0xa6987fd0acf210d0U, 0xeb9eda4a46eb1ee7U, 0xecd0cd64ed7c77c6U, 0x843df0556d5175d9U,
  0x47110f7f60caeed8U, 0x78553531ae3818c1U, 0xfc52a37b9f2e713fU, 0xf22f2c2e9e73231eU,
  0xe35bf4b20c7fc719U, 0x3ff761c8d9c9f3b4U, 0x6a7f4545f761079dU, 0xde936d1caaaa5b62U,
  0x4c7214d0dc15c80dU, 0x42b1aa45ac19bf17U, 0x93ca6a862cf196a3U, 0x4d9331769743186fU,
  0x582671e8c97a8126U, 0xfca18f255f7b34c1U, 0x81f056ada4f44295U, 0x2b34c4cc48313231U,
  0xf73d73ea55f4108aU, 0xad0b2da7fa43bb6aU, 0xc40a21fd6e796b34U, 0xd913d720e4b21b96U,
  0x8919a4a7a5fe522aU, 0x5a3efef981463a52U, 0xc22c40188e4348b8U, 0x828c8d8eb8bf320eU,
  0x4ca3e078f17f0d01U, 0xe6d1fb9e2aa0647eU, 0xb91fb57a9bd3098cU, 0x1a7f4d5ba6f32da5U,
  0x6b3d6f0bc233b7aU, 0x319fc3ec2cb83877U, 0x13beac817941352fU, 0xa1bd6a6e4837cadeU,
  0xb14f2ea439e3b104U, 0x46934ed3f4d5e8b1U, 0xae1e9c193c93a303U, 0x412577e101b6f51dU,
  0x17a801c4da991e32U, 0x433814941df68138U, 0x209da181a068058fU, 0x6815e634af08de48U,
  0x37da905f8faf68d4U, 0x33d0b426ac16f334U, 0xed7fffe14f8ef8a4U, 0x55f64bf13a1818f7U,
  0x7c4457972a2ca8c7U, 0xa0e78be5ed6f123cU, 0xed96406236587697U, 0x7f8bbf4b380156aeU,
  0x751343ee18afc8fcU, 0x5042de7d11b79fa1U, 0xa0edeefb1f6b1955U, 0xe1e6b0f889ecec4dU,
  0xbc7f5ca40afbe55cU, 0x10ee3feb5aeeb399U, 0xfffffec6c9f978e2U, 0x2805fffff8ceU,
  0xd42000018deU, 0x2d76fffff3c7U, 0xa60000038fU, 0xfffff7f4fffffd49U,
  0xfffffe4cffffd5fbU, 0x34f00000310dU, 0xffffe63cffffe82eU, 0xffffd06400000592U,
  0xfffff10bffffed4cU, 0xffffdfc1fffff46bU, 0x1c2f000015dfU, 0x1d8effffe584U,
  0x1b6a00001784U, 0xffffe701ffffe484U, 0xae4ac1300000ed0U, 0xcb86f782e571b3d0U,
  0x6c269be0667bcb9fU, 0xcbc65d7f8c0216cbU, 0xe0edf71df7c40818U, 0xef46fd811a06ededU,
  0x3d6a51be92f5616U, 0xeee8374d3bfacb4cU, 0xbba86363695bd444U, 0x6c7388c4fca0dc60U,
  0xbf797c7f0021eb73U, 0xd0f3b32c43219d7cU, 0xa55e2dddfe9cd2a4U, 0x2f3dc5d76e3cd155U,
  0x5455cb81f50c5088U, 0xad4bdd095c4e2ef0U, 0x6695bdb16e1ebd94U, 0x88e8347a2c0bf0f7U,
  0xf5899a811582621bU, 0x279ff26a05ca6fa9U, 0xa4f36e81bdc2f114U, 0x10624764d492eaf4U,
  0x1e304c9dced4e813U, 0xa1ecdc290f925116U, 0xfec865e1f56b3eb7U, 0xe3076357427fe179U,
  0xce99ebb47cc03893U, 0xe0f732ce9923fa92U, 0x81522f3d87d9561bU, 0xf37b90dcc1f767a2U,
  0xf71e8f13e06521d2U, 0x6211617e71037a9cU, 0xc4cc3c70650278eaU, 0x57e1afba568df928U,
  0x2661e03ad9e2e50fU, 0x3e95ef6181bc240fU, 0xbacb1dd682816adU, 0x3dae975b511a5738U,
  0xebe73b05e2452124U, 0xabe4a2b0819df659U, 0xee321c6faf3aa0a9U, 0x1988309be062a63aU,
  0xf781b3346d31788cU, 0x628fd6423b60eda7U, 0x7f48631bd1e0815bU, 0x76373def93c8cf04U,
  0xe02047585829a48fU, 0xe78c703662912f24U, 0x204d9fe363c41953U, 0xec502e7fbebdcf31U,
  0x76621fb0b12adacdU, 0xb5a10303bce0dfd5U, 0xeff1d6e98a186e3bU, 0x6fc420136ec16415U,
  0x5e6b90d13b2358ffU, 0x498a47dd9cec1981U, 0x3d5b986bd92aab6fU, 0xc6c43b4eb4e6cf81U,
  0x9f6f6a21dbdcdddfU, 0x7b41e20e8f72ec40U, 0xf2006405ca88fc3U, 0x8102e448fcce3cU,
  0xb3a7d8d2bdd9ae95U, 0x9b84485f966a8dd7U, 0xc48cd6c0f0b67945U, 0x8199d8bbd54877b9U,
  0x3e69010e1523a8a5U, 0x453d35e10d4e1847U, 0x345c6b4968902de6U, 0xf5d9b81d5b2ca3b3U,
  0x814b57d206ff07e2U, 0xcc91e1e668163d16U, 0x843d093ef1ddc6f9U, 0x1f76b791c843fff7U,
  0x6f3cccf44b466ec1U, 0x7f700605b7d8155aU, 0x7c74ef34316c5f3aU, 0x752af439dd601486U,
  0x689313702c7f150aU, 0x1a9bad5c97e8c1f5U, 0xa7fc348f16272753U, 0xd51208b3a3090208U,
  0x7fa54c96ccdee7f9U, 0x951415b2a2f9e748U, 0x96e865f4febedd05U, 0x3d1b05db0be6f516U,
  0xd393cdeed0198153U, 0x171a024e034531faU, 0x66e309fdff97e2feU, 0xeafa5cbab04bb62dU,
  0xd181e50bfb4c6f87U, 0xd5c10dd354482710U, 0xf881ba5e8a5dae0dU, 0xd80dab01896ecc84U,
  0x17f10c5b2a728d76U, 0xb98ee0e19041acc1U, 0xf27537419b8aed89U, 0x17e5b8104b0df16aU,
  0x5d60b363caeacf41U, 0x8c7cbe7d3a8141cfU, 0x5248c0724820ebc0U, 0x753b366e8ee600c1U,
  0xc1ffaaf9bfb7327aU, 0x7f43d4870b4ec4d2U, 0x564d35584ed15043U, 0xab2ee0833519a7fU,
  0xe094e800e1e12ad0U, 0x1ab17a0e3dd60c4fU, 0x684981737939f68fU, 0xb7d82ad4d4ac1323U,
  0xab4f2d0868b69f95U, 0x1e882aa3e53dc2a6U, 0x779e7de22be2581U, 0x5ce17f1097c7dd69U,
  0x9b953072b4129c9bU, 0x9aaeeb833032be54U, 0x97e93ccbc96f644fU, 0x819b47e4a99d749bU,
  0xa9e0bdb67f6dbeabU, 0xff435ab14d2e30e3U, 0x119acdcd5b0023bcU, 0xde1b7f9ce5ff95b8U,
  0x3bfae39c5f46e0d8U, 0x97ef316765dedeacU, 0x5714e754f0ded7d8U, 0x95658fd6da8fbd5cU,
  0x7f0c6f8b41efcadbU, 0x7916da32cb037704U, 0x21c7a3e1720fU, 0xffffea7effffe865U,
  0x2bb0ffffe6d5U, 0x3df00000861U, 0xfffffec1ffffcd46U, 0xfffffeaf000028f0U,
  0xb0bffffc91dU, 0x346ffffefe6U, 0xa980000308fU, 0xffffbd78fffffcdeU,
  0x39ddffffc9fdU, 0x9d700000da0U, 0xffffd77500004d67U, 0xffffdfbeffffdef1U,
  0x88600002a80U, 0x299500001dafU, 0xffabbafffffef1cU, 0xc0f195405d163622U,
  0x9ea56fb6985e9fddU, 0x2206fd7f7f5a0de9U, 0xed0a6bcce1814b37U, 0x13f4812bb91319ebU,
  0xf0713628c766c1f6U, 0x1c7081f716dc0c77U, 0x9c15913281040abeU, 0x81dc0f1ded0d5699U,
  0xe8817f98f9b8e1a9U, 0x3453e6713f096679U, 0x93c50c418b6ef2edU, 0xf3d147b881cc6675U,
  0x3cba957f7ff17e96U, 0x33d7a8ba344e814cU, 0xc0eccdf478bd9353U, 0x7d309be19cd7f7fU,
  0xddc60e94cbf2b83eU, 0x7f7f19f2f924bc7fU, 0x4921fdc9f867326aU, 0x3ca406a0af3d5bd3U,
  0x8171326fb07f7c4aU, 0x3f417d313c7ff1d4U, 0xb9b901b469230972U, 0x8f9656c2ade22818U,
  0xa6c3552f2b7ec681U, 0xb67b7b0462c9c192U, 0x81926f0b3677f381U, 0xee632892417f29cdU,
  0x57c459c83b5b8156U, 0x2d6aa04f50f4e227U, 0xc8818181ce768ac1U, 0xb07f517f16d5c91aU,
  0xa5be75059522a592U, 0xf54ed85cd662decbU, 0x107036847ffcU, 0x13030000069bU,
  0xfffff94100001a5eU, 0xfffffc9dffffe046U, 0x85700000a8fU, 0x7d4fffffbc7U,
  0xd3b00001301U, 0xffffe64b00000fd3U, 0x1550000096cU, 0x1164ffffe0e6U,
  0xfffff0550000135dU, 0xffffec7300000d46U, 0xffffe77affffe27bU, 0xffffd9e3000005edU,
  0xfffffa7dffffeccfU, 0xfffff519fffffe9eU, 0xd8666fb8ffffff5aU, 0xc5396447a640b717U,
  0x73d7d5042cdaef52U, 0xaaf72037508138a8U, 0xe68617bcdd3431a5U, 0x196f9a0393d0c43aU,
  0x2a7e02f852969c6cU, 0x7f0d66b884a1cc34U, 0x68dcd504f00853bcU, 0x1c8ae881f7b26850U,
  0x5095951c181ae833U, 0xfe194c1bf04715e2U, 0x1166faeb0079d70dU, 0xe1d20d09fe3999cdU,
  0xb955d38e09bf081U, 0xfb6a1329dc1abfe8U, 0x1cd0e89d11c8f98cU, 0xd5c82431a76f9cc9U,
  0xd0c7b53f2ce9e650U, 0x2d98a75a10543c26U, 0x2fa4bdbf3f7f4427U, 0x95f804df109f0c81U,
  0x8692e560ba817696U, 0x799fc39c67e9b135U, 0x59509c4e270ea5f5U, 0xe7fcecd3420767aU,
  0x3a1c0e7c8d721f0U, 0x16f7f8aff1dd4343U, 0xdbe968953938a972U, 0xdfc1c92dc01420f9U,
  0xe917ccd28159a79cU, 0x6ac6c696edd759f7U, 0xcfbe2c73d4414139U, 0x2815425ca569cb56U,
  0xbb6817dd0f0d43dU, 0x62319dbb723834c7U, 0x504b499ff2864066U, 0x9871a0ae6d8611ebU,
  0x2fc4096d6b25c819U, 0x6c54e01df7e4421dU, 0x172a0b48033e813cU, 0xe0ada381cfdbba52U,
  0x3b1314f1314de7d6U, 0xd14476ee94b755b6U, 0x37e4b015ac72006bU, 0x830f20651cee3158U,
  0x9fdaea4c55de552fU, 0xb37f668f3561b3deU, 0xab5bfc813501295bU, 0x408e169799931747U,
  0xf36bd6b3725356a0U, 0x37c904736f4e6982U, 0x10c43cf40a6143a1U, 0x40af6d0b711a387fU,
  0x10a1bc3c2d192731U, 0x7414caa9bd1d7446U, 0xf54b61d3302af9e5U, 0x1bdbeac589408c4dU,
  0xceb624bd16577b92U, 0x812df7291fb7493eU, 0x2ba7c4391429065fU, 0x2a757184fc1e1b9U,
  0x7fab74c934c501bcU, 0x95a970b7146dfba8U, 0xe649f276ca3427ffU, 0x861668e918f7f30fU,
  0x6b29496720096873U, 0xfbd4f67ae0adecd0U, 0x435d765bd45e057fU, 0x2c32a6d38655950fU,
  0xba95574f2ef569eeU, 0xf6ce8182c65de435U, 0xbd6ae6dbc536e769U, 0xd829813f00496aedU,
  0x93a356a81a3be21cU, 0xd3b4c6dc0c93228eU, 0x3f7f1b561df4dd66U, 0xcb9c4a1ac00ae4dbU,
  0x65ce23a048c49ef8U, 0x6bb240a496c316caU, 0xbf44b0600a22c8b0U, 0xcfc875e91b39232dU,
  0xac314c5b98cab485U, 0x810e4fb8ba54b049U, 0x94ae93337786969aU, 0xade2275cccaf186cU,
  0x687f0b753e65088fU, 0x8a5d4958d2de1d8eU, 0xdef095dac4143fb6U, 0x4c42b7e41d48bc52U,
  0x88afc116be1a7fb7U, 0xd12795cd8272e9aeU, 0x61627f4dc71b346fU, 0xd295b574c9087adcU,
  0x9a99c010c49dacd1U, 0x54b1cd65b45bd56eU, 0x412c6bd2e6cb794dU, 0x568fdd3041202db6U,
  0xfbae270a1e7f4dU, 0xb8bea2fae6709ee1U, 0xdb3d073811c25cd6U, 0x46a1dcb681e28995U,
  0xedc3b0ae50f4c93cU, 0xa93ea313d22ab8b1U, 0xdd40c85f6c67c426U, 0x810dfae01d46ad8dU,
  0xafcde64bab40d3b4U, 0x74e81bd206da6c51U, 0x6ace492d2741f4c3U, 0x4ec464a263bdde0U,
  0x309a5eb2337e783fU, 0x69871e9cb6fe64dU, 0xc162987186874381U, 0x52bd65a597fde729U,
  0xac7733a0467f1022U, 0xd4fa1f483c762cb1U, 0xecd0e622072412d5U, 0xbe02554c6501cfdbU,
  0xf3c9c490aae5e2f2U, 0x965147d61f08d4a4U, 0x154ccca90698d07fU, 0x66d9ac0ad3e35346U,
  0x3caa58b893bcccc4U, 0x2e498118b4152265U, 0x7aa386ae2ba928e1U, 0xe160b39bced1063fU,
  0xc5802927957f039U, 0x38ba118f6f811019U, 0xfffff8157003307bU, 0xfffff63a00000e96U,
  0xfffff83a0000185fU, 0xffffe617000038e9U, 0xffffe5ef00001ac2U, 0x209ffffe877U,
  0xfffff706ffffe2cdU, 0xfffffb80ffffd416U, 0xffffd40400000a04U, 0x16a9fffff502U,
  0x14cd00001010U, 0x173dfffffab7U, 0xfffff928ffffff45U, 0x525000026e4U,
  0xffffe3f0ffffe57cU, 0xb7700001da4U, 0x7deb8f05fffff999U, 0xf145e900c87f63aeU,
  0x4c4d50fe1fc66928U, 0x2f2da52f9283134cU, 0x3353e6a71b5d506cU, 0x85207ead003cdc9U,
  0x818fe5dba8adbb60U, 0x28bb153cc295075U, 0x3d294e29eaf4915U, 0xb5ab0dfff7ace752U,
  0xdf99e2a1c7ab474bU, 0xe262d05a696e816cU, 0x1d98911f48ce3c95U, 0x7f22dcf9f0684e28U,
  0xc608cb0a68e99914U, 0x64ea6c1aade2cf7U, 0xb01e3023be3c6d23U, 0xfc92c316eda1633cU,
  0xb3504493812d3b56U, 0xbc6a44f3a7a926c4U, 0x914f815af2a58a54U, 0x995a9d53b542de86U,
  0xada0d8d61da196e9U, 0x2c97682c6233d06U, 0xf5aa390287861728U, 0xd7ec6c088b6c380aU,
  0x979ca3099b9273d7U, 0x2a977f5f6b5e4ec6U, 0xbc7ed12335ea0108U, 0x4a6a14f540d238f5U,
  0xf7eba86156289629U, 0x246200ed7f5b8c5dU, 0x287d1f032ceba55fU, 0x217a9a45f25a6170U,
  0xf9f7607f24797083U, 0xef2943217eb0f6bbU, 0xea61f670038ba157U, 0xecdb6f7f5397421cU,
  0x74784fdfff74e89U, 0x5fa7e701d20186d9U, 0xd67f76025a711457U, 0xeaf45189d8cbe7fbU,
  0xfd7b5c0f3abadac5U, 0x96a57dbd40fa1a47U, 0xfe11f0c84e02092dU, 0x4b68b76d7d0b8e72U,
  0x900881acc41fcfe5U, 0x22391fc7fc459594U, 0xb5ab62746d69ce5fU, 0xc26b975af9fe891bU,
  0xd85df77f129796eaU, 0x3de68bbee6042f24U, 0x15e80aad584fa657U, 0x62de660c147f421fU,
  0x97496372e1dd4c35U, 0x3e57ec7e38710855U, 0xabbca6caf60cf947U, 0xfa05027768029f7fU,
  0x592bf0effdd1f062U, 0xba5df1068fcb1443U, 0x68e7a3c8ebc1efd2U, 0xe73ee133827f9af4U,
  0x6e566a6c69d1a796U, 0x79423b873407fc1U, 0x8e9706e4152ef135U, 0xde94c1a018439b74U,
  0x8349ce3ab351e781U, 0x9c03f05184f0357aU, 0x9657e346b6318ec9U, 0x9f506425dd7fddf4U,
  0xca5a1caf5571107cU, 0x17883416d12ff170U, 0xdd4bd70852d1b869U, 0x8b023135360b174fU,
  0xac5b8574dc5181b2U, 0xa4c31195224929e1U, 0xd6dc7f245fdeaef4U, 0x86c13af5f0fb1adcU,
  0xd5843f9e19cdc80bU, 0xe8652da6b4de40cbU, 0x9ebe36be75350160U, 0x2eb1ade964460b75U,
  0x388333eee63ab7ecU, 0x7e55d7411a000e83U, 0x2eef6c507f53c33dU, 0xb48aa07fda272bcbU,
  0x90c92f82980d6b90U, 0x36e63745e2deb622U, 0xaa2ccd207136e3cfU, 0xee9dca8c922b6d62U,
  0x1c2489b64b74e9c2U, 0x5534ba7ff0b438c5U, 0x50d3867f21bda4b5U, 0x32a02ddd539b6617U,
  0x44a2646762719377U, 0x9514964342dca1cbU, 0xe335f3b362a2346U, 0x336fe0c79bf929b1U,
  0xe7a285c02b2c46b2U, 0x5c137f0a716a5265U, 0x387a66a11637cd63U, 0x5392e97f3b1c60a9U,
  0x374a647f4df5115cU, 0xbc2c91462fa05d2U, 0x3e2707ad694dbb77U, 0x81c9874f7a0e22eU,
  0xb00b5d0808337f57U, 0x8d98289b0f273043U, 0x2ea6f9a062ed18c0U, 0x767f6518f1c17025U,
  0xd46eca4f7095f695U, 0x6d96cb04fbd74038U, 0x42694ec4ce5997ebU, 0x1a3cc4837c94a358U,
  0x7309068ba6189ec0U, 0x6c2f0fac6b7fa3eeU, 0xce416022c73788caU, 0x7fc3f19071c10cf1U,
  0xa7cd8987ac5a51f6U, 0x33b86a4dcc08af87U, 0x78459e7ff8d74abdU, 0x11c80f04e1b8e005U,
  0x7421fbe0f3fc5219U, 0xd3f6f07524cd0f3eU, 0x73a898dc2cf5a591U, 0x7f42be5e9043b9caU,
  0x333e4a27a0a9ed07U, 0x8e208e020ef0919cU, 0xffffc705fba1a1d2U, 0x1b2500002976U,
  0x1890fffffba0U, 0xfffff9820000498bU, 0xffffb402ffffc833U, 0xffffe84fffffdd44U,
  0xfffffebcfffffbc7U, 0xcabffff9f86U, 0x448bffffe183U, 0xde5ffffca81U,
  0xffffeb2b00000c59U, 0x1bb700000d12U, 0xffffc716ffffd9c1U, 0xffffee05ffffa640U,
  0x657ffffee29U, 0xffffeeea000018e2U, 0x828a44bf00003896U, 0x20b03a9c81c77fcfU,
  0xe8cd9ce6c4244510U, 0xfd81cac8fe1fc154U, 0xf909a27afa818257U, 0xe083d41f48017a81U,
  0x4d5ce492dd0c343fU, 0x993696fe8f1c057cU, 0xa7f96a810ae0e781U, 0xa71ab74cee91bbebU,
  0x325e72ec7f7fdcf2U, 0x98a239d09d9e007aU, 0x88b57fefa0521299U, 0x8455c97ddd514a17U,
  0xcbb781c27fd8047fU, 0x2d94fa9fd88d0381U, 0x295f3c07991e8131U, 0xfdebc1ed7b7aa2bU,
  0xa4191d7fd4aeb5c6U, 0x81f6811a2c81a9bcU, 0xd2099f8b505f0dacU, 0x5c81b4bbaabcfbedU,
  0xa3f847c4b0cb212bU, 0xb101dac98bddaba6U, 0x7f580084a301e8U, 0x7667f7f291ebc84U,
  0xec81e358b2d824e3U, 0xcf00f7f97f883c50U, 0x34982e2a2a081cc2U, 0x7f3838351281c112U,
  0xcb2bf67c43657fc6U, 0xaab51647a912e384U, 0x7f4967bb7f22a5c0U, 0xcf5800981311f56dU,
  0x7ff5b8cd86f5e4edU, 0x362fc812f4a810fU, 0xbcdb44106fdU, 0xffffffa9ffffe7e2U,
  0x8d700000a50U, 0x115efffffe8dU, 0xfffff63d00000959U, 0xd000000470U,
  0xfffffbbdffffffe6U, 0xfffffd3dfffff539U, 0xffffff5e000005f7U, 0x10d0000085fU,
  0xffffffab00000524U, 0x160c00001307U, 0x126d00000ef7U, 0xe4000000f19U,
  0x13c700001cd6U, 0xfffffb9f00001119U, 0xd33b8ac3000009b3U, 0x4314ddd2fd46a538U,
  0x22847ff99f1c2b98U, 0xc6fc200da6274e1U, 0xe3a7321e5307cc1aU, 0x467c00d12567f69U,
  0x12c75ed9203de9e7U, 0x493264d982990ccbU, 0x7f3596fe60c09ce3U, 0x3978a50dba4ae535U,
  0x8e562860b9afdd4bU, 0x15f2aa850b71912eU, 0xf42bc3eb777ec75bU, 0x4ffb0dc5d7152546U,
  0xeaabe25b22dd721cU, 0x52ee86de8195bce5U, 0x160d82c6140a6768U, 0x737460d7eed8364bU,
  0xc415901c44a7b3afU, 0x4bf17a522efe4246U, 0xfeb2c54f63487f91U, 0x3f240457c2b9ee12U,
  0x359ff5ef3e60ea4cU, 0x134a68818ae437ceU, 0x6164dd3e1c164d50U, 0xf724e4e1fe472aa2U,
  0xd02cc7e47f2e3e30U, 0x783c68aafe08aedbU, 0x47624d3701682ab4U, 0x44099ee294a799bdU,
  0x8e73e8f89c3801b4U, 0x62262a8177a55421U, 0x13504e467501d34U, 0x7a689f855f52e3cU,
  0x558c29e3a6768190U, 0xffe5c6afdc9bf21bU, 0x150678ff10dae766U, 0xe160a492f6db9792U,
  0x279a735eefc21340U, 0xccb64873904d5b6dU, 0x35dc60427e467ff5U, 0x44e25efd9567dea0U,
  0xf2f4cad906545ea7U, 0x255d02fe8132babdU, 0x1ba29bc4f8fe1d5bU, 0x9d4bb2c59b8490c6U,
  0x2dbeaee51623665cU, 0x2a41528137cdd12aU, 0xb9274a46b3dfef5dU, 0x8b063e738a29671U,
  0x53c31a10cd70fbf0U, 0xf8b7e9e215b3f06cU, 0x60a2da1a3016de81U, 0x7bace2bd76ba2837U,
  0x8a99406f006f82edU, 0x6ced10fa81546becU, 0x149f26bd175acc17U, 0x8fcf53b79e811474U,
  0xc56050b7cbc0939fU, 0x9472acdd06aafd3U, 0x5b502f7d36e3da61U, 0x8b810c45880af877U,
  0xf712fc741bca6adeU, 0x5316bfbd5037aec7U, 0x718ecd0e2a3bcd31U, 0x67468a8b0905a6cdU,
  0xcad5b6ba1049651U, 0x414a3881d53ab9a8U, 0xb710dee1856b018aU, 0x126be5cc78091f23U,
  0x6af29748f230c72cU, 0x994adf6776b483ceU, 0x1837d8be81c1edf6U, 0x81c810056c933eacU,
  0xf3980cf861e0329bU, 0xb0fcb06cf3627cbbU, 0x50c0de9df42e10ebU, 0xb7b0efff5d42f0daU,
  0x435f5451bce16e98U, 0x66947ff6221c28b2U, 0x26a2d62d4d0a19afU, 0x5df281fbf0e293U,
  0x7acd67e15531efcbU, 0x9ae2350589974515U, 0xdac6421eab2fadf3U, 0xb66494c01f8ca466U,
  0x8bb740ceb228ba95U, 0x69cddf04b3ea8168U, 0x7ac3bad835dd2cc0U, 0x56c46ed9d9bb51b7U,
  0x3e0c6424690d21d3U, 0x3af081a08524f57aU, 0x8bb1e8b9bc4d51c6U, 0xfb4bc655ea2427d1U,
  0x926e44525c057f0cU, 0x352ec394cb1f67bcU, 0x882ae30873d326bbU, 0xddd783c43fac915aU,
  0x463d2b7fe66d46c7U, 0x383b569f622e590eU, 0x555d30dec1f492b7U, 0x22e036d45b519737U,
  0x5aec83bf7f966665U, 0x5c11b04c432d0862U, 0xf30f1c35833e9ba8U, 0xe10bfbc5429cc60eU,
  0x2f26694e8ce99f7U, 0xe11394d9812d6befU, 0x668167c0d14a56c2U, 0x42a0fd01e562cfaU,
  0x393ad30153ee678cU, 0x3a5ebb317a7f66bdU, 0xa00e188b4a1b66acU, 0xd953f2954dfeaff4U,
  0x947f63628261e67fU, 0xa8b832c2ce558b0eU, 0xa77f5c977cbac4f1U, 0x9be402d459aa076bU,
  0xc0416a14ffe14a76U, 0x57bcf7625ecaa105U, 0x61cdd308fd6ed702U, 0xe13ef74f480bf24dU,
  0xd86d57af0202dc24U, 0x6e81917446e52cc9U, 0xbc747163a9784afdU, 0x6a6b8bee3827e6f6U,
  0x9b6fa513e93805d6U, 0x3a73309323b0f98aU, 0xfffffc8455e6a581U, 0xffffeea1fffff484U,
  0xffffe4bb0000036eU, 0xffffe3c6fffff3adU, 0x16eefffff4fdU, 0xfffff5c2ffffe660U,
  0xffffffb700002776U, 0x1b83fffff427U, 0x1d8cffffe45bU, 0x84300000701U,
  0x1c8dfffff17eU, 0xfffffb58000028a5U, 0xfffffac8fffff59dU, 0x15c3ffffe240U,
  0xd45ffffcb95U, 0xffffe769ffffe86cU, 0x3b153795fffffaccU, 0xf1ad8188906816c7U,
  0x1c1107f839df19d3U, 0x9292b74c0d70118U, 0xea5c6452eabeaadeU, 0x96df90f29c0bdd6U,
  0xc1f350871773377fU, 0x7f54a4192522b010U, 0x7f490d8b1931313eU, 0xd264fc0439f4b336U,
  0xed0dc1171c40003cU, 0xea455dd06ca030cbU, 0x8bf3d9f96c3f1eb5U, 0x49cc63be6bd29160U,
  0xd99fe446dfcd24fdU, 0xa159ca084293d0cfU, 0x167f6da99c7f4fe8U, 0x2af15bfbc1a6b2e9U,
  0xaf3ed7518e829f7cU, 0xa8e3a421e7fd1ae3U, 0x7f6285d4bdbf75dbU, 0xc665b8a808698457U,
  0x5b9de66b7064a3bbU, 0xadd07e2ecd94d7c5U, 0x966070bdd64e3a9eU, 0x321121406510bd12U,
  0x140799ed7f359129U, 0x14dceb6cfb28b87fU, 0x511351f0d97a06f7U, 0xa460d9e6466c3eadU,
  0x7b91b1d940687f7dU, 0x421b82529f491654U, 0x39627f20eac80486U, 0x3c2b1a83c3d171b8U,
  0x9f2bbfabb0e70f52U, 0x260bfc09b1bde2caU, 0xd3a4909971944063U, 0x8fe5400a81e7dd5aU,
  0x381e0d0cdddab6fdU, 0xe28efb220b4d0c15U, 0x810b839d7ab42ef4U, 0x3289a2bc06a30aaU,
  0xe62b3925d8992881U, 0x766c1db4f3883cdeU, 0x40d31da910dfff11U, 0x3a7412a350b121b8U,
  0xbe52f96054b57fcdU, 0xea0a334bd302bbc4U, 0x82422b70060c067U, 0x14a9e7374cfeb962U,
  0xa11c81026be140edU, 0xf9eae59f77e951d3U, 0x7d7a89dc35fd4d1aU, 0xa7f4b8c2627860efU,
  0x9098889d58d5adc1U, 0x813a8649c93b1397U, 0xfbbf6e3a10f55908U, 0x6896d8afed8932fU,
  0xe8734fb4e49091c6U, 0xd514137e5b32354eU, 0x19bb4a6c7f3d3db7U, 0x53a481d35963fb85U,
  0x29d660c40418079eU, 0x691544ae1db01d1aU, 0xd5744bfcfdc859fU, 0x233e073bdb1c77aaU,
  0xb8c9e17fedc14fa8U, 0x2201404bebe50f44U, 0xb6f9600edef6c5a7U, 0x5120a5a415c7187fU,
  0x7fe5ae045bbfbabcU, 0xa5e4c9ced3d7f40bU, 0x400d0fd3275e86c8U, 0xedb0c4236128477bU,
  0xa5559b5301b28111U, 0x16b5fa95eae851c0U, 0xa46d1a2314527f49U, 0x9dec04e9937f75bbU,
  0xfcce5a36d5de87b4U, 0xd2395f718bc499fU, 0x52d8f80a22945ba2U, 0xc8df4170a91a69e1U,
  0x35e000cbb7ce20baU, 0x4a44671a7ff2f918U, 0x986ed672f4ec9111U, 0xc60e0770e7f99d2U,
  0x3b9a70d99ed3c74bU, 0x1fc3c01400b4dfa3U, 0xa43d5a42b0db0fe5U, 0x73b0929ae3702c8fU,
  0x5e257dcfa85ce7cbU, 0x23ec8118a2799675U, 0x31f728a5c5e7d2d6U, 0x82db58179bfe97bcU,
  0x422d7a0bae91c677U, 0xb77f71dd520fc839U, 0xf610d2f0554c460aU, 0x361e8779397de234U,
  0x78f45637d357e152U, 0x307fd0e416a12003U, 0xcd53437c90dced8aU, 0x6624df465802049eU,
  0xf4447fb9dfd6bfecU, 0x9600670d006455ddU, 0xb881ed6ed6460496U, 0xe54cf05d4b29a3deU,
  0xe9acbf2071958d0aU, 0xc646cdcd9ba59f3dU, 0x3aa4551714b95bf9U, 0x9d259c8c72a35dd6U,
  0x97a2ad18c8f70481U, 0xc4f637bb050c7235U, 0x87d79a3d0a2154dbU, 0x5ada6c1f9931d422U,
  0xaeace02a44f301c3U, 0xcf227f11a24eac7aU, 0x7f0839feec632d6bU, 0x60ba1e3da92d67a9U,
  0xf264de845efa7575U, 0x50f8fb047ec9d973U, 0xcffd1446bfbb4778U, 0xb57fe4c754e407a7U,
  0xdcce77889e8a30c8U, 0xa5216d1eb131f16dU, 0x1c0654dead3dfe7eU, 0x48f2e19951d64e12U,
  0xdc6e7ff862f8f0d3U, 0x324a50b7e5838782U, 0x224c97ccc88dU, 0xffffd291ffffb83aU,
  0x26b100002006U, 0xffffd27c00000745U, 0xfffffbdeffffd1acU, 0x24e600002a26U,
  0xfffff4cdffffe5e1U, 0xffffeafb00002af4U, 0xffffef3a000012c0U, 0xfffff330000020fdU,
  0xffffeae7000022deU, 0xb38000015fdU, 0xffffe272ffffeabaU, 0x2ed1ffffd987U,
  0xfffff31300002348U, 0x780ffffb69bU, 0x20970e8000015d5U, 0xf9fd668152dd35efU,
  0x26197781b881028eU, 0x21d832e160073755U, 0x4bdb816b7a2c102bU, 0xd3d6063dedb936c4U,
  0xd030bc37f1e8134U, 0x58bd24f25b81b996U, 0x4bdc7fc8f2d145c4U, 0xc3e9fa29aac7327fU,
  0x3fd4b20f569e9311U, 0x8b675e183cc2d95bU, 0x23bf237f6b81c743U, 0x238bae4a4a1c019U,
  0xf9d47f3cf297562cU, 0x54100181f541247eU, 0x818174a63df5e2fcU, 0x970ac1fa815f81beU,
  0x4022db9a67346db0U, 0x938a1076f4cd13cdU, 0xa20d563881183b2eU, 0xf09981f9fe147c38U,
  0xfeadee8b4b844ac3U, 0xc4357fcee552340eU, 0x513bccd51a7ef7dU, 0xc42b1d64a5be76b6U,
  0x653a0251e8e4fd81U, 0x647f60d481e4047fU, 0x5b9784cd33c3317fU, 0x3381e3dec57f70e7U,
  0x7f7fa822116765cfU, 0x897aaa8de1d57fdeU, 0xac353d5ce6e1f29eU, 0x7f3e8b2ef226e1c8U,
  0x404ec5179ac4f438U, 0x81d067e8d739c574U, 0xfffff90eab9b7f5eU, 0xe93fffff41aU,
  0x6200000018bU, 0x187ffffefadU, 0xfffffd2a00001780U, 0x804000011cfU,
  0x105700000758U, 0x14eefffff894U, 0xca7fffff3baU, 0xfffff65e00000029U,
  0xffffea25ffffe27cU, 0x5b6fffff85eU, 0x11d0ffffffa9U, 0xfffff71effffe5f0U,
  0xffffebc500000e0cU, 0x19bbfffff3c0U, 0x2373e5a2fffff5bdU, 0x6c7178f9e1d5876cU,
  0xa813cba3df811272U, 0x32f84c07ca76ab60U, 0x747a6cfab5fbf1caU, 0x72a6c40f9e813b5fU,
  0xea51ea6c08c1a3b0U, 0x4252bac652c638aU, 0xce8d138670f29b65U, 0x439135e6499b7f42U,
  0x94ad05bdce6a3d4fU, 0x6659a1640530cd4cU, 0x839eb487a4904a15U, 0x1d649186d56d2b10U,
  0x329e111ea555e4d3U, 0x207f5a1ab97b1c50U, 0x1759e9bbca1d643bU, 0x6ae1e75e6d6a48e9U,
  0x2d2ebb6860815133U, 0x3a541619a762e5baU, 0x2a17c3f8ddccbd92U, 0x3fe861a5b7fe23b0U,
  0x5eda5e513081ba83U, 0xed97066d00c8ad1cU, 0xf91d15b68a2311d8U, 0x6b5a7e950aed33c0U,
  0x1ded524536ea3f8fU, 0x83f1030b78174b78U, 0x4385307bd173e381U, 0x3216e1f3c2b7b8b3U,
  0x9d575579aacb81beU, 0xcd0af95158d2f42U, 0x95e7319a635d7e94U, 0xe77ea45ed9a2eda5U,
  0x4e418287e63a7fbeU, 0xc86e729a05ed99b6U, 0xf856e6f93fa05200U, 0x7f8d4e3ba252925aU,
  0xec6aca74936296e3U, 0x96bf7fe28f60b5d4U, 0x4c1ea06a37c40827U, 0x86ab8f9c2af205b9U,
  0xeec20c6118fe8163U, 0x24dc9db38d715b09U, 0xd369ecd08b9323d4U, 0xd08a1eed41af02d2U,
  0xbbc1d6c1375cc25dU, 0x59fc6fbc811d5bd1U, 0x3ca21c484a56e17bU, 0xcc954f52f8d0b05fU,
  0x9bc1ea4b467afd7aU, 0xa521e5b4a43dac30U, 0x474cacc6ef8144f1U, 0x9efd47f7acebedc1U,
  0x33ec275988c313c4U, 0xfa9a238c40d2bf9fU, 0xff3fdc51c0ae81fcU, 0x81395585ec5a3f09U,
  0xf2437ffdbab23beaU, 0xcfe2a3c67cc29b4eU, 0xccc7fd93bf574433U, 0xeacde2e363cdb06fU,
  0x85a94c9022f12f40U, 0xac682381e5e9ff28U, 0x9f596806ce3673f8U, 0xe59af7a1f28194cbU,
  0xcfc5e31071d267c9U, 0xd8285c6fb9e6c7b5U, 0x5ca58e81681eac8bU, 0x9bff78700c438edfU,
  0xb2ebdf1820f27766U, 0x1c29e413ced64476U, 0x9db2eea0af3de642U, 0xab48d2258163d9fcU,
  0xd6eae7c0ad387f05U, 0xbf771a6e85ae0253U, 0x55701616d5004e25U, 0xf5510c291989077dU,
  0x9c458adef56b6a8dU, 0x2881754315fad952U, 0x419f147d73684adaU, 0x7f4bb87a2ec3367dU,
  0x2dc1964cfa24aa4fU, 0x4e3eee88f55f19acU, 0x208f5a627e90f0a8U, 0x2118ce4b76a9ea7cU,
  0x1f55d2a6242b8ce9U, 0x4d104c55a6defa7fU, 0x3b55eff58114277U, 0xd6fa69c9e80abb81U,
  0xad5f018af843288cU, 0xc0e97e228f5aa3edU, 0x553533abf37623f1U, 0x3bbf30a390e5aa44U,
  0x14b90f20beb80081U, 0x4620fc6f6c83ceb3U, 0x87217ffcc31324f2U, 0x44eb289f8cd60bdeU,
  0x889079723c3e179eU, 0xa067c26f83dab5fbU, 0x5219cb9211768bc8U, 0xb1d87705f257ec23U,
  0x639e81481c7dd4e2U, 0x40bd22bd964d6901U, 0xb7f66481393bed61U, 0x6821a321214601ffU,
  0xd3e975e4c19fb746U, 0xbd93f3312935e443U, 0x4cb458676cd312adU, 0x4dcd7a76106fd35fU,
  0x9b29e841e89a17d1U, 0x817d25e973b71477U, 0x3258852622874f4U, 0x7d6a7fd7d9f1bc1bU,
  0xbc03f8686904bbe3U, 0xadbed848686f75a2U, 0x35b1caf81de29527U, 0x9216cf40ceb7e0c5U,
  0x2e735187f2c645aU, 0xe73faed579b10112U, 0x3702f144acb0efbcU, 0xa15a05cc206e891U,
  0x9c1932c2fef70078U, 0x7f61a3d11a27fe73U, 0xf6f5f4dfc060967U, 0x3989e86eaabfd34dU,
  0xcc2f6da0701fac3dU, 0xcd69bc4bd3ac97fU, 0xfffffb4e27102510U, 0xa5ffffeecfU,
  0xffffe3c9fffff92bU, 0xffffe64e000011baU, 0x1a780000103aU, 0x222800000450U,
  0x4a4fffffb58U, 0xfffff7cd000035a8U, 0x1b7500001558U, 0x1087fffff3ddU,
  0xffffe749ffffd649U, 0xdcbffffce7dU, 0x1082000013e6U, 0xbc8ffffea05U,
  0xffffec46ffffce40U, 0xffffee0c00000fbdU, 0xb8e6d4c3fffff03eU, 0x480cb7e312763de3U,
  0x883af500406517efU, 0x52d6374c310a7f38U, 0x8a9168b9316b9304U, 0xe1a5c36d600a5c16U,
  0x22570abdb7cceb7fU, 0xc229a37ecb65ebb3U, 0x5ca3812fa36a7a5dU, 0x42a484d0da65fb61U,
  0xaab49c4f38ba480fU, 0x44a44fced9fd9e8U, 0x2b7f29b7be4561ccU, 0x743f8f2dcfba1c60U,
  0x253dcf40fbc465dcU, 0xe571485ccdfd1de2U, 0x443242e52e83b553U, 0x15dbff2a63038b0fU,
  0xd1d50220d5ff60b7U, 0xe4cdf15de781be98U, 0xf2504513cdb1cd2dU, 0x988da10d3c8128dfU,
  0x1dd74348af2b4902U, 0xc7d09ccfb7bdc4beU, 0x48192dcb4cb335caU, 0x8899f21176d91515U,
  0x3a1e245f717800d4U, 0xf85c817035c0d1d2U, 0x2ab973b5bec7d336U, 0x7f341158037f01aeU,
  0x2dba563b576fb5d8U, 0x8b31bc9361bc2853U, 0x4905531aa1f3d961U, 0x45141e724b01740eU,
  0x99e54d982658e8c0U, 0x54f577a48148f718U, 0xa1eb4cbf7aa15667U, 0x7f57691a6e8f6cafU,
  0x1046508fa0f443deU, 0xdfe78286670f8f9U, 0x1215bdb4dfafe1d0U, 0xd8fd4501e2ef4790U,
  0x1f0fd20a6eaaa5bcU, 0x695cbfb7cc49b67fU, 0x57e61c0c9457dcc6U, 0x6ff9f645c7be0329U,
  0x5dfbae8141701eeeU, 0x2757b92e859e2e2fU, 0x211ddda61ceefcdbU, 0xc981292790a92590U,
  0x714a1dfe0a09529bU, 0xc79599999d145d9aU, 0xcff7129951cd19c1U, 0x261c23b62281274bU,
  0xa0fc954337249f4aU, 0x98d928ab539fad5dU, 0x62a505a040fe48edU, 0x6fc0396ce41539d9U,
  0x8e22a460ba362963U, 0x91b4dbb62c6da4cU, 0x50060ae781e50e6bU, 0x71233b1d76ade463U,
  0x8593d4692e090d12U, 0x120e02943fc10505U, 0xf58b7900addf7f4fU, 0x1079482b6e872bd4U,
  0xd13edd457f379c23U, 0xdfa7ed3b7828d992U, 0x60818e4eeceae164U, 0x64665eda19c82371U,
  0xa6f8bf47bf7e1e18U, 0xb8b512ea689ffa37U, 0xd1bc5300071117e3U, 0x865997f27ec05cfU,
  0xb0952dc14470e2b7U, 0xdc1145c36fcf75bfU, 0x977e3e1a0faa4dabU, 0x73f7d5e1d4e9072fU,
  0xee4f6f29f3817c2fU, 0x966c1514b7b44a6dU, 0xcf6a9067c7cb18c4U, 0x9ce895aab2cd981U,
  0x307629bb5eca5a46U, 0x424a2fc17c9484f4U, 0x7f755c11a5b107b6U, 0x6d46c0a6f32e02fcU,
