/**
  ******************************************************************************
  * @file    network_data_params.c
  * @author  AST Embedded Analytics Research Platform
  * @date    2025-05-02T18:08:34+0200
  * @brief   AI Tool Automatic Code Generator for Embedded NN computing
  ******************************************************************************
  * Copyright (c) 2025 STMicroelectronics.
  * All rights reserved.
  *
  * This software is licensed under terms that can be found in the LICENSE file
  * in the root directory of this software component.
  * If no LICENSE file comes with this software, it is provided AS-IS.
  ******************************************************************************
  */

#include "network_data_params.h"


/**  Activations Section  ****************************************************/
ai_handle g_network_activations_table[1 + 2] = {
  AI_HANDLE_PTR(AI_MAGIC_MARKER),
  AI_HANDLE_PTR(NULL),
  AI_HANDLE_PTR(AI_MAGIC_MARKER),
};




/**  Weights Section  ********************************************************/
AI_ALIGNED(32)
const ai_u64 s_network_weights_array_u64[146958] = {
  0x2eff28cc60a1ced6U, 0x7fc76ac0b9f1b215U, 0xc3cfc8fa0c94b022U, 0xb7bb23b3e2b6cbbeU,
  0xfdb67d031ed262daU, 0xc4dfa221bb6b7f63U, 0x3c8123f7cf4154cdU, 0x71e979851bdebd4U,
  0xb89b8657d032f71eU, 0xbf4d15da036a2bf8U, 0xfa818121615f00c5U, 0x701df4859927bb1cU,
  0x213071a0164f0961U, 0x4ff82e28606d0667U, 0x3bdf157faf0ef326U, 0x4bbf14f60626206fU,
  0x86ca9ad11855d35U, 0x1ade27e61f1a485eU, 0x4a922d3adef08534U, 0x816ce9aa7445bf82U,
  0x1b215fbcb94db6d0U, 0xe2382036df7f55a5U, 0xa243be625f7cf9c2U, 0xf80df4bae1525de4U,
  0xe7811ebc53c2acdaU, 0x4bc16c8a30fae51U, 0x375e5bc0f18aab03U, 0x65bed7724935f118U,
  0x5fb8f124b1071a0bU, 0x7f512717f7ae1c9U, 0x7fd163f425e205a7U, 0xfc516a2df2fe4277U,
  0x391d087a4622bb07U, 0xf3fb96a1efe716b6U, 0xf181b6f3a123b88eU, 0xd6ffa4efec095fc4U,
  0xabe5de00afa5fd04U, 0x3a54b0aefc7f3361U, 0xd26539bb95276aceU, 0x54e5422d97579e64U,
  0x12de9267a1427U, 0xc3b900000141U, 0xffff1071ffff11c9U, 0xffff0a9300002356U,
  0xffff29e1000100d3U, 0x1a30dfffedd9fU, 0x55206800fffee7dcU, 0xe7f44a41b065e1d9U,
  0xc0545fb2fc3cb3c6U, 0x25aca998b8e30217U, 0x355a3c17e504b652U, 0xf942ee35d900ce0cU,
  0x4cea4113f5daf7d2U, 0x745c1328e0623671U, 0xdf301e0894b2e022U, 0x7f1c0e64ac9cc3bdU,
  0xef324a38af560d15U, 0x1cc552d33dd0dc18U, 0xac2c3cee02d04772U, 0x4fdabec510cb3e1dU,
  0xc09eb3818f5e4e7dU, 0xcc57c89e9e446d17U, 0xa8c5659e6c927ae0U, 0x62ca84fae5c81825U,
  0xa472f9054559b71dU, 0xa3af5e04d84044e5U, 0x14174f8ed72ee7d8U, 0xb69338656697df51U,
  0x9ae685eeb4d4650aU, 0x3dd625321d41b8c4U, 0x9f07bf29e3752eefU, 0x297bd5600a0e04aU,
  0xa08d47e15a126650U, 0xaff6e7aef530aabeU, 0xcecbe8f639d66381U, 0xcde2b95abd60b9f1U,
  0x18a7dedc3ecd8ee3U, 0x444ab8246987841dU, 0xb395ef160cdd33d8U, 0x25c6c6bd35e1b93dU,
  0xaaed641c38e90894U, 0xf3b4d931b2cc1b64U, 0xd40f0f21384e51cbU, 0xfc393bea4432fcc6U,
  0x4ce46c18986cc940U, 0xf316fc411bc81e9dU, 0x6b9f85caee44934dU, 0xe7ca393b3e6a9a6eU,
  0x63155933dab9e7faU, 0xb473b1264366a948U, 0xaf199b37037be94aU, 0x9781606a15dc51ecU,
  0xdf345f93b2133fe9U, 0x9837f016b1aa3c98U, 0x5a2dcb1adabd2b29U, 0x3836a9b42d1b510cU,
  0xedd1a29d9164bc3dU, 0x92e2c17127474df3U, 0xb151cbc3f0b5e714U, 0x6391416d9b543265U,
  0xb14dcfb3c9e9ce3U, 0x1ea2fc2cd11742e2U, 0x2bc5012b47f8cc27U, 0x5569a0d3f4e56dceU,
  0xc56bf2d8b6c99d2eU, 0x584f2fdc38354c28U, 0x8ffe40df91d82aa4U, 0x5138fdf4f8c672c6U,
  0xb4dd60c8c4641ac4U, 0x99b4634fb2362da9U, 0x4be2d626b81de4eU, 0xd245321fe3b93f23U,
  0x96cb5719162b91bcU, 0xe019fc6425534b26U, 0xcd33bc22534ec801U, 0xdfad55a93fa7e1e3U,
  0x3d4075feb9d403ceU, 0xed41e1027f1a0a0aU, 0x2833bcce695f3fb3U, 0xbd924ed14ac7ab41U,
  0x1e44a64522cec1e5U, 0x3f08962c14c96ae5U, 0x289ca9f6da3ec619U, 0x7960efa6b4109d1aU,
  0xf613e3ba6a3d3056U, 0x564ef7bb1000c321U, 0xdcb5b13e1e304314U, 0x52212156deff3317U,
  0xcf2bb5d7ba66bcdbU, 0xadb0c0ba044e4e21U, 0x2c20e153fbb042ecU, 0x8d25a4bf4da14fbU,
  0xde1617aa96d09acfU, 0xa7a912a8bfa1e0c5U, 0x29198dd2a8886d0dU, 0xa72830df50be63cbU,
  0xb04106be4a54cf9U, 0x8eceb1d44dcde5aaU, 0xdd8a444e10b558c5U, 0x96b4b63dd3e1ee2eU,
  0xb3b581edaef1568eU, 0xa3a357812bb71e63U, 0x55fb2cc944f5b74fU, 0x57b6a4a7efd5314aU,
  0xabcabbc088c65aaeU, 0xa8ede7e3c55fc83dU, 0xd9c49abe62215bb3U, 0x9036ebca2d4bce44U,
  0x90cd00f461b5a8f7U, 0x243ea8abc2eaab0aU, 0xaca0fa4d231aea59U, 0x11edbff7591d0204U,
  0xc9b5d2d84a20fad8U, 0x3bd53f05329cda34U, 0xd8b0cce0c2ef4c8fU, 0xd569309014eb4723U,
  0xf1272948d140c27bU, 0x182df8d5fe06a41eU, 0x1eb32debd4e6bd46U, 0xe6a9eb99ef71b359U,
  0x13f470bae77f0803U, 0x3c20a1e94e83f94dU, 0xfe0fd2eadb2b226fU, 0xf45afbb8edbab7U,
  0x301841111e3dc691U, 0x2410e2135b3b5878U, 0xcf576936a7f1bdc9U, 0x15bca99f534308fdU,
  0x300f287f6006432cU, 0x3ed8f549e0c65cfeU, 0x12371dfa420fd916U, 0x9c593e0b18da41d5U,
  0x16dfbc566f312575U, 0xfaece236d12f593aU, 0xe07119056f5324dbU, 0x5de9fda2e18d0110U,
  0x53cdd2aaa8c7b84aU, 0x3f53d81b31a11027U, 0x61f423f96af9ffdcU, 0x9a3ed35b0f9cc721U,
  0xdc94f99911f0f5adU, 0x5a23df6b9de0171aU, 0x1145f0a8551fc016U, 0x5b70344c40c1ceb7U,
  0xc2e29a20b7a249c7U, 0xd06c26d94db46d20U, 0xd1eee7f06db15b72U, 0xf1fe4f6daeeb204cU,
  0x7f3ed7bcd6fed0f4U, 0x65b240ef32f01ab4U, 0x96c7394c11a80e3bU, 0x6a28d2bcc8e7121dU,
  0x563d9db4c6556e55U, 0xedcb9137bf24f80aU, 0x73e8dd0861fd6373U, 0x4339a921339d192aU,
  0xf848e642b6519605U, 0x7018e2005d0c6b3cU, 0xf0de6e9121be035U, 0x31b79ecc0b1e13a6U,
  0x6f48e87eac7d2c5bU, 0x9d33aff1e0ed8265U, 0x3055573cc64d4433U, 0xed567fd28e02203fU,
  0x1d446d0a7016edc7U, 0xca883fc1890f20fU, 0x75f8dc489b44e9c7U, 0xc94d7d2c3e5cec4U,
  0x9ff26ba5b9e37b6U, 0xf5312bac51a9a025U, 0xc214e02249dc0c57U, 0x414f4b2c53069e95U,
  0x2c33dea3ab3dee61U, 0xcea5164b50c0b24eU, 0xaf466355f9e638d1U, 0x53128a304003d13dU,
  0x2ce95bc138637fcbU, 0xd5b9d4ebe15f9223U, 0x3b5effe057a9fcc6U, 0x1dd3dee11234f73eU,
  0x46c52e6d89cc9018U, 0xc1671bf2aac8e3e2U, 0x2b3d6c24c1ce3136U, 0xdadc225753b31d38U,
  0x5e155bc91e90ce4aU, 0x205ad9fd0cda9f3U, 0x47b51cf91a5302f9U, 0xf2746af8be53e393U,
  0x41275cb42c775836U, 0xd32fb963e31bfdf6U, 0xce0b38814ff10340U, 0xd305ab62744b4f13U,
  0x5bd31405c596435fU, 0xf1fa92ab9130ebecU, 0x570aa2355f261ddeU, 0xd7d967e3dba1e9eeU,
  0x2b871205332f18e8U, 0x2f019b9bc4020bfcU, 0x9dc30f42aabc1dfbU, 0xcd4ac2931a919a1eU,
  0xc81f52cafe4f44b2U, 0x1ec0c6ee6d5d2527U, 0xc801e13ca8881722U, 0x9ad1378b38f2bb1aU,
  0x65378bbbfbb166c1U, 0x59d6f17f953c651dU, 0xfa4ea266fe33c196U, 0x25b8fc5a62bf7996U,
  0x23a806ed1fad552eU, 0xa962558c076e1fa4U, 0x96974d2bf55f9dcaU, 0xd6efccba63278dc5U,
  0x3abc0126b2cfc948U, 0x75b1b466273557dcU, 0xd7e6b8b140f4b076U, 0xbb78e34a26220f0U,
  0xf2cab7a66123e9ebU, 0xad12505c21c72148U, 0xfafd057f2ceb43bbU, 0xfd0524552d0f13a4U,
  0x1d912a5c1b258faU, 0x5cff07efc20c0afcU, 0xffffb44e669faec1U, 0x3f0200004170U,
  0xffffece0ffffebabU, 0xb061ffffcdcfU, 0xffffe69c00008177U, 0xffffa5d2ffffb3d9U,
  0xffffe0a3ffffb25aU, 0x34bbffffb83bU, 0x8f587f8f000021c0U, 0x531b67d726cd8161U,
  0x8151cd460263c2daU, 0xf20a813c01fab6a0U, 0x85ae1d7fb236bca0U, 0xb59454e157811f19U,
  0xf14ab63b7f028c8eU, 0x7f5cf27ffdc59e7fU, 0x464132e000975b94U, 0x1dbdf3f945fd5761U,
  0x9ecafe08f1d0cb81U, 0x567f2d0dcc09f127U, 0x7981454e5f324f1dU, 0x176daafa7f5535ecU,
  0xf479d22dd9757f70U, 0xc8098dcdc8f83edeU, 0xefd7429acd97ae5dU, 0x20bc90f3d04f8bb8U,
  0xfffff66e167f3776U, 0xfffff6fdfffff560U, 0xfffff55200001429U, 0x50200000e2aU,
  0xfffffdd5fffff5d4U, 0xfffff75f000010c0U, 0x7e1fffff0adU, 0xfffff39b000002f1U,
  0x16e47a75fffffbccU, 0xe5914188fc7f28e9U, 0xb391667f5fe01453U, 0x55d4962c9a25588U,
  0x43d11429e7d91bdbU, 0xfdb681fa2725f263U, 0xccfed829f01b2d5fU, 0x810ec33b55c77612U,
  0x7f8dbcb746c0ce0fU, 0xb1dbb80e175b3e92U, 0x645c7f25c8ab6545U, 0x9e5a3618f0d90052U,
  0x1c8f8a2897a793e9U, 0xc9815782b8e10255U, 0x8820c5147f057109U, 0xc46ae81c3cb28157U,
  0xcfa3b2c6fa310a69U, 0x83d47f0b0107c80eU, 0xce147f2cdff02b78U, 0xc8e47d9ca2bcbdb3U,
  0x37ff73bc7389c0dU, 0x9758456f33ecd0U, 0x6bf0a332974ce590U, 0x586ad7f30f57f034U,
  0x5f9a1fd2f8497fc7U, 0x6d93891de9ae23c0U, 0x46af27987f4823acU, 0xe556667f0cbf4d59U,
  0x741d9416da6057aaU, 0x634785b6273781dcU, 0xbe32146da1961348U, 0x5898a3cfbe07d168U,
  0x1fce921c917f3919U, 0xde60559e81f05c48U, 0xff93232266121176U, 0xf8c518bbcb07f581U,
  0x316bc9160801ec04U, 0xe8a10897eab8178U, 0xd90e66b17230adf4U, 0xeeb02c0de02ad195U,
  0x4ba9ffa02805217fU, 0xe2d3f228674a5166U, 0xac0ad74081eb0e54U, 0x4142652e3ed05e99U,
  0x23cf498c06267f98U, 0x645e5ff902d67f0cU, 0x13fc647316f516e2U, 0x277f725bdf05979bU,
  0xe7f66051e7af5865U, 0xd8f297e06a418451U, 0x1bbd6b6094167f8aU, 0xdf549cf37b947f7fU,
  0x30c119b443d64646U, 0x7f7c2eef6cd7f399U, 0x81d9971853251dfdU, 0xd5a9d29fa7d5ee6fU,
  0x88116f8bac32454U, 0xf1e4ea6ec8cf2eb0U, 0xfcfc2d34901517c5U, 0xf2f6190445eb0aa9U,
  0xd30994dab3b757fU, 0x521279bf4470517cU, 0xbcc269d581c2484fU, 0x1d84a20a6c81468dU,
  0xffffeab6b7e9cfd6U, 0xfffff6cdfffffc60U, 0xda2000001f6U, 0x9fcfffff51fU,
  0xe6b000000ceU, 0xfffff57d00000f4aU, 0x616ffffe634U, 0xc13ffffe8c4U,
  0xfffff367fffffe9aU, 0xfffffdae000012faU, 0xfffff4f90000000dU, 0xffffeaabffffeee0U,
  0x1a6ffffe803U, 0xffffec11ffffe08aU, 0x126f000022c9U, 0xffffdfadffffefceU,
  0xffa421b100001a31U, 0x7788fdd5b0038575U, 0x21a0c26602168177U, 0x122b885b59caa5b9U,
  0x97deb49ad1d6a6f5U, 0x81b014a7407c3af3U, 0xfbfff3b6eea4a1f7U, 0xd3f64a1ee14630cbU,
  0x3b9a8bb94d6be555U, 0xf550ea29e559aa23U, 0xedda5c884346c9dfU, 0x18cdc1f97475b27fU,
  0xdc36e5b07e43bbc3U, 0xb115f84e9cf80336U, 0x940ccfcdbf7fdc8dU, 0x1ee5f72f9b559113U,
  0xa446daa8af00974eU, 0xeef5c23a99814d98U, 0x24d897a9d044b32cU, 0x2eb4326a00e8db1dU,
  0x639ddd68bc4961f0U, 0x3fe20b5835372a74U, 0x36461aae92364308U, 0xf19324cc9eb65481U,
  0x9fe3f9a6937e34cU, 0x1d813aa7ef0d1745U, 0xac28b741fdc6b63eU, 0x3414a615fc92065fU,
  0xb6bf4257070c8f5eU, 0x433ae71b8e145c75U, 0xf26806a4c05c10efU, 0x623537a6fbbb5dddU,
  0x95c7fec33f4d8192U, 0xde190bfa6cfad052U, 0x88777fb6eacabdc2U, 0xf3a39dede1f3b271U,
  0xe0951d45dbde9e33U, 0xe539cf10730f028cU, 0x57017198810f5bf0U, 0x776723ba08371c01U,
  0x7f5ea4004229c0f7U, 0x1b9e71329e1bf6ebU, 0x936e2d998d2c1c4fU, 0x2c243c25bdffacb3U,
  0x3d10137fa204c86fU, 0x68ab106229c52fe3U, 0xdcf0f430df98b5dfU, 0x7551f734d523eb2bU,
  0xdd53fdc339c6093cU, 0x66dbb50c3ef3930aU, 0x993c4f6cedc3404U, 0xaab842a2520d926aU,
  0x8378e0787f20570fU, 0x463bf881020eea5dU, 0xf10cb2dd3b4d97a2U, 0xdfaf6c1cc06ffafeU,
  0x7d921b6463a1d3cfU, 0xf46fc3e53e53061dU, 0x2d9c52f934e23a8fU, 0x9cbfe07fd25b730eU,
  0x4e40cd6b176ffc87U, 0x24b8e081ff8cef65U, 0x736be69f35827f3cU, 0xac24bd2258dddae1U,
  0x202caba3c926U, 0xfffff6d3000017d0U, 0x1a9400001c12U, 0xdc3ffffe989U,
  0x2439ffffec84U, 0xfffffd76ffffef38U, 0x2e3ffffea67U, 0xffffe7510000004cU,
  0xa5ea8d93000007adU, 0x9efc7ff161b8fea4U, 0xdb91ae4e8a67f0e8U, 0x157ca916f133ed54U,
  0x9a8afc41d514da0bU, 0x815f2879457adaacU, 0x94540ae1c33be967U, 0x50e43c62f1dc6971U,
  0x9a4a8ac4a15e6507U, 0x59b609fc097fb030U, 0x2e8ee4557802ea9eU, 0x7a184e00e5b95b91U,
  0x2de03451546ff80fU, 0x6b5d1620dc19145cU, 0xf3d65eadef7fe63cU, 0xd15442162505090aU,
  0x493802e1a874286cU, 0x680ccac759596dabU, 0x27c5f81258cf4b81U, 0xe428543a25dac6f7U,
  0x7fb6958526bf59a8U, 0xeccd38d31cada6b2U, 0xbbc05f0c20dbabbdU, 0xbd78f4ba74b10aedU,
  0x9e2bf6707fd51822U, 0xe0f12dc035446bb3U, 0xea7f1f454197ae7aU, 0xa8ecd57e69314031U,
  0x90088152436029d9U, 0xa291ed996fc2f91eU, 0x3a1f7ec63c1b9ed8U, 0x29357af15a8a563U,
  0x33aab4c7d8a2c249U, 0x175db7e44a4871b0U, 0xf23f2a17dfdb485cU, 0xec32641aa88766c3U,
  0x46263e267bac0f81U, 0x2163ef54e8a0e062U, 0xa347903215e0b034U, 0x319eeec6abf3c87fU,
  0xc92ef28151646003U, 0x9c433bb7ef69d63bU, 0x6f0a94bc4040d229U, 0xba63851bd1f8fd3fU,
  0xd2c00efaf01853bfU, 0x53730d6a1dd3f868U, 0x2c0281148cde3224U, 0x6d0b377ed04a24a6U,
  0x52638cd4a14b37dcU, 0xc9d0b4ad1889f937U, 0x3fa51c813ce2f057U, 0xd69f94b601e152beU,
  0xb5569e465e64205dU, 0x9c1bd0815265531cU, 0x87524e6ae8398e2U, 0xacb86aa1da0ad328U,
  0x2e5e667b5ea54804U, 0x9d366ec6328ef6c8U, 0x109c67eb21e8d189U, 0xacfe349a7fbeded8U,
  0xe3b63e285701e529U, 0x6376da23969deb58U, 0x77bb62ac881469f0U, 0xd06279a34addaa7fU,
  0x1e2c7ed06e90U, 0xfffff40bffffe3c5U, 0xffffeba6ffffc58cU, 0xffffdbf900001caeU,
  0xfffff90000002340U, 0x4aaffffe8c3U, 0x12dfffffe7f2U, 0xfffffdc00000131dU,
  0x817c5272ffffe7faU, 0xfe424a9c14e43304U, 0x516cc99bfd10f5a6U, 0x414d9381000cb57dU,
  0xc07473845f3ffe7eU, 0xf4d1ab5f0762dc81U, 0x4b95b222b4bf32acU, 0x7001ef426818b9d7U,
  0x7529b187efeb8168U, 0x81674caa67452fe7U, 0xeac4fcdd8b9e9e2fU, 0x441a677f736552beU,
  0x1e7212ca02d26023U, 0xe1a08e62757f2baU, 0x35dffbdf0ae77f03U, 0x617fab753ff5e2b8U,
  0x48981c6e9f0700a4U, 0x948109e54dc8197aU, 0x4cb6b3d600575ecfU, 0x85c4a33a4e838164U,
  0x2641beeb95b4f4daU, 0xe76ea37781a6207aU, 0x60ce16a23ba1919aU, 0x7f93236d14ea12f4U,
  0x2125d82be66757f9U, 0x8e96c169b20b8939U, 0xa64d256db0df7f3fU, 0x28a1562ad6824a0cU,
  0x43a8b693ab417e81U, 0xe3e9f74be42ae07fU, 0x729704f7a33bf4dfU, 0x819edebd9ead2325U,
  0xfffff64c96fbe99bU, 0xbdcfffff0ecU, 0x4e0fffffdacU, 0xffffef0dffffe0a8U,
  0xfffff882fffffee7U, 0x999000020ddU, 0x7e7ffffef58U, 0x838fffffc0dU,
  0x287fb31800002605U, 0x8fbae94a50e681c9U, 0x7aebbd1dca9205fU, 0x7fd67f8950d91c3dU,
  0xe1bc4814d5ccc8aU, 0xc67225e0b8df6081U, 0x2c0c3b697281a35eU, 0x4ebe191c1e3722d7U,
  0x662ec83fa0daa5d0U, 0x59d0b13d07cc5e38U, 0x7f0d813639ef63b1U, 0xc2310328d556709fU,
  0x45260e168c37dc48U, 0x581fb8b5bc40b998U, 0xb01096917f19b039U, 0x3e7f6581c1817460U,
  0xdb5536fdc9ff97ccU, 0xeaf7f35281ccf2e1U, 0x248cce7f81U, 0xfffff3e9000014c3U,
  0xf07ffffeddeU, 0x662ffffef87U, 0x3710000081fU, 0xfffffb17fffffa62U,
  0x6f4fffff4cfU, 0x86400000b4dU, 0xee8cd24d000001d4U, 0xbbc6638c8b5c5d7fU,
  0x54bda423ca654bbU, 0x84276ddf26bb0bb3U, 0xb54d61127fcfd7dcU, 0x66811a47472f7c6dU,
  0x1511ccd26e2e7cb5U, 0xf76a8badda7c7fe6U, 0x8664e33d7b2caf5cU, 0x23fe8132f8d5601cU,
  0xcc19c5780f4b4fe8U, 0x7fd942d7f80a31b3U, 0x7fe945253966141dU, 0x4970ab4f68fcfd46U,
  0xf49daf0db690e3b3U, 0xf17f683a3860f9afU, 0x99aada9152e7ee5dU, 0x5f7fce1b4cf7618eU,
  0x828aeff353ef8f41U, 0x983e92209d8b7028U, 0x35a130beb112a981U, 0x2fd7043f48166defU,
  0xaf4b4c5b56717fc6U, 0x7f0ad06c03b4588aU, 0x41d45b742db86cbbU, 0x3d3d66658161e60fU,
  0x5bb4334455525aeU, 0x79287ed7543676a0U, 0xf0f617156c819038U, 0x3de5d202ff2d278U,
  0x9b994afe9081fff3U, 0x218132fc55252955U, 0x3b89d14a1U, 0xffffd81a000000f8U,
  0xfffff951fffff65aU, 0xfffff450fffff1d2U, 0x6a1fffff48dU, 0xffffe52d0000269eU,
  0xffffdf6dfffff7a2U, 0xc5ffffefaaU, 0x4a257c6c0000093fU, 0x237fb60d3602de52U,
  0x8188cb37e09adb5bU, 0x6f28355e187ff6a6U, 0xe330ebf41ec1e5e9U, 0xdc7f00d957e29c41U,
  0xfd0a617b85603f3aU, 0xa01b62b79269c3b0U, 0x44fa61b816eb2bdU, 0x9981254ae60cff50U,
  0xd18f9712dbd1a1b2U, 0x913e74c31b81dba2U, 0x3f9822d566b734e8U, 0xbd92fd327681ba58U,
  0x1934d858cd127ba7U, 0x675481f55c27ab8cU, 0x563ec71ea918eca9U, 0x55fb88e49079a887U,
  0x797968ce17cc811dU, 0x6a7b16fae81a640U, 0xd817f670893b097U, 0x37d7779292cbde02U,
  0x212121ee94370a8bU, 0x26ce81a1541611b6U, 0xaa2ea346ba309eb1U, 0x818387a17091ae9aU,
  0x291d87cb03a4da9eU, 0x67d7b202aa7cef81U, 0x235d0081ce735025U, 0x7197f5451b4fff52U,
  0xb59a519e84c16a14U, 0xa635c7011bca81b9U, 0xffffe07943b2ea0fU, 0xfffff4bdfffffe59U,
  0x133900000993U, 0xa0b00001a5aU, 0x1413000005edU, 0x106900001319U,
  0x3ca900001605U, 0xfffff303000004e9U, 0xb6d781610000225eU, 0x2c0cbbdef69f1e4dU,
  0xb37f7e9b1c3ec8abU, 0xd695893097f7f04U, 0xba692a337112407fU, 0xea6d12e20e98f8aaU,
  0x26ca6cc581e9f330U, 0x11f2f72ac0b37dadU, 0x354dc136197fb928U, 0x93d7030300be2627U,
  0x98eb47579f7f7344U, 0x4ff7f21c2f5c19e3U, 0x58a5938d2a2715edU, 0x817fd622420709e7U,
  0xce62a5811ac752e3U, 0xd21ac81a2a5377fU, 0x7f68e5c98f277f3eU, 0x91b67f0381d3cb67U,
  0x8826b29c531U, 0xffffec320000023cU, 0xfffff9b70000031cU, 0xc40ffffed99U,
  0xa58000009cbU, 0xfffff20fffffff57U, 0xfffff31300000cfcU, 0xffffed2efffff427U,
  0x2ae1e8c9ffffff46U, 0x94247faa0cc2cbf9U, 0x45f1611f2b10a401U, 0x7b522aaf75502ecbU,
  0xbec339a7815845f3U, 0x3aedc09bc8e9fbb8U, 0xb36454a3547f9cdeU, 0x616dfd516793827fU,
  0xe9fff581d5439c06U, 0x4c9497372d983e1aU, 0xaf9874b8348870b0U, 0x2a84137faa130781U,
  0xc2812f9b45652de4U, 0x1ef90e9c4b943e97U, 0x22108db1dfbbcc22U, 0xd20d520a6e35b4b2U,
  0x3ebb92d95446811bU, 0xc85f48d9d1563e81U, 0x7f38c150ad61c63cU, 0x33da96c551f60440U,
  0x321c216894ba3d25U, 0x6ad2a5dbb36a1332U, 0xc59dea60fa8122b0U, 0x6b94c210812cd94aU,
  0x88cdf10d0048601aU, 0xb12d923c11dd117fU, 0x8dfc56aae0258bfaU, 0x7197f1f09451597fU,
  0xa042b2f5b679dcd6U, 0xab5b4e07efbf4d8bU, 0xff026b217ff260U, 0xc7dd25448e9df36dU,
  0xfef00a08d7fU, 0x141fffffdfddU, 0xc64ffffef24U, 0x193a000009eaU,
  0x3a9000000aaU, 0xfffffbe3fffff5e1U, 0xb5800000105U, 0xfffff9d9fffffda1U,
  0x8271047200000497U, 0xa2f7878174d48ad6U, 0x58124eade58b03cU, 0x37a560e959844b5cU,
  0x1660c1469a924d22U, 0xdba0dc6e5a6e68f9U, 0x8b02ed0710e9881U, 0xd3a4579b6e81f9e2U,
  0x90c2ed8a6a840d62U, 0xff705dd0fab3db7fU, 0x819aaba56b755e94U, 0xc123243bdee189f5U,
  0x1fb08136f4a7e19eU, 0x4156e639c3d5dd77U, 0x51e09047eb95ec3eU, 0xca23997fa5d60406U,
  0x6d26c1fcaf3998cdU, 0xe1f949c547e529aeU, 0x47fd6c1481b3656dU, 0xbc7d92b69a9d93ccU,
  0x7fcccce5ce7fcdd5U, 0x3e45837f508670daU, 0xfc6e910ada56e21dU, 0x828c071750d6187fU,
  0xaf7f95cd8e0e62daU, 0xcdf7e092ba883845U, 0x24446a5c341e83d3U, 0xed90f0217f43efd1U,
  0xe81fc7a6720bb824U, 0x9e201b19f00b95b3U, 0x6e6c2e7fb03981edU, 0xea409132d22062fbU,
  0x1690de249224U, 0xffffef250000031fU, 0xfffff9e300000bd0U, 0x273000032ecU,
  0xfffffbb10000145aU, 0xfffff149000014e3U, 0x212e0000042bU, 0x22d3ffffe439U,
  0x70817f37ffffe721U, 0x60e43881898afec9U, 0xe2e97930f7669563U, 0x83f48162c70ad30bU,
  0x6664d57f0545532dU, 0x817f225c936430d2U, 0x3bf924886a57723cU, 0x86a82e3e9a81ba7fU,
  0xd4d7aef32acc7e1dU, 0x3cb539047fc67f14U, 0x7feb8fed3dd38122U, 0x33a9b2c85ebada37U,
  0x27feffaaa0177317U, 0x2fe16a7d786da8d6U, 0x3f15872e7f7f9889U, 0x3bd97c8e26405037U,
  0x1a3a130aa81c6124U, 0xf25d5fb2720520d8U, 0xfffffd55740cf581U, 0x1de000004e5U,
  0xfffffb11ffffe89dU, 0x499fffffdabU, 0xfffffeb3fffffb4fU, 0x7cdffffef26U,
  0xfffffb6300000436U, 0xffffee25fffff61dU, 0x16fd89d3fffff33eU, 0x496a17c811243792U,
  0x600330f8819f589fU, 0x819df6540248a8d0U, 0xc016070b522dd64fU, 0x81cb142a5f5e5999U,
  0x46a397ebd715bdbfU, 0x41e2e155e8617f0dU, 0xefde46a86cfeac04U, 0x2d7b29e65ec688f7U,
  0xc1675017627f9f0dU, 0x7cc4d0317f22c040U, 0x7f893c4713fe7eccU, 0x57b02d3cf822d9c6U,
  0x3c21daa119b8d8a8U, 0x9896a1eb7f4e44fbU, 0x39902c8ca90d1f33U, 0x62742ded6d5a5ac7U,
  0x900cf24eb67f0b1eU, 0x1ff794c9558947f5U, 0x91dad7ce2a778118U, 0xcd8664f653aed358U,
  0x144ec97f816da8bfU, 0xdaf7ddd84faf2c5eU, 0x43e7cea6b89300a2U, 0xa27fe4efa6e50a10U,
  0x218621be54b3f08bU, 0xf601a69b8b54d852U, 0x44f232ff816eea00U, 0x627f1cd3b0d08a9fU,
  0xae74e35c076ba667U, 0x5c29d4b53181547cU, 0xcb04a1aa2dfU, 0x6c6fffff969U,
  0xfffff313fffff699U, 0xfffffebfffffe93fU, 0xffffe58100000539U, 0x14f5000004faU,
  0x1334000005d7U, 0xfffff85900000fcaU, 0x94048ad8fffff4fcU, 0x5416cee346298a8aU,
  0xe46304161881ad5eU, 0xbd7f7d904a8c79adU, 0xd0538e1c44c82116U, 0xa4f88c6cfd62924dU,
  0x8a91df129e7fb25aU, 0xf0f693bf2639176dU, 0x81e54db31bfb3304U, 0x68a7377de5e6e045U,
  0xa70036e1a0d9b7b2U, 0x632925a9aa0830a1U, 0x707c41f5e8eeac7U, 0x77a295254f24070U,
  0xcc0f81ae7ed76331U, 0x248a976f514e483fU, 0x2e02c4fb3fb5edfdU, 0x3a3430f4addc0795U,
  0xa81275ec37bb0349U, 0x6098adf9fe64d283U, 0x25fbe330814f6ce5U, 0x1416e066176dfd21U,
  0x1a4069212b00c63fU, 0xe937eb08b897f325U, 0x5ba8a52a8115bfd2U, 0x459c7f6ea9090a65U,
  0xf958c3464d0aadb5U, 0xdebc378f348bff23U, 0xb09711ee336b8ed4U, 0x9252a611ccf26ba4U,
  0xd11f48ca883d2f66U, 0xf781cc26289a5f62U, 0xa82c7fb6cf3529bdU, 0xdd00a10a9a6f3cf9U,
  0x6c3db09e60bad4f2U, 0x89d0e9e248152c9eU, 0x23fa7a101ed604d3U, 0xcf3765d5b58187cfU,
  0x1285dab56dfec869U, 0xd15ed843d5323c35U, 0xc3f83e54237a5336U, 0x596b05bc0fd640e0U,
  0x7849ff7f222499a9U, 0xcb0df8e71741a521U, 0x45058289f7a80da0U, 0x48208dd63c981a24U,
  0x7469cf7f08600cfcU, 0x9be34bfac815514U, 0x8b377e984c2f753eU, 0x9c91b2013b3a41beU,
  0xc1f34b6362aa810eU, 0x4c6af0455d8c359fU, 0x2d69eeb5865a9431U, 0x4e04154ea8722881U,
  0xf37cb21f77d2b56aU, 0x13bfdf941cb728a9U, 0x9f6b974ed7453a94U, 0xdcc0cfaaf291316fU,
  0xf3612e6b1819e84eU, 0xf181025e83b874d6U, 0x1c84bfe190d297ccU, 0x9cb25136f097c6c1U,
  0x104ab4a7c4dc45a0U, 0xb9819a6a4ad12ac7U, 0x17cba56d77c3abecU, 0x89a1d96578c25450U,
  0x6459c824233188edU, 0x28ad8156cc16c211U, 0x4ed95b4cc3fafdb8U, 0x9b1ef2c418523069U,
  0xb1224ae7c709e0f9U, 0xbd4f93c54bbbaad8U, 0x1c63b901b47fe656U, 0x519f56786209b68dU,
  0x69bdb89d906a35dbU, 0xec7fc3372a0516caU, 0xd9eedce43f0b723cU, 0x677f554708f1842aU,
  0xd01e8656cde4d051U, 0xb4eadff0783adbbbU, 0x41c9016ed4b293c2U, 0x7f4532e970da77a0U,
  0xbbb47acd15864b3U, 0x38184f763802f3d9U, 0xefa0c667d93683e0U, 0x84fa49fee69e91e2U,
  0x23910f816a18f8bfU, 0x91815c8a54daa9f7U, 0x538139d79a095b16U, 0xea2f634005f13649U,
  0x504c04bba14257acU, 0x36a01d9b3a632b43U, 0x704266a83e2043aaU, 0xbd050c0d8f176f7fU,
  0x6b27e8e58b2bb1U, 0x14b3344d2c14b1bcU, 0x7ff8e43c6f114fa7U, 0xac417f748e8f4cf1U,
  0x156ed248195ce1d7U, 0x105294a324432669U, 0x1465d2b0b83309aU, 0x6a045a7d0cf93e63U,
  0x912550644cca39eeU, 0x28e17f48de9f4f40U, 0x1b0dfd455708876U, 0xdffc56fb4116c959U,
  0xa1f8683336f3e27fU, 0x9caa59361a31bc1dU, 0x888dc387b152cc66U, 0x5e86bb747041e4f5U,
  0x967f901c00c799c8U, 0xc092a209c05d92ebU, 0xa8a14649f068237cU, 0x97d0037fc0d567b1U,
  0xf029fab90dc6bb22U, 0x376f03c8d03e1ce5U, 0x81c79308190e933fU, 0x3b1f3df551b05078U,
  0x3edab5b3aecdc21bU, 0xf52e1bacbd29579dU, 0x44c1c41fea74af62U, 0x120a960bdd7227f6U,
  0xa85c7007121493dcU, 0x1954bf4b57d447f5U, 0x514b4481a4811ca1U, 0xc40f67044c8cb342U,
  0xc5ee86bda683d5bcU, 0x4fb4e1de120903baU, 0x251ca7a0f714U, 0x1c9100000717U,
  0x685ffffbd15U, 0xfffff60cffffdedfU, 0xed1000017d7U, 0xfffff6b6fffff60dU,
  0x192dfffffd2dU, 0x121affffeb3eU, 0x24700003e9fU, 0xffffe834ffffee17U,
  0xffffd056fffffba4U, 0xffffdff500002bb0U, 0xffffe3a6ffffef18U, 0xffffedbaffffa9d7U,
  0x132800002f26U, 0x6f900000bfaU, 0x3e5b0b84000020eaU, 0xacce817f742f2b7fU,
  0x7f60113fa2fa7fabU, 0xa681c7c885e47ff3U, 0x2f7fd434813c7e8bU, 0x81458eede5d5353cU,
  0x2df06a5e7f3dec98U, 0x42847fe98139cbeaU, 0x1d4fe6a9aac57f97U, 0xe178461be25332dbU,
  0x187fbd8bc5ad2c2aU, 0x81f76b111ad2610eU, 0xc91059ee05b5d7f4U, 0x4f81da3666bbeb23U,
  0x4bcb81b26936d9e2U, 0xe856970c427f5eb6U, 0xcbe9df8e0f070823U, 0x23d8ae46c8c97a25U,
  0x167dc29ffaeb730bU, 0xe0d46b12d44edc7fU, 0xa3613f89dc7ff861U, 0x8dcccc563281ba0dU,
  0xfe006b2e1f819908U, 0xaa2216d02cbff1dfU, 0x265381818307b871U, 0x4d8a3d17f2cde63U,
  0xc9e26c87cf65e044U, 0xf1fe2bdd8beba16aU, 0x7f3eb37f69fdc46aU, 0x9a45328424ea669fU,
  0x915ffc819ab64f71U, 0x8ce771e5d1f057c5U, 0xa1a38ec919c88723U, 0x281d7476a73781c3U,
  0x5867cfb1d2b4b87fU, 0x91570e8130f52493U, 0x19dc05e6e681U, 0xffffe8c600000fe7U,
  0xfffff48affffff6eU, 0x5a5fffff7bcU, 0xffffef23fffff25dU, 0x18600000d51U,
  0xfffff752000012ddU, 0x9c6fffff9b6U, 0x17a400000460U, 0xffffe6fafffffe9cU,
  0x212fffff33dU, 0xfffffba9fffff458U, 0xf3c0000107cU, 0x74bffffebc5U,
  0xfffffd1400001d9bU, 0xca0000022fU, 0x4df0404b00000de7U, 0x36d4af261b29a309U,
  0x9d329ebddbea742fU, 0xf6af6f6dcf7f30acU, 0x920940f1492f9304U, 0xf7c84a8bbb907031U,
  0xfe460ce7bf1823e8U, 0xb1e09c97e2caaa67U, 0x8fb772bdf381f509U, 0x51493d5cda8da17fU,
  0x89185381e8b4cdb3U, 0x5b725c79c9d2f2U, 0x71e7ded9987b6ddeU, 0x18ddfa29e51da614U,
  0xfd5cdd79f19a4593U, 0xf40c3d2b3e7f41d4U, 0x5c5a98b5b009ccb1U, 0x1c2af365f7f76b81U,
  0xc3599b60401dc9f2U, 0x896860643e315bbU, 0xdbfb2b7f0e76f010U, 0xd20d8b56da5d2a7U,
  0x274979ccf5443447U, 0x77719d376417c336U, 0xf6558b2eb5fb0311U, 0x851fc2815cfa0fb7U,
  0x2b7f5a6e9fd0d799U, 0x3a7d1596fd78be89U, 0x501e4f9705f54273U, 0xe20cc918c8271e4cU,
  0xae1001ae7fc085a3U, 0xc84ff66730c5af24U, 0x26efe8117ddb5621U, 0xd905e627b2f754faU,
  0xd076d89b63375161U, 0x6af6309b0c76e3aaU, 0x48a4b79ffd813df6U, 0x6dbda894115a120U,
  0xa1e57fc4e78aa2a5U, 0x3e376ecdc6e0f108U, 0x68b54bad4e3ed579U, 0x78a55e4b28514049U,
  0x94c7c8483b487ff0U, 0xc0d4af96aaaf4a0dU, 0x6624a312a8be73b8U, 0xa06ca9476f7f1cb3U,
  0xdb0191f4c124d8cbU, 0x70426207a0aa2da8U, 0x27f6c25c42455db6U, 0xd13326877da6ca43U,
  0xef461e7ab2cb66e4U, 0x307fcc856106035aU, 0x9cd63e7eb368d6a7U, 0x2c1a6c9b1e8b5dd1U,
  0x429e9bad376ea4b1U, 0x43e9b1b39dcc6008U, 0xae2ee963117f3398U, 0xe8cb366a977f7a10U,
  0xc225ac61b1587eebU, 0xdb14df76feff7b66U, 0x5970471c4b3cb184U, 0xb05b256e68430db4U,
  0x395a90e6e281f55cU, 0xcb3f59015dc3f08bU, 0x740b16cb1884af67U, 0xd71c047d918b44fU,
  0xe623a1f181dee728U, 0xd8e93518acbe9929U, 0xddcf08e11e5cc3b6U, 0xb152d656f3cc6c2aU,
  0x7fc8a06094144968U, 0x3f81cff7dbdd72d1U, 0xc8ef6b3db8163bd1U, 0x3b7f2094dfceffd0U,
  0xba5f9d618bb7929U, 0xe277cc3c21108946U, 0x3d03cb7fd5e5d0f6U, 0xd3c4c24fae3d0556U,
  0xd21094a00ba933fbU, 0x9344a4142297aebbU, 0x54696a0a9577c859U, 0x8a79a46406ac1860U,
  0x4db1022e198621e9U, 0xc92b38fb81e90d51U, 0x2de06b5534f48544U, 0x7326425442b79002U,
  0x5e2d0d22a9abf6b4U, 0x5b0f4b17bc9f188dU, 0xfbdec33d81fd175bU, 0x1ff331a464e38112U,
  0xefac8b4ac1fabab9U, 0xf8ee45285a282105U, 0x45e7847ccb40cc31U, 0x2e8e897d26975535U,
  0x8c1a15f4b6ef3805U, 0x2dda0be25bcf4c81U, 0xb346b9eb5bd99cb5U, 0x84f165859f9fefbU,
  0x100a23ff9f9d4081U, 0x43a5e12ccd0efec2U, 0xe5283651d21d63b5U, 0xea58553b651461a0U,
  0x3e66be81c7f054eeU, 0x3fac97965fd14673U, 0x2e68aa2a3c3c487fU, 0xf3fc128513c3a19U,
  0x9b62046a814b5aa1U, 0x9ee3874ca6b7ffe1U, 0x33b854676bb1a207U, 0xaef397c89da93f68U,
  0x4ad4060ab6841694U, 0x366d0c2fb07f33c4U, 0x87d6061ff528839eU, 0x5128095a7c12f28dU,
  0x29c7fe99639c5422U, 0xcdd8217d911e9f64U, 0x1c93ca49bd81a6b4U, 0x32135b7d4d433c1cU,
  0xe4618e4e6f93e3f2U, 0x6ab7dea281298d82U, 0xf21027ad223379f9U, 0x2d48ad1e0feefb2aU,
  0x45408e44bc9aa3d0U, 0xa09c5594041e8cb0U, 0x24f8e5197f28dce6U, 0x7beb775e5de03cc0U,
  0x53396a98b1429283U, 0x9d81e03369f22ee1U, 0x911d3aee38f3447dU, 0x9cc32bd983aad76eU,
  0x8fd12c09d1b9449eU, 0x96da652e1ca07fc9U, 0xf7766ab62e2a6200U, 0xeb5c57be38b7ebd1U,
  0x18e6447f294a96c2U, 0x2f00dfb706924148U, 0x257864e420b6d46bU, 0x7cb69baf1693a481U,
  0x11f00b84437c63abU, 0x1f76cbe16f8fabaeU, 0x6a7011cb18457b59U, 0x92d718df74a6a33aU,
  0x280826f97f09d724U, 0x305238e1e1d0582bU, 0xed8b9f4a91dddd4aU, 0xc7e507950e6d9474U,
  0xeb4b81faf4443315U, 0x7b4985e58eec3d9dU, 0xfc34991313b02e52U, 0x634ce30aac6ac010U,
  0xc27b13ec429a6fb2U, 0x381238625c7fb2dfU, 0xaf92fa6f463b1caeU, 0xa3d127e5b3bc5dffU,
  0x7f2b57acf1f9ee2eU, 0xa122690f61157809U, 0x628183d89daed1c8U, 0x44008d6db1f79bebU,
  0xb898cd50f63581bU, 0xc704e1df6b221da6U, 0x700fa47fd568e2dfU, 0x75095e86c2dbe27aU,
  0xf607291b75c67ed0U, 0x1e0a7405d1f6fb9fU, 0x8f73909bdc671842U, 0xd90737f5538b61d0U,
  0x6581f4d0a51d90ceU, 0x3cc8b4934c05402dU, 0x3e31ec67074a3e14U, 0xb5dbfa004c3bfaf6U,
  0x74a3ec0a1ab2ab62U, 0xf0aed271dc48cd82U, 0xa9bfdd5e7f4c3c84U, 0xa0c17ff1000ff0adU,
  0x355c56d0e251e1d0U, 0xf3ff086112ce499eU, 0x69f14e1ac0f800d1U, 0x1a04c6243381cc37U,
  0x586251eb06da6a2bU, 0xf8dc74b2d5be79edU, 0xf2b3a2bc460f499eU, 0x1771967f5343a739U,
  0xf8078a4d15668cb2U, 0xa7eaa6e9f02b4dccU, 0xdeae5b420e590deaU, 0xa7108adb3e8e981U,
  0xc7cd541f4050dfecU, 0xed508d87f91c6013U, 0xd898a34bb065ecc0U, 0x8465735fd1814fd3U,
  0x94ce8816909fe393U, 0xaeb5426dc0825ffU, 0x93cbefb57f282d1U, 0x2ec2cd08a4d210c8U,
  0xd03392d47547169eU, 0xbbd44e117985a4fU, 0x9e75c67f23f5a881U, 0xa7371c883f4435a0U,
  0x2a6896bde0ca6db3U, 0x6e037d2f2b60d998U, 0xa3303c7318313429U, 0x91ce3556c0561018U,
  0x968ffcbb4804da93U, 0xaf8ac06646d8f861U, 0x41ee8762175981a8U, 0x9fcfc2ced6d8c2e2U,
  0xb6798d5e5ce94f16U, 0x5c267133dd92032fU, 0x3dd67f9481510e7fU, 0x946595142e03a07U,
  0xe36fbd637ce9222eU, 0x5d2f74cffffc5dfcU, 0x574d8f697dca27ffU, 0x70df8139b13b651fU,
  0xb2b0a421eb4a22ffU, 0xd3060429f9947846U, 0xc870291ba281aac6U, 0x8f13c76b7f2ac946U,
  0xa87171d00a094814U, 0x268e85db1af151aaU, 0xafa789261e5ccc98U, 0x5f810a7339899956U,
  0x2a7137a21935bc63U, 0xd7588701f0e15ca5U, 0xffa54af439b5ea58U, 0xa854d7a6299637c1U,
  0xf04a9bf84dd2f695U, 0xca9c0640cb94bf9fU, 0xa53a20c07f435b41U, 0x875090656007fc47U,
  0x7e75d45ab1171070U, 0xbfcc1b39a075052aU, 0x8f409ca27ff46fcfU, 0x44cfe2028cb37fc3U,
  0x22d83dedb0dd1522U, 0x9fbdb97725f52b60U, 0xf755bf81cc2a003fU, 0x8e08a7212f096d6cU,
  0x2e559b47d0392d10U, 0x32709e46fdafc5dcU, 0x3f998390557c39fU, 0x65fb28fa61973d2cU,
  0x9357373daa81ee4eU, 0x20e565194aa53fa9U, 0x709b2cabf5f4978eU, 0xb92165545b5e55b2U,
  0x89c901fd9dd7bcf2U, 0x27fb67c4a8d10705U, 0x29a481b4811e38f5U, 0xc317a0ab0082c018U,
  0x48b291f5ed77170bU, 0x95df144798212d53U, 0xfe6ac9201e13fa88U, 0x253bba583d7fd85eU,
  0x2aec335ead40593fU, 0x54a8b31f33da8eaeU, 0xffffedfef295c5b8U, 0xfffffd51000027baU,
  0xfffffbc1fffffbd6U, 0x32ffffdff5U, 0xfffff500fffffea5U, 0xfffffb0200001bffU,
  0xfffff247fffff3beU, 0xffffdbce0000060eU, 0xc9bffffe67cU, 0x157fffffdebU,
  0xfffff2d1000018dcU, 0x57effffeb5fU, 0x68e000005c8U, 0xfffffbafffffd88fU,
  0xf3200001068U, 0x160bfffff028U, 0x16a4ffffea34U, 0xfffffa98ffffed2cU,
  0x59dfffff05aU, 0x73bffffe1f5U, 0xffffdfb3000017c6U, 0xfffff33b0000143fU,
  0xffffe110000004d1U, 0xaa6000005b7U, 0x1451000025a1U, 0x1171ffffe8e2U,
  0xffffc14ffffffc38U, 0xfffff0c8000005a5U, 0x1751fffffc36U, 0x16c4ffffdaf5U,
  0xfffffd54fffff941U, 0x295800000e54U, 0x29e0679dffffed1aU, 0x211dc98546bc05baU,
  0x19e6a150a44e34ceU, 0x6d44adb06da2d659U, 0x2ed885af2d6d8dcU, 0x74e8348755d5c70bU,
  0xb69d6b2e8d296a3aU, 0x47b592f0526531a4U, 0xcac8853a2ede7facU, 0x86014ddf1addbe5bU,
  0xa7cadace53628dfcU, 0x39da2e81569c2b7dU, 0xecfcb1e3d7d94d2aU, 0x6bd7896dcd60491fU,
  0xd370e15749bf2adbU, 0x90a87199de319999U, 0xf6f65ae6570b0831U, 0x5193cbb692ac9b3dU,
  0x316fc7f1880e2ed4U, 0xec051ab02b6a90aaU, 0x1db1eac6c9499e70U, 0x3511137fc7de238bU,
  0x139d05dac890a611U, 0xaed9ae6e46c3ed0fU, 0x56ccf2d17206b899U, 0xf1b9044f348eda9dU,
  0x1c9581fbaf0bc3fbU, 0x46664eb464b7d5U, 0xebe92d40575e44d6U, 0x21dfa0be3ef0b8ceU,
  0xe3fe5c52e0e14de9U, 0x6806ec18c1ac391bU, 0x5009b14f1fdff9f4U, 0x91b223dbb7a0f232U,
  0x9a6919478153c100U, 0x760d4070cba3aca2U, 0x660da56460f64374U, 0xbcd842f968999241U,
  0xc3efd9f1ba3ee127U, 0x2af5d810ecd79dbbU, 0xb4378eeb3d26a89cU, 0x113e22c489d0f5daU,
  0x771debfcd32a323aU, 0x6e33c5e8cf96fa00U, 0x31a475816d42b4b2U, 0xca62529f98442d34U,
  0x9847d9e511e5be25U, 0x4d0c38dae89354cbU, 0x81283ad3a6975bd5U, 0x2beda713a91b3e8dU,
  0xe44209a1ca7f78f9U, 0x8301c2eac410074dU, 0x6d6bde5fd5114387U, 0xb2ea090beb5bdd08U,
  0x20a30a17652bbbb2U, 0xc2dc38c8c16630d6U, 0x3e5b8ec41b4a3a35U, 0x3e999c8eddf64482U,
  0x7f9d607739c690caU, 0x19c9576b873fe84eU, 0xe2684137eb86c8e1U, 0xf7130b6b3bd18b68U,
  0x37f32b1324d2f41cU, 0x42db17a1a5273f23U, 0xd4e004b1a9a16f56U, 0xe67c084ae9a75c42U,
  0x9aea1c3de1260543U, 0x57c75e903042ab32U, 0xc2335db78ecaa1caU, 0x35b728da9bea9413U,
  0x1d888e3c8f0df177U, 0xa34457d169657f33U, 0xe2126eda1113b88dU, 0x9a119647767604bdU,
  0x4421eed6dfa6a5bdU, 0x3b63b92c03621ce5U, 0xdf1112a6688f9cbfU, 0x35ca844cb42bc654U,
  0x1c6114142f039e7fU, 0x7d5e0aec02630e3bU, 0x307745cffc1aebb7U, 0x64f3a512cfe3ad66U,
  0xa5cf392d3f48ad54U, 0x961870b1b33cef58U, 0xb276e94fa1cd270eU, 0xf0a57ca453cdfabaU,
  0xb0a95c5d45ff2e27U, 0xa1daac882788b9b3U, 0x493fdc5481f41123U, 0xde81a8e74dbef0f5U,
  0x5698f11a818b4e15U, 0x91072bd2a053c79aU, 0xaf429ae1ec4fae10U, 0xee707ae39b73826U,
  0xe51c2fdde1b42787U, 0xba0294df52955204U, 0x59ca81214297ca92U, 0x3ba014cc1eb07e3dU,
  0x1f54cfd223660e15U, 0x418f3262c95e9dcbU, 0xbc5d33db7b44c94eU, 0x75960e12cdc6cbb2U,
  0xeca4274fa13849f6U, 0x2d79e9853c2dd669U, 0x1c9ca11d1b7db603U, 0x161204c06c1b35ebU,
  0xb2f75942e25e4bbfU, 0x279c0292f39af62aU, 0x13d20ae0a756928aU, 0xff990655717f8d0cU,
  0xc1eeceee65340c74U, 0x9f3d8aa23746520aU, 0x3fff9f3804fa15cfU, 0xd5edbba0ee7139e1U,
  0xb90157f26794b175U, 0x9e08a5a0bd2dcc04U, 0x605a333fc4f0fb0dU, 0x17b49e7f4e261375U,
  0x50b27318d318cbf9U, 0xe03312e1d5a67U, 0xc129eebbac54ecfU, 0xe6ed0e21675e8a6fU,
  0xe28f8d03811341ecU, 0xab86ab49cf045270U, 0xbecfb49dbaf3d323U, 0x911d22a346bb675dU,
  0x9daef5ba44d4be12U, 0xc635480a0f6a6661U, 0x36d071c67b1d59c8U, 0x4fbd6872629bd631U,
  0xbe539a4708b82de2U, 0x92c3ae8ad0162378U, 0x19d28e21c62193e7U, 0x812fb02b724994fbU,
  0xfa14b5ea6112a5f0U, 0xbeac9173935b5a04U, 0xc5ed6022cb1ba74fU, 0x1113e75f519d8a40U,
  0xe6a83fa34a3ee225U, 0xe1129ad8a85f011bU, 0xa24c497b32e1192U, 0x3196f51885f9ff08U,
  0xe65c8723ed5648d0U, 0xcdb90a52be7f56b6U, 0x351f4aaf9b53431bU, 0x4a9f960bc5e3d697U,
  0x6201263db2ea58b3U, 0xcec57f215dcbda34U, 0x1c48e7147e20dca2U, 0x9f88cba28dc9e65cU,
  0x63a3309885449286U, 0xaa88ff2611244b24U, 0x173584a7a4f4410dU, 0x6c956454dad15538U,
  0xba150bc8cabfd3d1U, 0xc65cad70bae87f65U, 0xaa0e28362c5c14c3U, 0xdc8e5ab1c39074c7U,
  0xeb7d3666f2270e05U, 0xfbe66b2dbdcd145U, 0xf2be576a3610a00eU, 0x865e375606c5dffcU,
  0x4f0d4d2df7b111e8U, 0x2f455bdb2b05dccdU, 0x314b1f1cdb655fceU, 0xc13ca46d63f5a029U,
  0x3bf68fe33b1a6f22U, 0x39564a21bdbffe81U, 0x15f4b601fca7ea1eU, 0x4c2849006097706aU,
  0xe7f9b06a6b4c3b2cU, 0x9442d1f1b3f7818U, 0xc51c8b6e7d430f51U, 0x7f3710b6cf1ac9c0U,
  0xb654dcef56229e5cU, 0xbdbc05b1af5659e3U, 0xd799290b84f65634U, 0x7aa91beae754e361U,
  0x12480bea444f56b4U, 0x682a570d81941204U, 0xaf30d2f12e16282aU, 0x25365b1b33bb2418U,
  0xcb53c7dded1d8b4dU, 0xc5d01df31618f627U, 0xe79ac776e0ff3909U, 0x46a23353ac5bebacU,
  0x496978d060bc6748U, 0x324098e7b361ea60U, 0x3fa73e554e3e0748U, 0x1000544e6ba3a6a1U,
  0xaac4c33a2eaef709U, 0x1d4a2e9f4bc45aadU, 0xd4f3743ee604cf7fU, 0x369219f2050502bbU,
  0xbefd108de132824aU, 0x8ff0e7114cdfa411U, 0x160e04258943e08U, 0x2c44faa39652672dU,
  0xad52cb7f6fd79371U, 0xb2f26d8c1ea99d98U, 0xa08e45dbf4d94721U, 0x686610575dc9082bU,
  0xa4b3aa148bcf18cU, 0x51b381940ed54a48U, 0xc11c9a4f16ffd968U, 0x683ac903b7fc1266U,
  0x5f0867478d4f527cU, 0xf2d7285d752ecf5bU, 0x728babed0a885baaU, 0xdc5d74a901c7d41bU,
  0x318669e841b8f8f7U, 0xeacb592a408519b0U, 0x477f916a0b40b77bU, 0xe5de82c9f077a30fU,
  0xa1ef57fa62d8f20dU, 0x8844efd11ad97fa8U, 0xf221a7253b0c766bU, 0x30ee9940084e6e0dU,
  0xf9ec5baed2854ebbU, 0x42fd5b2511f84503U, 0xe5650d45dfe50aafU, 0xa8c759137f361ba0U,
  0xadd4fdc422ec8809U, 0xa4d65a0d1c7f9f9cU, 0xaf525befc131aa0U, 0xb7e897ccfc586742U,
  0x7f370ec8e4a51a20U, 0xfccff68dfefceb18U, 0xaf8fb9fbb39f28d6U, 0xc4bb1bd8b42631b1U,
  0xc94d46170dd17c91U, 0x3ca6ad67ee058a8eU, 0x733c26ed87e79885U, 0xd281edc1af54f13dU,
  0xb99108e99b7b9197U, 0xe683309f5965c4c2U, 0x28bd33bae260e1d9U, 0x60a398a5415bb28U,
  0x8d18a829a095fc31U, 0x96a4eb4ef8e937fbU, 0xd48fd7d663681c1dU, 0x27723603a10cf70cU,
  0x172d8c72f5b3516dU, 0x32273e6493bf784aU, 0x71d286c04bb87fe1U, 0x2375fa961c27ba89U,
  0x1c11df6a14ece871U, 0x1e11000d2f730c98U, 0xdc465a2510695cbU, 0x7a461ead8db3cc20U,
  0x67a25708d0211107U, 0x6bb82c41fffe57e8U, 0xd364af9f36174341U, 0x66d5297b66c4bbd8U,
  0x7f85febfa7f75500U, 0x23e550e665714110U, 0x69e635beee6U, 0x3e7200000f39U,
  0x13d300000b5aU, 0xfffffb6e00001937U, 0xef2fffffaf7U, 0x14f8ffffee8aU,
  0xffffe2d300004a8eU, 0xffffeeab00000870U, 0x1c07000013a5U, 0x2d1400000fd9U,
  0xffffd167fffff927U, 0xffffdf3dffffb828U, 0x99effffd55dU, 0xfffff1b0ffffd087U,
  0x515e0000024dU, 0xffffdc1400002712U, 0x61951079ffffcb8cU, 0xb075fde5114d9ab7U,
  0xfc004e8e8f7eb91U, 0x2b59b61fb8a78e2eU, 0x22eb3c41d1b7c16eU, 0xf46006e9937d267fU,
  0x757c54c1b03d6c66U, 0x9cda25db0782e739U, 0xb866c8a0757e57b5U, 0x82aa1899559f84e7U,
  0xff3e81893da78d35U, 0x3753432cecbe7620U, 0xacb8cd43776bab25U, 0x3145b57b8bc1c23bU,
  0xc8f09322154aa1eaU, 0x331f4b07b7a7fb3eU, 0xf4c4abb50743c5c6U, 0x5f664498c7bdbd75U,
  0x7a52dd41cc7cd594U, 0x9ad87404e3263d3bU, 0x684daf7feafdba50U, 0x994d9c3a67c24ff6U,
  0x9359307fdc4d9701U, 0x92db3ff92a39bc6bU, 0xf7fafd64d8eb24d8U, 0x692dd3a11d664aeeU,
  0x451025cd9c7f2011U, 0xe671d90a0c4f4018U, 0x1d9460ad8a69b23fU, 0x766674b8cee7ae1eU,
  0xee725b03981e02c5U, 0xf25b2483266d16e7U, 0x69cbc78664e92958U, 0xb056e1d73173bc5dU,
  0xe4ecf4e5106432b5U, 0x29f126e0dda9137fU, 0x7db9946a6e11f866U, 0x744305bf55e4fb30U,
  0xa5cae9d9253323c2U, 0x8e28a05fad84e34U, 0x4cb1a1b850bd72a2U, 0x4e3af72e51a7d1d7U,
  0x7f0e9147c31e22fcU, 0x9cd22698a5f21843U, 0x215d27828ef2b32cU, 0xffb3db72fc5053feU,
  0x2b4d4432500edfd7U, 0xc04c4820a69a0821U, 0x6c5e3b3256220d0cU, 0x50d1bfbc3523f922U,
  0xdf0e583e2c223dbdU, 0xb9d6389313d8faddU, 0x227fa66715c4d269U, 0x1b39d14efe8800bbU,
  0x37cfbfe8ab445f71U, 0x46699443493b8cc3U, 0x3fefe8bb9958506bU, 0xd1b6e2fb393d22e9U,
  0x64a0f9aa309d4c48U, 0xcbb8e0704b5057c8U, 0x6dadeba4dd5a4d02U, 0x677194cda11ec6f7U,
  0x56012b0df47f6476U, 0xc836fbc799196342U, 0x169e355fc79cbfa8U, 0xd4faa1bacdba2a24U,
  0x8520d096e799418cU, 0xb5a2d2304664cbebU, 0x5ee7230a53488bU, 0xf781fca5a71e36c2U,
  0x6b42953f035e872aU, 0x50205890b60fe3a3U, 0xf62cb0dff1f51e55U, 0xc7a4d2460c1d719fU,
  0x8e4901d946b17c8aU, 0x299075db7b44ab8aU, 0x383528ce00137fceU, 0x7b270263133f76afU,
  0x36328604cb434938U, 0x53092cd69c5a2e9dU, 0xb67405f72bf0522dU, 0xabb775bb3786f157U,
  0x280354a69229d7c7U, 0x7f52fc95f54ecbb3U, 0x61ab477940e2b54U, 0x5004ea43e673fe2aU,
  0x52d7f1d9e4c7d54bU, 0xf45ebb340808abecU, 0xf059ca12db19cf3fU, 0x63f9072908db091dU,
  0xef057f48601ac44fU, 0x619d6dfcbe5ccf6aU, 0xf231d4355291ee1aU, 0xa245925cd6c2c990U,
  0x5614663e600fb395U, 0x2d58ef4d652d0ad2U, 0xbac03abc6f98c48aU, 0xb9a6a04d10fb6a0cU,
  0xada08ac34237f29U, 0xdd3566a0541536b8U, 0xd45446320faa5b72U, 0x36b5670218585ee9U,
  0xcdd6dabf3cc16b9fU, 0x848aa09a77672a9fU, 0x143c6965b54da94fU, 0xc1632ffa47a89f78U,
  0xe2c68985d0bc6c1U, 0xe52d743d579907d2U, 0xd0668b347af19c4U, 0x28c227349237f8a8U,
  0xc1c9b7e1bcf03599U, 0x3e5cc4c5163407f9U, 0xcef3e52c7f2aae02U, 0x47b4a213b327c837U,
  0x62c2049bc23d327fU, 0xc01003bdf620bdc5U, 0x1735fb4c9ad06e33U, 0x7f54244896ee5be9U,
  0x9fe91fa0c20058a6U, 0x2ebdd104a9be48daU, 0xa3914270c921fe09U, 0x88e16365ee8fc561U,
  0xee00e669a3588188U, 0x48fc2c21ea421467U, 0x6771be5f38623f04U, 0x94b9bea512610ecbU,
  0x13fb37174a489a75U, 0x91b88e4912e8eb25U, 0xaa46b9bae8f622a2U, 0x86fc2dda0d309206U,
  0xf1c907f947b00d71U, 0xe4a55fdbd2bb3a1bU, 0xad6ff4410a42bf18U, 0x281242ff1026ede6U,
  0x9235f8cdab4bb40aU, 0xc144814f8b7827efU, 0x60fa62cde10edb35U, 0x4babfcf568d8c700U,
  0x5c273da152888f10U, 0xfadc1790db2fbfc2U, 0x8d4bcba7083b2390U, 0xcef1999d1cdf4d05U,
  0xb016adf5d0b6f922U, 0xe6db7f9a97d2ceecU, 0xcda150a8375837eaU, 0x7f1eb1c95d7b4cb9U,
  0xf6b76bf14a9b595fU, 0x63da6b25c1e67bf1U, 0x2069b199c4c00e79U, 0xb2f3de02f51ef4baU,
  0x55e2e9e172aa0df8U, 0xf9844c9daffbc298U, 0xb63b40fd61f6185eU, 0xf0cab3526b8f928fU,
  0x651360bedf0321f6U, 0xb2ed99e7c9df1ecdU, 0x7fda29ef3ed90589U, 0x2e166512ae9b5e25U,
  0xc3ab3d0534b11cd8U, 0xfb22b2a4413afa6U, 0xed99bee4adeeb794U, 0x8613691de2d9588bU,
  0x69d0e46796b2486aU, 0x40e4a22fd7f75cb0U, 0x63c9a0f50deda6bcU, 0x9da7f5389c3f20dbU,
  0x81747232c654e9ddU, 0xb4ef41d30d025a4U, 0x72a1bdec8c72514eU, 0x6c9d0ce585fcfec1U,
  0xf7e85b59242dc86eU, 0xf0d15f25d6bf8779U, 0x6e23da71bb7fcdbaU, 0xb2c76b03d0aec18bU,
  0x47c293c5aa905395U, 0x3dd32611026fa3e9U, 0x9fde49bc9959cd45U, 0x14a7e83774cbde41U,
  0xb59ef8eb716781bbU, 0x963605ba016c0f76U, 0x7359c796f05e7c6cU, 0xee0ad2140ade2ae1U,
  0xaca919c662de0642U, 0x27faa2a7fbab9c5dU, 0xb0868a035851149dU, 0x7f8c4c90ec23101cU,
  0xd5ede48ea262c1d9U, 0xbaefa532ec0ffd14U, 0xe56921b941754abcU, 0x29f091aad4aa0721U,
  0xf35761dc543d0970U, 0xf1ebfb48c2dd5c13U, 0x6e63d29631625a16U, 0x42d2a6ecf12d1613U,
  0x48ef797a18aac2cfU, 0x339d80cf68e3e62U, 0xbecead41be56e6b6U, 0x24e3331c74e6a944U,
  0x405163b38ae05950U, 0x7f15311f9da2cc0cU, 0xba6983032e644f85U, 0xbd638eabc8070788U,
  0x923246a12cc4fa27U, 0x38121d56fc1dc7f8U, 0xddb3497fd667f004U, 0x75dc244f23d5a08U,
  0x2fe01fd7b55fe7f9U, 0x9c53be29a699987U, 0xde69a2619162b394U, 0x3d20e0c3a0814bd7U,
  0x3476d00bf4f0fa54U, 0x34bbf948fbb12a9bU, 0x9d92aad7459448eaU, 0xd1b44f10cca02432U,
  0x35969f176c5618f8U, 0xadb1f9edf72b59efU, 0x718db4ca9c1c5659U, 0x1f001664fd9db910U,
  0x162dbb1f911f7feeU, 0xcd49e044cd3cb73bU, 0x600328b4173c7b8cU, 0x903084ed456a1639U,
  0x3fc900286947ad26U, 0x62c985e3633ceed2U, 0x3089ff8490eaf8e9U, 0x93d6c17f93bd1b4dU,
  0x21e2666f37d7ee30U, 0x71ca080eabc3344aU, 0xc1834d7cc46b660bU, 0x26a3ca0937fe6867U,
  0x349110c5a707a1aaU, 0xa1c646baf647a20aU, 0x93ca1ea03a8f4b02U, 0x6e0766e3e5dddfcaU,
  0xea4eff81ea73a46cU, 0x63b8c5ca6f9950ecU, 0x23838640d899eb8U, 0x23092b4d2ac3475cU,
  0x61224e16a569de4dU, 0x5137459018001ff3U, 0x2c0a68060d8e3fe0U, 0x11f1258674e050e7U,
  0xd84dc679f36d753bU, 0x77309a028355bf4U, 0x9252d5df9c7ff5b4U, 0x94bbb056ed4d4b88U,
  0xc1c9a63a784a5c0bU, 0x7d5c2f04ef5c4d41U, 0x68b7594250f58f9fU, 0x60f185c9b18c81U,
  0x9ba6fa16f495c8caU, 0x5dcce065439c642cU, 0x1d22a42485fbba5aU, 0xdef312b01842dae4U,
  0xa190da0bb3553002U, 0x71482c26675bafd3U, 0xffffe5bad5ecbbc4U, 0xffffe4b600002422U,
  0xffffe5c3ffffbf9eU, 0xffffd2a2fffff3b8U, 0x2898fffff1d4U, 0xfffff811ffffd73fU,
  0xfffff764ffffd3fcU, 0x12fcffffed46U, 0xe21fffff352U, 0xfffff4ce00003255U,
  0x110200002ec6U, 0x41800001b57U, 0xffffdfa200000157U, 0x15cb0000183fU,
  0xc0cfffff89aU, 0xffffc42bffffe90dU, 0xb4017f8500002443U, 0x8e724e4f670bc99bU,
  0x77eca71eade136d3U, 0xda96e804021e1198U, 0xaa99f54afb93c24fU, 0xbf65b21142c47f7aU,
  0x4ce08dd92f479284U, 0x225715af08176ae1U, 0x378b435df85a2af4U, 0x470d530fa55efbd7U,
  0x81c12276581de7ceU, 0x74219e5ce34774eeU, 0xd97536e518e6efd0U, 0x267cc7334e0c891U,
  0x5c177f9838ffa1eaU, 0x372aa5baf85d208fU, 0xb90cfeb699d6f812U, 0xc0cb27ce36161099U,
  0x1d3d6546992a96c5U, 0x35815069d9f9363cU, 0xa658ebd4687105d2U, 0x8fad4a05587f740eU,
  0xcf0de03051d43fa9U, 0xec73c4a6f76da766U, 0xdaaecafcced77dafU, 0xc4037f4d32363909U,
  0x3192e3b9e156e226U, 0x43a993f7354cced1U, 0xa4bf7022a3223fe2U, 0xebd2c54a27e25fb5U,
  0xfcfe816a39d1396eU, 0xd9e1271c19949ec5U, 0x9e6e4bc5cc3c3be3U, 0x81e01dbf2f13fdf7U,
  0x4f4fdc497084e7aaU, 0x7b0c1bbd399fed02U, 0x3e7e1058eea2b86fU, 0x2435a19942b8157U,
  0xd4a359670cea4a00U, 0xc47ccf598203c893U, 0xf41a31d1191e134dU, 0x64da8e4efd72a225U,
  0x2b65b8816f396d90U, 0xaba10f3f0d735aa6U, 0x27f736f0f724974U, 0xb66bb77e7cddf821U,
  0x56050905145dc7c8U, 0xdbc0a38ef90be82dU, 0x2b8ce3ad3f8749f7U, 0xb65d37e85cf70fc0U,
  0x607fcd39ba246bc3U, 0xc7b1071b9d924e4aU, 0x6c0616112b01ac98U, 0xba9d04f467d115e1U,
  0x1cd06256ee5a5bU, 0x8b9cf981cbe1b811U, 0xaf6edbfbb5b4d7deU, 0xa156e81025dd7750U,
  0x3182ea222b4b081U, 0x9b5539aee520cfc8U, 0xca51033112be32f8U, 0xf12b2eafa30c1fd7U,
  0xd944914ac6a6392eU, 0x1c9c1637b52b5aefU, 0x7f0e0491814eb131U, 0xb537861705b5eb4dU,
  0xe86fbb9f622e9a79U, 0xd52c0301edda26d2U, 0x5e9132170f103e16U, 0x5d75bc2177026932U,
  0x5d83dbe5146a3902U, 0x49d674b5f4a4ec55U, 0x7f0b7b191d812b19U, 0x898994facd2a083aU,
  0x192d44f0e524e942U, 0xa03cc7d4cf5577ddU, 0x4edea0c259d81271U, 0xfe5c816d5a7d34fbU,
  0x1fcac6409b448e5cU, 0x2ba4557bb2ad9725U, 0xf261b804b26a18b9U, 0xa8a7104821622024U,
  0x31668f43a7e40a52U, 0xb7aecada95d11c6aU, 0x5a314964eb81da52U, 0xa61153d3dd192193U,
  0x47239781a9fc2ddbU, 0xf83e536567c3acbeU, 0xda99d9c2fc27006fU, 0xf3377f8ba2749111U,
  0x8cd6a010ea751860U, 0x6c978ffb2f594d12U, 0x7379766bf98430bcU, 0x39764fd560a1045eU,
  0x70d377ee5e5320fcU, 0xdaed7f6763ce5407U, 0x4462831da6daa3b7U, 0xc2dd9c7fe4bcb0dbU,
  0xc36b0329b3cbeaebU, 0xb158d30eaec6d3e3U, 0xc8fdc43669a7114fU, 0xff385b90c74b39dfU,
  0x74af0d4e78126cbU, 0x31edd68c0cf496bfU, 0xae90fe9023925edaU, 0xb6cd38d059303febU,
  0x8fdab9d90a7f08dbU, 0xb2a362d9c750c4f3U, 0x5653676efe0d65c2U, 0x8cfff12f39cdd134U,
  0x14903702d1ab9ca8U, 0x72d8cbd44a458164U, 0x8cf5486a6fd3df16U, 0xfc7a9c07e25e99d1U,
  0x96dd776f2dd0f5fbU, 0x3cfcb593815fa220U, 0x6bca47b13aabc17dU, 0xcfb1f16325e5e91bU,
  0x14c3d64c4b818d01U, 0x84a0619ccbb48a55U, 0xafa6d2bf268eb956U, 0xccc1a23630200d09U,
  0x2c27ca5acc02eda8U, 0x4e377f68f33c5120U, 0xce1857c21cdd0d47U, 0xe921aaa0fe4a2c3fU,
  0xb36d342e70e20652U, 0x39941cec6cad407cU, 0x134bff281881U, 0xffffe63efffff93aU,
  0xfffff8effffffd9cU, 0x305fffff840U, 0x53a000009f9U, 0xffffded2ffffe79cU,
  0x92cffffea27U, 0xe85000015d1U, 0xfffffb550000069fU, 0xffffeb93ffffde0fU,
  0x9b3fffffb21U, 0x112efffff1edU, 0x17b3ffffbbabU, 0x1d39000019f5U,
  0x74ffffff9dcU, 0xfffff2d30000240fU, 0x18193fc4ffffe8d1U, 0x1f5ae4eb7ff19293U,
  0x7a7f6756ae8d2364U, 0xdfcdfce0246e3328U, 0xd097d38d6491622U, 0xef6881a1b85523d3U,
  0x357649ed051b817fU, 0x4061201402810fc3U, 0xc0ed321f6013a1fdU, 0x3c7f077fb4d60164U,
  0x9fd9eeea81a28835U, 0xcd91ec8aeda28981U, 0x81ade4ffed1ec2e7U, 0x44cc61a914811af2U,
  0x7fd0116d2e4181dfU, 0xb68d8145bd6e8167U, 0x2900818181bc79b1U, 0x502802b3ad5bfa7bU,
  0x9148bb36d5c19f36U, 0x67cdd184174d3da3U, 0x9a8193164aea73e4U, 0x8d653d5836c7f7fU,
  0xe4eb56813c8bd60fU, 0xad7fb27876e49fb8U, 0x8ff950232f81e18aU, 0x8185674a718b1c0aU,
  0x2e4fdaaa22fb3523U, 0x81e392aba9e45f52U, 0xb7c2cce406bfd22cU, 0x92bc946501e5c2a6U,
  0x4f9d813d1c813ca0U, 0xdfb6f8817feb3808U, 0xfb64684545388199U, 0x2e9e59137dca2ccbU,
  0x36878f7ca25a14e3U, 0x5b54e7da2a8ea1fcU, 0x8a94bdbf7fU, 0x852fffffc23U,
  0xfffffc2a000018adU, 0x557fffffafdU, 0x12100000082U, 0xc4fffffa17U,
  0xfffff481fffffe56U, 0x13b6000010faU, 0xfffff5c7000007a8U, 0xfffffc340000059aU,
  0x652fffff2a9U, 0x6db00000856U, 0x134efffff60dU, 0x7150000135fU,
  0x8da000006bbU, 0x936000008faU, 0x97e22035ffffff8dU, 0x1396fd81c3d899d4U,
  0x8fee9db4dad1e2ecU, 0xb5cb0161412cbca6U, 0xfa664fbd58db2f4cU, 0xa9ef5859b364b2b4U,
  0xa26441197353a4eeU, 0x6a81ddc1378d30aeU, 0xc4624534c7808a5U, 0x8b452c8b62814b07U,
  0xb8c994a10e36e92fU, 0xef264bc47f77ff10U, 0x36b8f103c1d4233eU, 0xebc1604687e6d167U,
  0x8186e6c169349620U, 0x9e5ed1a08bacc4d8U, 0x97c1e9c51d9d396fU, 0x81638a501673d776U,
  0x67135db6aa69d8eU, 0x7d1fdcbff102b226U, 0xf45486b63700f1a1U, 0xc1d569f369299ae5U,
  0xa5f600d26ecc1fc6U, 0xfaf355d07f299352U, 0x78b65964086aacdU, 0x54193d0bb2c67fb7U,
  0x58093b9e4ca2fad6U, 0xfab23eda29c8e3c4U, 0x161ae95add375374U, 0x63980c6fd48149d5U,
  0xb0b76e5ef6e84a0fU, 0xc4abeeb7ab5e08d9U, 0x883515e96c4d0008U, 0xa66fd22426c555edU,
  0x31432a90d569a581U, 0xdf051357c8323037U, 0xebef87ad3c1528e0U, 0x8a14ed1ba48c8191U,
  0x926813fcbe1f3910U, 0x707057463e1d4e6fU, 0xc4958142c7103619U, 0xff755a1196a500a8U,
  0x5f977408ea34a5a3U, 0x102ba7653177cba1U, 0xd8bc22b09a1a361fU, 0xa4813655689fd0efU,
  0x1fc8a79644baad44U, 0xb2cab20c160462b3U, 0x42c9928619472d8aU, 0xf6f03bf9b9790bedU,
  0x89cff73baa147f5dU, 0x5e93744e908dcb5aU, 0x95c83281d51ce6e1U, 0xf7ddb3e8d5dadbc7U,
  0x2c5ec249b9c3484cU, 0x8f7b89720828cb2U, 0x2a91a7f2cdfacb5U, 0xb6898ba3151570bfU,
  0x68050706d644f9afU, 0x170edfc353e4ed94U, 0xea02419c1feff9f4U, 0xa44a3df1137f6b3cU,
  0x50b72e26c0ed0b39U, 0xbeb6713eed155252U, 0xdc7351e64bf54dbaU, 0x1bae52459f340181U,
  0x9a54e425bd8bf726U, 0x17e674740759da5bU, 0xd6d38a0ab8b329b4U, 0x764c596583aec1f0U,
  0x225d8d4c36cd244fU, 0x767056c0a70e99cU, 0x4781ba7b906fc17fU, 0x2d4f6544761ab09aU,
  0xefbd1da61811fae3U, 0xe1c0978b11cdede3U, 0xf33c2cadc396a2f8U, 0x3c8a038149363823U,
  0x379bcddf5d3f4638U, 0xc4ab5e4e26a71c8eU, 0x82c48ea8db105b54U, 0xb4bd0de436cd6223U,
  0xe174b816aa6430fU, 0x3d4bd8cdd933765U, 0x28e489453313b913U, 0x520c29e544bde0c9U,
  0x7fc39d74eaf82b8bU, 0xa4b4ab0db988ae1eU, 0x34a29ac328c3cbdeU, 0x51ad2f92e25cf004U,
  0x90be15a534352ea7U, 0xfe7f52c0d1585828U, 0xff5ae015dfeb31ddU, 0xd6d881e930c2a073U,
  0x9574c9bbe6691444U, 0x5a274d8fe8644a5U, 0x3f814a7baf300e22U, 0x1fb6dc087931201aU,
  0x6b58279e0a4cb289U, 0x59aa1004d31c02b6U, 0xc21a7e49264a1b57U, 0x2ff44bf8631d105dU,
  0x52d065625baaa17fU, 0xba81a94c269a3431U, 0xd47de73aa164ec9U, 0xd896c2bd51ef22e1U,
  0xb343d3285e897f7fU, 0xf1e8c157272759c4U, 0x917f8952da9e3063U, 0xf1616ba20ab18a7eU,
  0x2d701b1ec8b75e68U, 0x8247d32e19941ed7U, 0xb73e52e9fd100d17U, 0x288b4b85bcf37ff7U,
  0xc6de81e214b24a76U, 0xaf1c1093519e727aU, 0x52641656ecc83c33U, 0xcb87025309bc3bc1U,
  0x7f573003ffd327f6U, 0x42a6687a27fae858U, 0x61b62057ffe514d1U, 0x2011022c3dc9777bU,
  0x9dd4c71123c3ea5U, 0x1c064db687812fbaU, 0x7f5ac05a0074819cU, 0x430f259352b61e0aU,
  0xc3dda26e0bf49837U, 0xaea35825cee44baaU, 0x3a664886fb15U, 0xfffff5acfffffa97U,
  0x16b200002efdU, 0xb1000013bcU, 0xfffff900fffff69bU, 0xd82fffffd41U,
  0xbec0000301eU, 0x14b700004779U, 0xfffff6eeffffd4bbU, 0x2b2effffe248U,
  0x2baaffffeb2aU, 0x7cc00002839U, 0xffffdc77000010e0U, 0xffffe97cffffd9baU,
  0x657fffff25bU, 0xffffe8b4ffffce27U, 0x8b6df8e3fffffe7bU, 0xdb0b5a0f6b63fc5U,
  0xd7f9659ecb4a2d3U, 0x160ba75ca9c45513U, 0x54b012ecce61f6ddU, 0xd1a8d0c6d256016cU,
  0x517fc102eff00f67U, 0x923f5f2409953e72U, 0xa9be1f477e63ceebU, 0x6d7fd58c0ddc6fe7U,
  0x6de2ca8966634954U, 0xfa8adab721316045U, 0x9e7f01c68a1badd0U, 0xfc545aa9cd3fef99U,
  0xa64110503ab6c75eU, 0x4fe7b07cba486dfcU, 0xc7ba9fe5afa87665U, 0x62c3fece15b5ba9aU,
  0x89e6b74a12f03f68U, 0x142ce9af27819062U, 0xfa3dda4505fba725U, 0x6f845dc42aaa5c77U,
  0xcc17e8d86ec2e993U, 0x227f1ad30a78a5c2U, 0xa95fc2b985b67859U, 0xa9124aabdc865e3cU,
  0xd43b815851300efU, 0x779fafaedb388ed1U, 0xeb8d0fc990b40481U, 0xd65ae0924f33345cU,
  0x127ff52e3a0815e3U, 0xbd8b40f93a464981U, 0x3ca8420a141ad438U, 0x179424a22c6b36bU,
  0xabc10a819d1e8bc8U, 0x2a45122668458954U, 0xc2122845d7b05e71U, 0xccc728ef2125cebdU,
  0x5b1affd82b3eeb5bU, 0xf8440cc35a5077fU, 0x98bdee2891d55f94U, 0xce3695798c765810U,
  0xeccb6043b125e25bU, 0x1681e5745c0aa642U, 0x36127e6715feda3eU, 0x3acd62d62167d8b8U,
  0xc0153df833632681U, 0x1396dfea73102da9U, 0x2e3f7c562a82a7a4U, 0x7d18122c3c6b595bU,
  0xf843e03794cf7de1U, 0xb9fd7f1491725a3aU, 0xacbdcc32575adffaU, 0xdce0df7097ff43e3U,
  0xcd03811f6b6ad745U, 0xa6a929e2a23c7ea6U, 0xf3d0c96b0223b95eU, 0xdcad996df4c85919U,
  0xc0ea2db9e2a6c229U, 0xa86c81f0177afc84U, 0x12bff5b9fa99ea91U, 0x58f1590f32278b7fU,
  0xa5227361aa5fca19U, 0xaa9c1bb99b3f95f8U, 0x675d75c7bd897222U, 0xba7cd5ad64c39f02U,
  0x244846e89bc6ce44U, 0x6d18d308776281a1U, 0x2db1578184abb407U, 0xd90950e8fa3eaaeU,
  0x8664c723a71325a8U, 0xeea1c23c2d32936cU, 0xae4ab3cbffa8025bU, 0xb44852b68d9d9f3bU,
  0x522a684336172909U, 0xb44c07f4faa360dcU, 0x68875029e38d4881U, 0x85e6d19317ea9e8bU,
  0x16c138727facf5eeU, 0x3d7a067ea0d1f23bU, 0x364fa576bfea1e2fU, 0xba383ad9814ca0baU,
  0xeb349c43f4bf005dU, 0x6d836a957e2dde1fU, 0x86a6dc30bcaccee8U, 0x8f907320c1485849U,
  0x7f77d6bd3d0a9bf8U, 0x54a74feeae509cfU, 0xc39fea67d227b8c4U, 0xf3398a39259e1a8fU,
  0x83f42dbf9ac0c10U, 0x1b900ebf1581aebdU, 0xfd44af44b55e3730U, 0xd99def40b0b777cdU,
  0xe0980671e3d59577U, 0x475ae2c0d292087U, 0x2640aa8253fb827fU, 0x584e0eec4756e4ebU,
  0x76a48e4c5cb1c81U, 0x45f7e052f43cbf32U, 0x3b270fa9d9c7f399U, 0x745c77abfd4ee7fU,
  0x40de3d239556fe89U, 0x19280dab9a1ffc8bU, 0x2c75090cd98e688U, 0x28158fa161cec3eU,
  0xb929353daf35d320U, 0x6eb248a16c7d201dU, 0x81947ecdfb69956bU, 0xa4b48af83dce7bd5U,
  0x9018d1d27692b80dU, 0x1337422aca89450cU, 0x618eb023ec086454U, 0x3c1c6a235f794448U,
  0x517fd0f2ff5a4953U, 0xedf368c36267002aU, 0x50125ba98e3892fbU, 0xb85c8adc42f6d24eU,
  0x989ca5fab80a7f26U, 0xd59554e17301058cU, 0x975d4f9d4ee1ea56U, 0x579a94a5f40b6a1fU,
  0x987fb274b72aa201U, 0xa9d10a5aa133fc5bU, 0x1a38dadd4d72fcd8U, 0x55a5ec19330ed3dbU,
  0xcca49cecddd1c36aU, 0x3cf0a0ed59b4b8f0U, 0x36acd7cb813cU, 0xfffff430ffffce9bU,
  0x4c64ffffe140U, 0x61d4ffffe960U, 0xffffe810ffffe30cU, 0xffffe902fffffedaU,
  0xffff76a7ffffee5eU, 0x45b9000018dfU, 0x24900000c77U, 0x182600005254U,
  0xb4900000ac9U, 0x325f0000046dU, 0xfffff6b800000bd4U, 0xffffd06200002284U,
  0xffff91f70000255cU, 0x43b00000e5fU, 0xb47769000043d4U, 0xe332f2a4fad0e376U,
  0x939db32d522c6552U, 0x44946e13390881feU, 0xcc2f83a40403afe0U, 0xcf7f6b1d8167dd63U,
  0x810a01437164b281U, 0x928bc950d1b94a0fU, 0xf817a2328c77f3eU, 0x81355bfab5ac1511U,
  0xa91beea0675103baU, 0xb2dc2c47eb81528dU, 0x16837d2ff23ad3fbU, 0xa88d81a4de29dd81U,
  0x4fdd66f7fa81f5b2U, 0xe366e8824b4b8162U, 0x812a5d08b481d29dU, 0xab1698b42745d961U,
  0xf7ba01e9fe236321U, 0x817fb14d7f4a7a08U, 0x6f36ffb3e9dfcd24U, 0xb4473d6efd2d753aU,
  0xda6c9b491b85fe58U, 0x9c43c79519610437U, 0xb632817f4dbb6c49U, 0x51c109beba7fd244U,
  0x6f7f81b3b3657fc1U, 0x64487f7f60c2b47eU, 0xfb49986c81068503U, 0xf8201d81a69a7f3fU,
  0x15e2d74833c347c9U, 0xb302c7dbc83a1e7fU, 0x6ca6002a4629b478U, 0x67d4fcb40fd560c8U,
  0xa8aae28181d20885U, 0xaec9ae123dbdcb30U, 0xffffed2f81d0fa81U, 0xa34fffff910U,
  0xffffe8aaffffff67U, 0xfffff80dfffff455U, 0x1b9200001441U, 0xfffff77afffffd93U,
  0x125f000011d4U, 0xffffffdaffffec01U, 0x54dfffff580U, 0x3e400001365U,
  0xffffe78300001177U, 0x131000001e9U, 0xfffff91cffffeb1eU, 0xfffffb4c00000508U,
  0xfffffdd900001d03U, 0x103e00000cb0U, 0x991458aa00000c4aU, 0x2fbacef11fe0419dU,
  0x40bc62cbb362d2ccU, 0x8fa7e5cde2de777fU, 0xb939a3ac4e2782fU, 0x98f32c6dea9313dU,
  0x203d59557fd12aa3U, 0xf3d48ff768e0c295U, 0x5819aaa88ba02f76U, 0xd5479468dba6a1abU,
  0x67d102cec77e935dU, 0xf93088e03c7cfe1bU, 0x4d5ac6457f151d54U, 0x63892d44e90398f9U,
  0xd41f8163e43d9748U, 0x9fff362f51bbe3d3U, 0x2a3e6d1c1bc2deaU, 0x97560a9e1de8008aU,
  0x1527089f81595c64U, 0xd3002c3b8c7375b8U, 0xd22bdcc84767993bU, 0x12ed5e9c111798e7U,
  0x6f25f8f77534a66cU, 0x81c8510bb159dc4cU, 0x3aa83a1d501698d0U, 0xc2585a434d8b337fU,
  0xab5d1c1c43fe81e2U, 0x2f4afdc7379d7997U, 0x1a3b62a7e9164a8fU, 0x9389c4b89a2d692aU,
  0x4287cbbf8246fe9fU, 0xf348cbf17f6c87f1U, 0xb0b7815068b5fb61U, 0xafd493911e9fe56eU,
  0x872f370f1f216b90U, 0xa9997bae88a1ec8U, 0xbb830225cc55615bU, 0xe561d35110ccc458U,
  0x881cad3f7fc21d2fU, 0x4471db3e01a3372aU, 0x2c2a613f0aa1d611U, 0xec44b0eaeed0fea2U,
  0x989a2ecadecd1078U, 0x32a177a3867f19b4U, 0x8a81313ff5a46a44U, 0x58d47cedfcd05cc2U,
  0xc7ffea14f97e5544U, 0x8768be2ddab18dc9U, 0xe3ade35eddad2d6bU, 0x79d52d061f447f07U,
  0xcc2e9ecc248f1b38U, 0x7567c4e96a8c659aU, 0xeafe5b448f0b0bceU, 0x7ff0fba9aa5d12baU,
  0x4cac561ff1e35825U, 0x9a9a0d845c5dac9U, 0x89f850ada98eb3adU, 0x86710a2d41064dfdU,
  0x61fdd13516812d62U, 0x111da0e8c8b609f2U, 0x951cd068d5411e41U, 0x94bfba7f59a7b554U,
  0x3956c5530ab4c501U, 0x500e00d4b024c826U, 0x27bf7b44408adc7fU, 0xa6b638f0b2ee13bbU,
  0xcb87427432a94781U, 0x858cf1c1597a4eb6U, 0x235fb26d9b2a9874U, 0x3544392ede4481caU,
  0x1d3d4ec056c5f21bU, 0xe66fafe7be195399U, 0x3f6e3f5078f0a866U, 0x15c524f95fcb0451U,
  0x354888592c994bfU, 0x5f6f745881f95358U, 0x63592064eb9debbbU, 0x8cc9b266449bbe4bU,
  0x553f20990681e8abU, 0x441fbb2a2eb8cf98U, 0xa5b5282e5b0ea63dU, 0xca22f7dab0b4a4b7U,
  0xcff46334e4ce2e5fU, 0x3ece81f96e922752U, 0xc5c49e4cf93af721U, 0x11785bb534c1ff69U,
  0xc5cb7099a4493eebU, 0xbd122a6d21816ba8U, 0x42bb5de7b65be585U, 0x45c404ac2aa771dcU,
  0xc654609ce17fbc9cU, 0x3920f8b3b65722c2U, 0x55a56a6f141e151fU, 0x493ceab20370038U,
  0x82c94e271af697d3U, 0xde62ca1b62cce6eaU, 0x961da260ee81b2c8U, 0xafebad8fcfc9a507U,
  0x50698106b965b041U, 0x97781e716c251e05U, 0x84e3f2a79ebdc00U, 0x21871d7f964e81f1U,
  0xaed6b6a30333044cU, 0xc0acc8e60815296aU, 0x8e1d5e9c07eb454aU, 0xc2787003118859b7U,
  0x883eed33c64363e5U, 0x81632fb1af6d74a6U, 0x4515ac45ebdc6624U, 0x6c3b25642484da61U,
  0x9c6a574744138167U, 0xd0e6a19ae0b205f9U, 0xea89ab17bf19ee02U, 0xdf39bb0bfccb9606U,
  0x4f243be79f0c26dfU, 0xd81a6f283cd0552U, 0x6beacff44e628f30U, 0xbe44094539c44fa2U,
  0xd779c9f18a0cf69cU, 0xa45c00816636be34U, 0x87b986c2bcfd2c2aU, 0xcf444f2a17a4e78fU,
  0x32a74378cb25097fU, 0x84382c3f41f55df6U, 0xfbd1a4f37226c71fU, 0xcb61897f223cf93eU,
  0x50b21b27edffdf1aU, 0xdf262b2fbc2af00U, 0x13b512b6ba0dU, 0xfffffa5c00001b2dU,
  0x6fd00000506U, 0xffffe531fffff831U, 0x395200001927U, 0xd6dfffffa03U,
  0xfffffa0700000a2bU, 0xfffff82100001ce7U, 0x208f00000069U, 0xfffff408ffffdcddU,
  0x1264000001c3U, 0xfffffe23000008bdU, 0x55200001f4fU, 0xfffffa02fffffac0U,
  0x291dfffff330U, 0xfffff55000000e4cU, 0x73a2cdc500000841U, 0x21c833451cd98159U,
  0x68031ec958b1921dU, 0x46060550fcec9b8dU, 0x405bc06a69f48e36U, 0xd65fecc950b59c7fU,
  0x466e70cbfccff22eU, 0x4cec71a10af4beb6U, 0x9d5a470c106b08d1U, 0x7bbe4cef42450225U,
  0x4e40aeaed07fae7aU, 0x6ea83b54bf2dd689U, 0x1ce58fc71e0c7011U, 0xd6f5c12914aa7f05U,
  0xdda12ee8d9f2dc4eU, 0xb718af751b918ad1U, 0x36661098d4ba7250U, 0xc15443b6e66f770dU,
  0xde3457f15f0aadfU, 0x4e67b4c9f8aea7c3U, 0x2e162eb91583653bU, 0xf87a29afc9c8891bU,
  0x2af75966eb813a14U, 0x1ff12181e95e37a2U, 0x952e81421c06fb66U, 0x40bb12c1e8419f93U,
  0xbae8bb52da44e9f4U, 0x443dbe29949cdeeU, 0xc048b55c3d39b3e1U, 0x621fb3730bde282dU,
  0x407ffe6b15af0f04U, 0x49724caa944a8cf2U, 0x70fca5c6bfa8e03U, 0x145a133e967f3422U,
  0xa15c31e38a6480bU, 0xe18379a5ee4cd520U, 0xecf133104d852a9dU, 0x1ef94859186e98d5U,
  0x4bac81a3a55aa310U, 0x2d09261972e4d659U, 0x44322660eb4e8db3U, 0x3781b1461d6e840dU,
  0x361c2a04d916fd74U, 0xdda6fa4c35783fadU, 0xeab20bb35376bb23U, 0x816ef9755cf58bd0U,
  0xe71da3f4a63b7163U, 0xb998461eca252e0bU, 0x2f12f32a66a037e4U, 0x5f628808f9639b95U,
  0xf8aa8da629476096U, 0x25b4e07f27ebc990U, 0xf57f7f55356e7cfbU, 0x9b5fcca843caaff1U,
  0xbb1bae78344d956fU, 0xc30ca54a40700b49U, 0x1581db4784f40216U, 0x17ee5893d9a0ebaeU,
  0x6345bd9f6b1ca6bU, 0x9731378f1ad03e60U, 0xa77f2762983dec3fU, 0x52a5c343519d8802U,
  0x47089fb2e96a1585U, 0xc3fbbddb9bd50903U, 0x1e55a3cbdec6b363U, 0x69f9fc18cc984cdfU,
  0x46d6e392c87fb5c9U, 0xefbf9158c52ad132U, 0x23492eeae582b861U, 0x56481281a63c70ceU,
  0x11a15c53da044585U, 0x9c722c2e98f95f18U, 0xe77c9920422ab5ceU, 0x4423b50849524b3eU,
  0x88f584772bd1ff61U, 0x890c69a3c1045ee4U, 0xfe51277d9557de7fU, 0xd6a6c33fb1c8b0a2U,
  0xb74c0b52b2223ab3U, 0xaae9cbb127578355U, 0x31395c81810fe4efU, 0x784bc56feb36cec0U,
  0x9cd969c1d48c9495U, 0xac41cedf74a030efU, 0xa9f8c9363c434e4fU, 0x47c8a6ae2d66692cU,
  0x5ccb36ae986e5412U, 0x59bef1556a10f3ceU, 0x956555351f817d38U, 0x2a9d38519eb3f3f0U,
  0xb48e2fcba5361493U, 0x81459360946eb9a3U, 0x9fbc22666c602ab8U, 0x4dfccd1ff1dfdf29U,
  0xd21d4c683481c019U, 0xab3b04ce8b0dc400U, 0x140251296d85b698U, 0x6f8e472122439fd9U,
  0x8153c36d67594e3aU, 0x185a06f51deecaf7U, 0x54820bf981c7a26U, 0x3a051b3ff2adddU,
  0xb7e2656ea5c97db3U, 0x547f57f85bdee61fU, 0xb5766afc59fa79b5U, 0xcd7fb8446e463894U,
  0xdf81a521f296e527U, 0x5ffb4529887ea94dU, 0x2d9b4df3c82360eeU, 0x6cc904038aeea7c5U,
  0x130c2f4ef19b605U, 0x3cec5a7614566d9bU, 0xbccdc4f0afc37fc9U, 0xcabb16f34a4ca738U,
  0xe548248dcc6923ecU, 0x9985977f651619ddU, 0xc33499d32e0a514fU, 0xc4de2539b9cb660bU,
  0x713af56ff4570259U, 0x426aa979659a7ff9U, 0x2d390998d3542b3dU, 0x46050a8170f856acU,
  0xab320b14dcd25088U, 0x9cb96608fceba609U, 0x55ae81762304bff3U, 0xc91b682743229c46U,
  0x21f118550caec757U, 0x9a4268e05efa867bU, 0x884799e4a82U, 0xffffa9a1ffffbf13U,
  0xffffe25200004411U, 0x484bffffea4dU, 0xffffe0e1ffffb917U, 0xffff9d59fffffe6aU,
  0xfffff6a700000806U, 0x217fffffd3f2U, 0x3f1a000040fcU, 0xffffd967ffffd54bU,
  0xfffffe5a0000437fU, 0x37b4ffffc562U, 0xffff9e3c000039f5U, 0xffffdb96ffffb207U,
  0xf000000111U, 0x27b2ffff96fbU, 0x9f761c5bffffcc96U, 0x466e848573f3deaeU,
  0xb0bb137fd5f4a99dU, 0xd33a2c6b81817683U, 0x81bb382ad1bc2c7fU, 0xfe5cdc7a87ba7ef7U,
  0x5ee0fc24a27fd43cU, 0x3d0cd13cca50dc57U, 0xd1e48269bffebd15U, 0x58c771302742dc73U,
  0xebdad916b6b3f881U, 0x1ca571be1cba1108U, 0xa467f7ff3f637f1U, 0x7f247f5c38f748b4U,
  0x406c93e5a47aea00U, 0x47afdd3b2ec67172U, 0xa226566f06430c64U, 0xf3af758f08512dabU,
  0xa95846a0abb49f28U, 0xbd2b7f90f391f4b5U, 0x4d90a3f2e4baacbcU, 0xe563af2be42681e4U,
  0x8fddeef34da681ceU, 0x7f81ee7f25b3a581U, 0xb01cc20cb081cbd0U, 0x857186477874ff5U,
  0x86c5c7c90c0296e3U, 0x3efef35b0b217fdcU, 0x87faa8a41197f22U, 0x51a9fbf27d245d1aU,
  0xf88e8a3c9677b1d6U, 0xc827cc7030214ea7U, 0xc74c477b816f0db1U, 0xcd7fa97f81811981U,
  0x818181f57fe56a93U, 0xfec467af953af175U, 0xffffddac0c173decU, 0xfffff07fffffff33U,
  0x143700001e56U, 0x85affffee1eU, 0xffffec19fffff470U, 0xffffe81efffffc2eU,
  0x175fffffebbaU, 0xfffff9fa000020c9U, 0xfffffbd60000150aU, 0x145e00001992U,
  0x82400001ee3U, 0x10dfffffed0dU, 0xffffed73000009ddU, 0xf6ffffff08cU,
  0xfffffc4ffffff3b4U, 0x3dafffff8a7U, 0x234eabb4000014d4U, 0xf28ce9850a766665U,
  0xdbbed6775814a5d4U, 0xf4ec8598816f0b72U, 0x81830c1d6755327dU, 0xc073de2fd4968ea0U,
  0x962150c0953be830U, 0x4c22fc1b46a10bfU, 0x1958130f6eda43d4U, 0x40ec7fcb1d12ffa9U,
  0x9e5cbc61eb57190cU, 0x44b07ed0f7fa2ae2U, 0xdce4251d9104069eU, 0x81db72851e3bc89dU,
  0xf927bf1f2c68ab01U, 0x31038199ebda93bfU, 0xa186d7a77f20e95dU, 0xe24be07038623fbeU,
  0xfbede58836f681ddU, 0xa3b1fe9a62b9d0f7U, 0xc0f108e9160d3e6U, 0xba7b717ee0eace1U,
  0x154c1e81b0c8aee6U, 0x33ef3c4877292b09U, 0x3f98851a03c21597U, 0x7fdc8fde22d728fcU,
  0xfe4c10ab646616d7U, 0xba4c23f5b3ad1cdaU, 0xd4e447096d4ed92dU, 0x24fbfbce24405ee5U,
  0x9a35257f3455b31bU, 0xcfb331f3e350694bU, 0x621931cd9f903b4U, 0xeb10f8d15d5fdcf7U,
  0x210d926c7c5e10fU, 0xf90863292f01987eU, 0x53a5afe89f814989U, 0xd4bc52884d8cb32eU,
  0x598dbb37eae6afb6U, 0x48ba98ef56811356U, 0x1f9810eac6e4774bU, 0xf1188e956b93ffc9U,
  0x3d46ddaa3db340a5U, 0x6865764cab018af0U, 0x583c4d57399f0281U, 0xc526a47ff48b942eU,
  0x2ed0e34d5bbb4cdcU, 0xc6e28b59698e2ea8U, 0x84d36c68923107b2U, 0xe8ee8f18ee24465aU,
  0x64813303e2590d36U, 0x487a624e36040444U, 0x1c10bd2ce84bdd2cU, 0x87bcce0040403dfbU,
  0xfbb042cc3d0b18b3U, 0x967f9c3faf0eb831U, 0xb3af8af15dc5c720U, 0xd0e96e846ab5b09dU,
  0xc7820e9ad22518d3U, 0xd40c348edc3c72d1U, 0xb859047ff373815fU, 0x34c80b21274fee90U,
  0xcb65be3a2169659dU, 0x13de7b2eaea9b2ffU, 0xcd6a697c953a5ab7U, 0x583ef5f1b50861b3U,
  0x9eafd6907fcfa3d2U, 0xb47d5dc12aba9832U, 0x34012be1e545b8c4U, 0x765b31ece16e4595U,
  0xb2a1a30c75e24bb9U, 0x9c3cba813a3c2b6dU, 0xc9455181c5bdfa66U, 0x2710125638ffea6aU,
  0x243346b2a01e30f9U, 0xf7e8bc708fb76e6dU, 0x3bf67ebfe1322195U, 0x6c48a8810dfc71dcU,
  0x9c26ee562fd905d4U, 0x1ed0d21f3aabe366U, 0x6d037fcec65d2cadU, 0x3aad64941428b814U,
  0xef9d00dcb7134697U, 0x8a9705c2047982e8U, 0x83a8ae14b010fe8bU, 0xfababa2b143e5f66U,
  0x977f591b95970629U, 0x8a6b139af5507ebeU, 0xc79e7aaa2fc8de31U, 0x10fce5c255563f14U,
  0x78019c9ee835c5f2U, 0x13b62f656c1ff20aU, 0xc032c4be22b77f5dU, 0x8cec11094c95298dU,
  0x31818e111fb8a63fU, 0xdba5f506e4c82fc9U, 0xb69125c449931134U, 0x9200f054f2b1935fU,
  0xc0ed307f7249ce0dU, 0x76ee18d4e075e20U, 0x8c949a810193f574U, 0x6193e7285cdb2f45U,
  0xd2d6c05fc108973fU, 0x3d6bce6953ae3d67U, 0x8b5357ff4f0a5e0U, 0xa0a6e1a8d9f9bdb5U,
  0x74b278f1ad71e31fU, 0x535c6d8c48983075U, 0xb7889370a1e47bf8U, 0x7744e17e31e5a1d9U,
  0x7f66a536a2f9cc9fU, 0x1c3714c05bfb156eU, 0x9675403c95684963U, 0x176a7f32953d7993U,
  0x689c304c89068696U, 0x72afd7cd1dee088eU, 0xe3a264a8c638b5afU, 0xf7f88b13578cbf53U,
  0x7aeb95bedc058192U, 0x625e97e6d0c828c6U, 0xbfc35010b8229949U, 0x974bf420b9c8a9f8U,
  0xf18ac8d1128bd6d2U, 0xa6e5a9ec42a57e03U, 0x5430fb7c579c7f32U, 0xe2983d7fc1695722U,
  0x3f9bcdf9d14c49e2U, 0x246dd27301e81432U, 0xffffec44a10e02c2U, 0xffffe83a00004c10U,
  0x5b6d00002cdfU, 0xfffff00a000024cbU, 0xe6cffffd73fU, 0x2c4400003b3aU,
  0xffffa20a00000685U, 0x5d41000015bcU, 0xf81ffffe97eU, 0xffffe554ffffeae7U,
  0x40b8fffff552U, 0xffffd4c100000cacU, 0xfffffcbc00005d6eU, 0xfffff07a00001db7U,
  0xdd9ffffd538U, 0x4e5000005871U, 0x65beabbeffffb9f3U, 0xf8c04d86481b1d42U,
  0xb3f5a052b371815aU, 0x1801b2e268664d67U, 0x53f881c22ecd90f8U, 0xcb89072adca3d414U,
  0xec19470bc1fef536U, 0xe7c1adf9c5c4fb2bU, 0xd518b6e7c1f32e3cU, 0x8a0225f9d1b54235U,
  0xefb8f12dfb08a703U, 0x321961edec2296f2U, 0xc741bb894be4dc81U, 0x710504d023814d30U,
  0x589b045f1302a8e0U, 0xe202997bcb2f542U, 0xd9ed74e2c105adc2U, 0x40519a6f4bd8a795U,
  0xd18333b00d8c97c9U, 0x8b33bf0f347725e0U, 0x5325405bdd4b81cdU, 0x5d7f16fa923d213bU,
  0x71fa6fc556315fe9U, 0x1f37e4fb384fc54aU, 0xca36a8506ab8ea58U, 0xc5de5fe6f1d4d9b4U,
  0x35b681b8c0d80b9eU, 0xc1063b9beaf587f5U, 0x6576bc31acb7cbd3U, 0x50cc9f2da856a83eU,
  0xef321b04c4489467U, 0x46c555d572afa4c2U, 0xd266cfaa7f4d59d8U, 0x3e1c7f5e3593ff94U,
  0x503b3263b197c9a4U, 0x3544d590905e6e1fU, 0x993a232821942aeaU, 0x83da170a2fbf7b6U,
  0xdb4b3d7cf40c28c4U, 0x36017f204d73dc9cU, 0x657097c1411dc706U, 0xa1d0bbc3782cfacdU,
  0x34b6c6177f075c6cU, 0xd4486c99f3d8d93eU, 0x81ccc8a56ffcb473U, 0x1d189d1f34c62d08U,
  0x4bd3473dbf26c20fU, 0xfa0363aee46af046U, 0x30501b395c23f5e7U, 0x7c75c3ed2f7f4c24U,
  0xf6f1d3cb3a72ea4U, 0xc8a26204150132f8U, 0x7fee9dc33c5ee2d8U, 0x92234960f116ee7U,
  0xad17b88962a8f645U, 0x68d9ac0a6dfda4e5U, 0xa30ba400614e19b2U, 0xa4c7237f89aee127U,
  0x731be26f545c6709U, 0x9bdd687e57c0abffU, 0x75899fa871ab92d5U, 0xd5fc2c28e4377f37U,
  0xe13083115736bc7fU, 0xcecae34c9bd439f0U, 0xfab384db7df213U, 0xd336fff1815340fbU,
  0x8c1403bbf91f734bU, 0xcfedbe9c1515adffU, 0x4bdded88bf3c061fU, 0xacef71afdff90066U,
  0xdccdc0897b549400U, 0x1619963cd7d622ddU, 0xc5655d01811159b9U, 0xd5d0e71e565481d2U,
  0xf2b12f1f6069fd71U, 0xc03d7551a8f8c40fU, 0x59cca9df02d2d215U, 0xefb9579f15e8e500U,
  0xecb281436ace49eaU, 0x673f13711e786c7dU, 0x93e517a640b6bfdU, 0x11570d48461e4c30U,
  0x987de999b0810829U, 0x3905f0a718eefbd0U, 0x8c2fab3c4df0d2bbU, 0xb4b6bac5cffb99c4U,
  0x93117f329f205505U, 0xb23ded18b0f33845U, 0xc59ffd10713dd62eU, 0xc3815e6f2f50f8caU,
  0x4a0be1eddac1308cU, 0x8f99928cccd4d45cU, 0x11ca410016362fc4U, 0x109051db26ac27a0U,
  0x6db24f3e81b511cfU, 0x45cc5b15c1b77f9eU, 0xe0921fdfaea2e25aU, 0x98b5e6fc62418b16U,
  0xaad7cb18da2777e9U, 0xcf5bfae20ff407b1U, 0xcf60cee4cd7f253aU, 0xffe5986c7fbffe2fU,
  0xaeb0f39c464dbde3U, 0x3d6e84ebd6cb6882U, 0x38811d3024ffaf59U, 0xf36745ed0f6db0d4U,
  0x6a53b4866a06c0f9U, 0x2228c26017abaed3U, 0x848c227f9cdf4ce9U, 0x7590b33b02d5012eU,
  0x9b0ad158013bd4e6U, 0xf36d604c31850a6U, 0x7342ac2776906942U, 0xa1f75a1f19b01a14U,
  0x5019f37f51a0f423U, 0x87a35bbac847725fU, 0x50a8156938316b2U, 0xa4564553b4024009U,
  0x435729549c0164b2U, 0xb3f8cbf57809dde0U, 0x5a3b491b1cb459bbU, 0xe7f7466a41cebd86U,
  0x249db9f0407f458aU, 0xce3db90b1938794aU, 0x2dbb213e99dbf7a7U, 0x7e42ca937dbe55eU,
  0x81d44b4d43aa758eU, 0x875e96fe9daaa275U, 0xfffff9f85343e4e0U, 0x50ca000064a3U,
  0x609700004bc8U, 0xd7afffff19ddU, 0xfffff55fffffb080U, 0xffffc717ffffabe7U,
  0xffff6fdafffff9e6U, 0xfffff6d00000060eU, 0x49ccffffed6fU, 0xffffc1ff0000540aU,
  0xffffcb92ffff8d19U, 0x78af00003628U, 0x2d1a00003445U, 0xffffff3b00002584U,
  0xffffed64fffffd6bU, 0xffffdc6cffffdd4cU, 0x81c1c84700001f16U, 0x9a53bf25bd5d34f3U,
  0x290596080df4d2afU, 0xa75f94d31c817f3aU, 0x680fabbce9cde75bU, 0x213d87e4b7a8eef1U,
  0x41481c978aee527U, 0x26daaa287d9b7ef6U, 0x5f4a2b81fe0404edU, 0x9199e80e7f1fe123U,
  0xefee4863a9995c8fU, 0x75c89b648e6241d4U, 0xb7c7b539fdc16a7fU, 0x74981e4506781baU,
  0x163d05d9b6818f48U, 0x9fde14c99d0d52b2U, 0x4c7f6c59bc8181dcU, 0x1a3cb66df6eb0ea2U,
  0xcd7f731a560d7fd5U, 0x7f426aca5097a905U, 0x9e29b7f97f14a58cU, 0x7f8178e6d1bea377U,
  0x7f1f23cb15c0ee5bU, 0xa9634b5d7f93b409U, 0xf38f42a4551c4ee8U, 0x55a9a1facd48384fU,
  0xd3e01e277f1503a9U, 0xaa2d6fcc4cbb39f3U, 0xeaa7b3bb10c0d1a8U, 0x36ac576611f3ae81U,
  0x1d1185813948a881U, 0x2a7f8e66bdd1cb7fU, 0x33e47f0ae4efb8adU, 0xf996b97fdf7f8d4aU,
  0x269da1d010efcb55U, 0x57357f7f33c32651U, 0xcb5c74f6c4fU, 0x746000001e1U,
  0x1950000001bU, 0xffffe9cb0000208aU, 0xffffe30b0000050aU, 0x163c0000212fU,
  0xcd2fffff605U, 0x1b970000097fU, 0xd8dffffe618U, 0xfffff5be0000114eU,
  0xfffff3a1fffff29eU, 0x3155ffffe55aU, 0xffffe82dffffec6dU, 0xffffde63fffffd41U,
  0x629fffff7f8U, 0x12bb0000049dU, 0x92859c3fffffb82U, 0xde4f252d7faefae9U,
  0x941e15c62423b1bU, 0x701c67430502039aU, 0x5937c3469d36a4a8U, 0x2d84ec4acfc21eecU,
  0x67b6d374b81ab4baU, 0xe8c930710aa9d7daU, 0x44ef73767c177f5fU, 0x27576feadda17f3fU,
  0xb470dc00942fa4c1U, 0x633a0124d99a8b5eU, 0xf1a79b46a7ab7703U, 0x1a4cea938ead7f64U,
  0x6efe20b8095c92cbU, 0x45dc71bbaa867e8dU, 0x7f873a9cd7b6eef9U, 0x5f3d3a3623680d55U,
  0xdb23c2b73bd445e8U, 0xbbdd2964e56ccc9U, 0x463c8c5ab9aa2844U, 0x18f8067ad1e83b0aU,
  0x1be45a750ff04db6U, 0x1b6303216ab7da7fU, 0xb7810e397aa3b36aU, 0xeb46a5f62c18e897U,
  0x95656997345c2cdbU, 0x759a2babc0b8b3c9U, 0xab44538b598eeaa8U, 0xe01c13484a3e7fedU,
  0x47d5e151ffba5ea5U, 0x1fd35d5a2a652873U, 0x4578dfcfe2f9cd7fU, 0x6c41a4995bf56057U,
  0x9d5cdc13f5fd1a25U, 0xe5a39154e44dca08U, 0x6d457e47558119a9U, 0x5367fc8762c239dU,
  0xb821838cd0e80e32U, 0xae16dd1b53910b88U, 0x934f540925f84362U, 0xe0a49dc0bbabea58U,
  0x713281af7451c0c8U, 0x12d660a24e9c21bfU, 0xa6fa0cf45778f0c3U, 0xcf68baff50180629U,
  0x14b133e0a2557facU, 0xbee15612c5415cceU, 0xd0ceaa0215d8bf0aU, 0x597f651521c10ea2U,
  0x652924cb74190a23U, 0xfb9358d525c5b816U, 0xdbaa915843a548beU, 0x9be5ce46c76987d6U,
  0xfd25ca6ccf07d6e4U, 0x16f433f27f637f7bU, 0x9abd9a917593cf0dU, 0x30fba7bb419a504cU,
  0x6115f8a555d27eb7U, 0xd25c3b10356e9bd7U, 0xc4cc406981722de6U, 0xce548fcd11facab3U,
  0x7fd43893e63ed0dcU, 0xa12903b4c1a9f174U, 0x5aaedcabd502f6dfU, 0x3507630720e28104U,
  0x95b7002dbe020411U, 0xf6e29a5196580194U, 0xd3f5d91edd4b03bcU, 0xbf1888db18f8baa2U,
  0x57c3e7af5326d819U, 0xce7f8c7adb780a19U, 0x887e7fc7dba11025U, 0x26d3a6a5bc44acfU,
  0xfabe0e2ecc261ed2U, 0x186621eaebd0aff7U, 0x32f623f405200e96U, 0x7c50199b79be258dU,
  0x52fbe13055752a19U, 0xa75c844599be5f7eU, 0x9a902af70a81e774U, 0x4e64e1ad67d345e3U,
  0xad4f71845379b7fU, 0xb3fa1d756364d719U, 0xdebd4f42de45c55U, 0xec394afdd9e7e051U,
  0x9caff0c073b1f6beU, 0xb37015ad7f98512fU, 0x41616a5ce2436d26U, 0xdd23a81cd929059eU,
  0xb4c00d190581ba19U, 0x2493ecb04f046e38U, 0xbf91487f74e11d8dU, 0xde062f531e3b17cdU,
  0xc848fd4a754afd4dU, 0x7d255d1abfa96725U, 0x20e16e0a8d69312eU, 0xab5b955109f3c1cU,
  0x5eba932c81d3e388U, 0xb43903e892e1e7ecU, 0x62d43fb56527b6efU, 0x133f8bd1ab59ef30U,
  0x7460d9125afcc4b8U, 0x12a13101f33de881U, 0x7ba94301ae455d7U, 0x83ac7341ce736a56U,
  0x2c155c85a5673992U, 0x8993afbd75816f2bU, 0x66b7abeb3cc295c3U, 0x905d2623d09c5412U,
  0xe9af5e4896531844U, 0x1a7a1d86817e661fU, 0x4f519e28f6a1ee5fU, 0x92df6eb96b3beb7fU,
  0xb4140e35393e3042U, 0x46f8c6bddf9edee6U, 0xbb5e374150239ff3U, 0x276ac6fcc029ea23U,
  0x80942134a99f7c4U, 0xb9a50881234f98a1U, 0x5d12ebf63bf3a759U, 0x2c5b206951dbd39cU,
  0x81f1da34a5ebf599U, 0xc73cf30eee5e6ef5U, 0x724b88467363ff22U, 0x52674717bdb1a164U,
  0xe18650095486034fU, 0xe6f9b52c29f7f0fU, 0xffffc32dc10c31c2U, 0xffffe38fffffe72cU,
  0xffffe9f100002ae5U, 0x407fffffa592U, 0xfffff52effffa272U, 0x161effffe3d3U,
  0xffffecabfffff7eaU, 0xa5bffffee8fU, 0x31c10000310bU, 0xffffe346000018d5U,
  0xffffbf46ffffc9a0U, 0xfffffc68fffff774U, 0x32ccffff9efcU, 0x1c66fffff6a2U,
  0xffffe70affffe697U, 0xffffd7a100000728U, 0x2a6c7f46ffffe075U, 0x5fc37ebdb4b57e7cU,
  0x5ac1f83d72fcc304U, 0x2e9e249b25eecbc8U, 0xd5482e8b7b062e62U, 0xb7ba4a6cf48ec604U,
  0xa0dac2732f819111U, 0x150f34db2170620aU, 0x934c4d3fd1ad093fU, 0x3b38719de4cd44efU,
  0x7fe51bef99fc52aaU, 0x77ed0139b027cf33U, 0xa1bfc32020f9cfcU, 0x2f19afcb6b068808U,
  0x9e4dae6ac4ea2f0U, 0x814d5ed1cc372246U, 0xabc4d5b499c91c3cU, 0xb1fe5c3eec9e11cdU,
  0x78d9be4581343472U, 0x69f013555536194aU, 0xa83ea38d44a5dab1U, 0x59b2af01b4bc6d09U,
  0x59f977d1d868f168U, 0xc136e528cc25db4dU, 0x63298f0c7fe5ed11U, 0x6d1f579e2d5e4898U,
  0x47835a643363715U, 0x667ff19ca391a100U, 0xd5cf0d7fc1c9aa30U, 0x6a38d840a2e041c8U,
  0x4c30daf802ef1811U, 0xe0ca6ca5c3fd6167U, 0x81c66e0097ed58e9U, 0x63be93790828a6e5U,
  0xbe72ae4e7772463dU, 0xb71de2d8a39369d4U, 0x93d58b98cf2cbe4U, 0xc8e9dfef487c9974U,
  0xd533fe38ff04e16aU, 0xe65ad2e10aa43b26U, 0xf365651e797f4631U, 0xd85b7dbb09ba0c22U,
  0x27c505078210ca5fU, 0x9ea6c21fd362dcc0U, 0xde4344654bec7f2bU, 0x685f3a4dfe561914U,
  0xf453ef3f0e1913fcU, 0xe1e1d89a2313308eU, 0xc822c4367feb5805U, 0xfff4c6f3e04bed77U,
  0x7fc079503695ba91U, 0x59b8c4e7d6db39b1U, 0xd20662dab055783cU, 0xd4144fd21f5c2d2aU,
  0x1802e912499320e7U, 0x81c80a0b15c90564U, 0xf7bd00ddcb30210bU, 0x90dc41d712d0eaf7U,
  0x68bc09ee8e425abaU, 0x1b36bd0ced81e09dU, 0xd2aa510615fcfb7U, 0xca671b4fc9d3f47fU,
  0x907dc7d59a01333cU, 0x53ab9d3441e0e6b6U, 0x7da94339a090b18bU, 0x9c858be14ea7631aU,
  0x4ed2c29a997fde8cU, 0x2dc325f5f558a54fU, 0xe1153094f9b30d2eU, 0xdfe3e87f558fc3ebU,
  0x651c0e0c4325dda2U, 0x25e59de04da1e4a1U, 0xb781dd6ba4ae5c6bU, 0x10e6e632f6987ee0U,
  0x98a040ce152fec46U, 0x3ddceac4cab9c619U, 0xf996813fb23e2124U, 0x3e8619d24b0a681bU,
  0xa0cfddf0c22dcfaU, 0x8c994816a3298a49U, 0x36dc0442dc8e3aa9U, 0x5c3c37cf9ed0509dU,
  0x570b155f57824a55U, 0x92bcd321dd12700eU, 0xa1864fef7f0c9359U, 0xf5e2464b362fbdc4U,
  0x97e47fa232095ad1U, 0x5c27440add93642eU, 0xdee8284d340224e4U, 0x6c7f8b74ca9b6b74U,
  0x5aae23f02d6d27e3U, 0x35db9e136503701U, 0xff0cb3922e56049fU, 0xf6bc51f3f15f4cdbU,
  0x8e7f92240bde25ddU, 0xd8572407b07109f1U, 0x49bb9d069832d3afU, 0x36a322cea294e1ebU,
  0x44321b59db012481U, 0x8ca54faab00338b0U, 0x834459f2fd48ecdbU, 0x970b2058b0f0658U,
  0x360dd47f68aac8efU, 0xc2a554faacb39a7dU, 0xc9afb768bb0f64eaU, 0x3c7f5de8a985a2f9U,
  0x3acceeced6191a77U, 0xbddee9a026494a6aU, 0x22e3474867c8ac8fU, 0x3233c35e945e9cU,
  0xa988607ac63c2996U, 0xc67e927fb0bee0deU, 0xc9569a4b5830dee2U, 0xbfed7fef50cdb9c1U,
  0xc7b090ad9f06769aU, 0xddf4cc3e767c2c9dU, 0xb908c15dd5110097U, 0x36c54fc4590cfeb6U,
  0xa27feaa3f43e5514U, 0xef6a50a957bcb4eaU, 0x23c0470526410bf4U, 0x47a459984d4756bcU,
  0xc7effbac815c4a08U, 0xd4fb6e049e546e4aU, 0xe8c3a67fb8f61768U, 0x8dde5919104ab96bU,
  0xc55bcdcc77c04d1eU, 0xd097448aeabbe76cU, 0xffff77f5ff9bc6b7U, 0xffffd3400000264dU,
  0xffffe8cf00001d65U, 0xffffd6a4ffffec87U, 0x1dd9ffffd559U, 0xffffdc0dffff7ea6U,
  0xffffef77ffff6493U, 0x5a85ffffe03fU, 0x379e00005358U, 0x457e00002c64U,
  0xffffad4300005875U, 0xffff6d7dffffd859U, 0x6ffc00002ab2U, 0x2025000007f9U,
  0x5845fffff51cU, 0xffffbf41ffffdfe2U, 0xa335dc5300003bafU, 0x3cf27120d0ecb9c6U,
  0xa8447adef07f1c3eU, 0xea7f7fd4161db833U, 0xb802a8587f0df051U, 0x4ba20c6230c282a3U,
  0x5fe4b830954526ebU, 0xf9ee014a81812f23U, 0x3cfb49e615faaf2aU, 0x26020b795ba800c0U,
  0xc3f26e29660255e6U, 0x2e2df27f5c6d62beU, 0x5dcd9ef7e7c052baU, 0xc4de31c9d4b2c27bU,
  0xa57f6ee2fd79c51cU, 0xd05ff78715a0a1f0U, 0x5212039cbd81432cU, 0xdf2bcc8124592781U,
  0x7fcd2c8fa32c7f8fU, 0xcdf38958aef51681U, 0x3d69a98ddb556f22U, 0x99f381d19cbb0287U,
  0x14f27f7e8fb9db56U, 0xb874de1f48a5f9cU, 0x811c817f30af00b9U, 0x8106d6dd34d18112U,
  0xf9404c31bbc445fcU, 0x35932c61f48e7ffbU, 0xbc7ff8557b92d62fU, 0x8b7f1cf17f811ea2U,
  0x2303a1816a1cc9caU, 0x7ffdc10deb035df1U, 0xfa351822a561dc7fU, 0xb7f6698a9fd2fe32U,
  0xf36b6b8c7fcc6581U, 0x38aa4efab8eda851U, 0xffffeefac35c7fd1U, 0xffffd89000002a20U,
  0x2f64000008b9U, 0x34d700002555U, 0x1428fffff66dU, 0xfffffd19fffff37fU,
  0x151f00002921U, 0xffffe709ffffdc94U, 0x1535000008aeU, 0xffffe4b2ffffc135U,
  0x1509fffffbf1U, 0x25aaffffe34aU, 0xffffe944000016bcU, 0xa60fffff29bU,
  0xffffeaf8ffffeb8dU, 0xaf9ffffe79cU, 0x5d48dad7fffffbebU, 0xca2393b3df49f9f0U,
  0x6c22f6050d5047fbU, 0xe7a8321c840f486dU, 0x11819816998176bdU, 0x6c8ea7f3ee3678abU,
  0xb4524aff141052aeU, 0x53a0b351654ed053U, 0xbac181ba1ba245e2U, 0x50e469aa9d545736U,
  0x35ba6f99e427ee43U, 0xbf2b8fbcb6e00f87U, 0x1beaea3329c496afU, 0xb56856fbbdd9ec3fU,
  0x3f0ef7a9819d424eU, 0x8ee0d9f650b32534U, 0x5bd3f1abe38aab15U, 0xd80107a93b477805U,
  0x10d3c14e9883376dU, 0xae3c11bd2be38907U, 0x12155065df352981U, 0x264271d2ccbfd9ecU,
  0x2a398ef97fbd1f1eU, 0xe0be78de14d5e92dU, 0x913e3fe878b5e4d9U, 0xc7f0270aada6139bU,
  0xaab000f720a77feaU, 0x14abc1feeb2fa4e6U, 0x5c7f45be43ffebe7U, 0xc0b0099c58ea04d7U,
  0x6e2fdcc9f3ecdc74U, 0x61928ee64bfb0eaeU, 0x41b08760243b22aaU, 0xc8a742f6c2d44a93U,
  0x294adaa208fe8168U, 0x5a36040930e4e614U, 0x2ec248bee05e1d76U, 0x7afa70830f608fe0U,
  0x9a92c01ab2498ed5U, 0xbd2fd36c21667fb1U, 0xff2f2a386eecfd1cU, 0x2e6ad58a16fba519U,
  0x7b0d28fca4ce1067U, 0xde1e62efdc4ae057U, 0xba78d065ad7fcc94U, 0x517130a65006eae9U,
  0xfe16e3f17f544b4eU, 0x179ce9ea523fe2edU, 0x6f04d51e21084f74U, 0x9317cd1a574805b4U,
  0xdb4f62f1c662f5b3U, 0xb332d4ed142b7ff5U, 0xd7aee758bbbb3af8U, 0x885981e23c9c549dU,
  0xeba07aa88fdfb7a5U, 0x17e026fa06ff9377U, 0xedfac5d00103cf2fU, 0xee6e9cdcce8aa5e5U,
  0xc8d89bc697150d9cU, 0x7f4eb8502c8919edU, 0xf0015b7a89660488U, 0x479286efc45f537fU,
  0x7e60c9cba7f9dea1U, 0x47e8c6ea2e6b6427U, 0xcb5ce2ac285c4f83U, 0x4261e848a8811df1U,
  0x1f88e477685532d9U, 0xe078955ae9a65643U, 0x4447cefc744674c8U, 0x4bd75a49deb6baadU,
  0x97977fcca8f90ad3U, 0xeb93cf4336f321f1U, 0xe4bfcc5ce87e73b9U, 0x932cef436c607fd5U,
  0x470c087657dbe3e0U, 0x744e342cad410fbcU, 0x26b9f7f9c276552U, 0xeb2e3d30a55e2116U,
  0xe06cf4bf0572db10U, 0x3aeb6ac8dbc5f9bbU, 0x5f6e4c4801730aa8U, 0xe0816c1faca45b57U,
  0x436b19d1ea1bbb11U, 0x3cb5a747b22bb40dU, 0x9bd86a922ce9978bU, 0x4da53574a332116aU,
  0x582f6aeaca758f2fU, 0xf9a18134546c2bb9U, 0x81de48b4adfe458dU, 0x2c2ecdcd4c372e23U,
  0xf33b7ee05804fda6U, 0xcdfe27b0f341b96fU, 0xca1217086c676324U, 0xeb22df20eeae1c81U,
  0xa914a3b6a9095924U, 0x624606e5873c3645U, 0xb61b4c07933159bbU, 0x858b848db9ae2c01U,
  0x54b40278ef701904U, 0xe0d8fca319ae6363U, 0xbb1db7708fda0b81U, 0x247f3254a5031cb9U,
  0x9cbd9f8c51a386eU, 0x2b9ab5ed2ab83677U, 0xfada381653f342eU, 0x8eb1667f444abccfU,
  0xb3553c9630f4af02U, 0x428657d5f1d1f6a9U, 0xb62b9a17368e9101U, 0x4d126ee1fcb8f426U,
  0x21b016b7d9932144U, 0x3f3e0b8e1d038534U, 0x1c93a78190730981U, 0x7c09e734bc1edc43U,
  0x38d69b5f98a567ddU, 0x34ce9e2e9a16ed46U, 0xf07604d85195dd8dU, 0x5df657e72e221af1U,
  0x6f516999262996deU, 0xa1ee8fdaf47f053eU, 0xec96326e265d6999U, 0x7f91b955330e55a9U,
  0x720c41ee16afc00aU, 0x6151e47b10ae90b0U, 0x99eee00a33710956U, 0xe0dbade88dfbef41U,
  0xad7f659e0b07d662U, 0xcf343f257efb28eU, 0xfffff94cc3fe71dfU, 0x4cfbfffff841U,
  0x2032000029dbU, 0x436cffffe6daU, 0xfffffd1100000112U, 0xffffe71100000091U,
  0xffffefa9ffffa949U, 0x604600004f70U, 0xffffc3c9ffffca65U, 0xffffad1800001078U,
  0xfffff2f7ffffda0cU, 0xffffc96effffee2cU, 0x3d9f00001f02U, 0x4722ffffd0b3U,
  0x3701000023cfU, 0xffffcd9fffffd2beU, 0x1bf4a91a00002558U, 0xd998f594eb73b9deU,
  0x7336a9e87674c9aaU, 0xe7c6617f9c0520ccU, 0xd5ebf02bfbc11b27U, 0xa66ee8129f6fdf4U,
  0xd99425f24b6a1eU, 0xefdd565a44fcbc5cU, 0xb2a669647d6de541U, 0x6b7a81a6ec8ad652U,
  0xad796a76f119ee73U, 0xd5fea4274c119774U, 0x9a5629d3f089c291U, 0x2c2ec1ce6f3fd45dU,
  0x5756ce81e90f5687U, 0xa649ca00574f2aeeU, 0x6b82c3a45d26b598U, 0x81dd267e2a05f5efU,
  0xf985988311856c0fU, 0x1f8bf262f0bf75b2U, 0xb4ec7381b9bbd80bU, 0x1584567d686f5f2U,
  0xe263f93c2d8ed15U, 0x89e2da240796521dU, 0x3cd6bdfe97132b5U, 0xdffb464b387ff463U,
  0xc28ce5bb67c43a94U, 0xe6eb28ba9424018dU, 0x89351b3d83c6490aU, 0xe77fa9e5b806489eU,
  0xe60d861ccd5f06c5U, 0x49fa646962e379b8U, 0xc2c64f704cef70f1U, 0x6bd8a3b06581fe25U,
  0x2a72e930cac9f305U, 0x4a83e27986ba2b03U, 0xeb5bad2743d1c9dU, 0x42c38e69412a5642U,
  0xefe9521aed491e17U, 0xa7eeadbd81840164U, 0xf92c245ab148a3a3U, 0x208131a8d857b72eU,
  0xf489b2216d336296U, 0x5991cd2b3658f8b7U, 0x753b5801dce18950U, 0x5a3139e89ac6d3f3U,
  0xe3193f5a4418bb8aU, 0xd98166254f872e27U, 0xb4fa5e152b50c4aU, 0xe5502672b5c2cb3cU,
  0x74621cbca419e0ccU, 0xb4aafcf8a9eacfd2U, 0xdcffdcec81177348U, 0x61be29177eb5651eU,
  0x4e6789d32d2d5903U, 0x408d32d2a0eb0e81U, 0x47499653d523b573U, 0xbdb53038b4e6c381U,
  0x995c5513d2dad5dcU, 0x6435d5058d59ec40U, 0x71eff4747a086c3U, 0xed8105e72f16be30U,
  0xa8b0d1d2cddcae91U, 0xae9b4a529b6982d3U, 0xcd89c9aff2a86e4fU, 0x818ac7abd14774abU,
  0x3f67f108131eb1a4U, 0x47472bdf194d0158U, 0x2e626568779431d8U, 0xf7d5ab28732db2baU,
  0x87535cd40ffe0adaU, 0xc381eade7e252913U, 0x812f063ff8ebd0f3U, 0x1679c198cd41fc04U,
  0x7436cceb555663b5U, 0x7c740bf8b4d2046dU, 0x7175f835326a6f43U, 0x7925f320d56c1681U,
  0x678a10763a671806U, 0x139d9e5b8febc2e0U, 0x950c49811236255aU, 0xc50d09a18c190307U,
  0x7e945682cbe7e5e8U, 0x83120fa794fbe353U, 0x9cf873e6f9b8d80dU, 0x482309d114f5fb16U,
  0xd093d2dde01b8169U, 0x302dfb600a5735fcU, 0x76ef130ffc9fed04U, 0xfb0160c5be61c040U,
  0xcd8ae81715506c94U, 0xdfc922e3644e101eU, 0x18fd371816bbb12U, 0xdf1cb8f7907ddc92U,
  0x11f0176835718c7fU, 0xc28ae7fc9c44a7c2U, 0xe66f37439b9dfe94U, 0x16f8bd094b1bf870U,
  0x6266bd60d7e9ca3cU, 0x8471ce78318136cbU, 0x5448c47a5020eccaU, 0x7f3a39789be9fdcaU,
  0xd202aef6bdca197cU, 0x7146e48d0858cec9U, 0x6036374c5cd2534dU, 0x9b0f40a2d49957fU,
  0xe195eafee9df27d8U, 0x1bae741232d4094cU, 0x5d42877f6631eb96U, 0xb9dc21d3c7ab0c27U,
  0xa94d1b016eb09b89U, 0x178d29a4e22fc0acU, 0x266e6d92cb22496U, 0x60ea7c0894c0d96dU,
  0x908c3564b012a596U, 0x9298ea81302ac93cU, 0xa7f244c6b6676945U, 0x8ca250f6a7987f8aU,
  0xbee0c9b47d6ac1adU, 0x14445bb4552e42d4U, 0x1494c7c76af12ab8U, 0xcd237688f0098fbeU,
  0x4002e39d675cd3ccU, 0x8ee1347f7bcade9bU, 0x43190549ede0d5e3U, 0xa34e8ce0ce95c365U,
  0x7d17739f58f7cddbU, 0x7814e13dd7077ff7U, 0x209eb5f07a0cU, 0xfffffdf1ffff8e1cU,
  0x9e84ffffced7U, 0x35c600002fc1U, 0xfffff6bdffffb3b2U, 0x8ce00004f51U,
  0x34b7ffffaa98U, 0x4fb0ffffde82U, 0x36050000980eU, 0xffff445cffffda0eU,
  0xc229ffff7168U, 0xffffcf37fffffba8U, 0xffff82fc000093f1U, 0xffffb364ffff86d7U,
  0x3b25000089eaU, 0x736000003947U, 0xf0cb084ffffac46U, 0xbc0b8d527f0a26ffU,
  0x90bf77ba9e7d81daU, 0xf802f47370531c01U, 0xfa1f67caf9af2b6fU, 0x33fe8140c2361dbfU,
  0xfd7f2a44d363c6e0U, 0xeb7f890804ce127fU, 0xb940813b9ff929d8U, 0x81b70532c9185d81U,
  0xfa9152c604b3d289U, 0x393bb97f7f28555bU, 0x96c90c17b36febfbU, 0xf6ed63ceb0d15f4eU,
  0x4ab69e7f56f878a5U, 0x45d6a4cc40238148U, 0xecedd2f14f9daa58U, 0x10ca06a716e67f5aU,
  0xccdbf1a7c301af20U, 0x745a190bdb2eb361U, 0x7f46ead500462f78U, 0x45a3fcced4377cd6U,
  0x87772857a46b6d0dU, 0x4e26580f2c7ffef7U, 0xc0dad5a57f2c0457U, 0xa29556bcbedc3c1aU,
  0x81df3124287fa681U, 0x814451f95bc0ccb1U, 0x8ea56cf03162ec81U, 0xef6c5d81497f18b2U,
  0x4df865c02f588629U, 0x1c61813f4fe7d037U, 0x97818381007f81e0U, 0xae7f757d0db4c516U,
  0xa1b77f038123a3c9U, 0x2544021ebe74dad5U, 0x2cf43b974416U, 0x10290000193cU,
  0x8e8000027abU, 0xfffff5f9ffffc294U, 0x63e00000926U, 0xb79ffffee73U,
  0x2a4b00001dacU, 0xffffc8c20000299eU, 0xfffffd3100001d24U, 0xe81ffffd051U,
  0xffffddfa0000274dU, 0xffffdf1e000018f6U, 0xffffddc4ffffd2eeU, 0xffffc5fc000016b7U,
  0xffffe7daffffe43cU, 0xffffeec000000404U, 0xc46e6cacfffff378U, 0xb7396c5ea23fb10dU,
  0x71c4db022ce6ec4eU, 0xa6f42b48558137a0U, 0xdda30dbed036379bU, 0x196ca90990dbbe29U,
  0x187ffafd4f9b9558U, 0x690764bf92a8e23eU, 0x62dad000ee0155c5U, 0x248eed81fcbd6c40U,
  0x5189a12b112be344U, 0xf40f3613dd4d1dd9U, 0x1e70fceb046fde01U, 0xd6d40f13122f9dd6U,
  0x16975e2adba6ef90U, 0xf97f2530d029c4cdU, 0x23c7d58f0ec7ed8cU, 0xcfc22435837487cfU,
  0xd0caae4c26e3c953U, 0x32818a6f2358472fU, 0x23a2b5b955794b41U, 0x95fa14e508a2108bU,
  0x8b97d16ab6817c90U, 0x6596c5995bedc034U, 0x624c82472909a6e0U, 0x1279d0d03f29727eU,
  0x49bb3d4bfcb27ecU, 0x18f4fbaaf3e3322eU, 0xceec618b30379d7fU, 0xe8b2c61eb60d1b01U,
  0xeb12c9b9815eac9cU, 0x6ccac489f1d959fbU, 0xd5bd1a77d33e3e3dU, 0x29144f4da852cb5eU,
  0x18c38174caecd64bU, 0x6a31a2a9792e36cdU, 0x565a488eeb853a60U, 0x967aa3b6758111f8U,
  0x42da106b7c20cc1cU, 0x674ee91df5eb3921U, 0x15201c47f74c8d40U, 0xe3a7ad81cddbc562U,
  0x381213f9374befcaU, 0xc43c6ce589b462b5U, 0x37f2a60eb36f0e66U, 0x810d166723e83a54U,
  0x9cd0eb5945e8603aU, 0xb27a53823f6cb2e3U, 0xae56018e21132a63U, 0x468e129c90841341U,
  0xe965e1ab6e5754acU, 0x2ecd107f663a638eU, 0x29c53b010c583ca0U, 0x45aa6a0564213267U,
  0x13b3cb381f21223eU, 0x6918e0b5b21e7f45U, 0xf15b62c0282b00e5U, 0x22d8f3bf814f843dU,
  0xd6ae17b813507b9eU, 0x8e29052f2ecd4937U, 0x1db4b93e0f33026dU, 0xffa948304bb4ecc0U,
  0x789a75cd37caf6b3U, 0x9cae7fc90676f09eU, 0xde54f37ac73618fcU, 0x812b68e52505ff1eU,
  0x66254668170e6959U, 0xf0dee567d5a3eaccU, 0x4d5d6054db52f679U, 0x2a20b1c883469217U,
  0xc495694629fa75f0U, 0xf3cf9181cb58e231U, 0xb26eecd7c42cf66eU, 0xdc278f39043f68e3U,
  0x8ea65e9f203de01eU, 0xd8c8c6e90d981581U, 0x447f1a6c1dedec71U, 0xcf9f442bc302e4d7U,
  0x6fd125ad3fca94ecU, 0x7ba94ca98eb314b7U, 0xc635b8551023cab5U, 0xd3cc7fe9092f2728U,
  0xb73d46589fc5b4a5U, 0x850945cbbf46b94eU, 0x83a7843f6a87ac9bU, 0xb2e82a50d5b92260U,
  0x7578076b4678f981U, 0x8d5f454adfe12586U, 0xecf1a2d7ac18439aU, 0x3d2da5db1942b750U,
  0x83bbc219c2297fc1U, 0xe61d91c79877e9aaU, 0x60667f58d01f337fU, 0xcd9bb463c2087cd6U,
  0xa8a9c323bcb3a5daU, 0x4cadc24cc351db5aU, 0x5e3676c2dcd56147U, 0x7586d22b422629bfU,
  0x190da1361f2e7f5cU, 0xb0c79904cf6c9ff1U, 0xc8580a340fb26ac8U, 0x5691d0a781d9819aU,
  0xe9bfa9b949fbc14bU, 0xa23a9216cf28bca8U, 0xdc36c75f6871a420U, 0x930df2eb0f4caf81U,
  0xb5cfe94ca93bd5b9U, 0x6cde28da09be5b58U, 0x72db4e26244102c2U, 0xfee74b581642ebe1U,
  0x319668c044777447U, 0xfa967ce9c971e351U, 0xba69925a8b993b81U, 0x55ce6e9c91ffef29U,
  0x977f318d4d78072aU, 0xdb0522543d701bc3U, 0xf0c7f620022d1cc4U, 0xb0184c5a6c04e3dfU,
  0xf3bcc1969defdfdfU, 0x885847de3202c0abU, 0xb48ccac1893c27fU, 0x65dca105c1d75e50U,
  0x35af5cb881aacaaeU, 0x37538d1bb6131e6dU, 0x61a78cb23aad31e7U, 0xd25baeb6bbe1f441U,
  0x64cff9e7c4ff62fU, 0x4ad1faa669891b1fU, 0xfffff5066dee317fU, 0xffffed3800001b37U,
  0xfffff8df000029a5U, 0xffffdb960000730cU, 0xffffd28a00003e7dU, 0x35effffc00eU,
  0xfffff607ffffc305U, 0xfffff19fffffa4ecU, 0xffffaaee0000198dU, 0x257dffffeb50U,
  0x26b200001ed1U, 0x2aaffffffc74U, 0xffffe04ffffffda2U, 0x106f00005214U,
  0xffffd08dffffbf2dU, 0x1dbd00003346U, 0x70cf8e15ffffeefcU, 0xf04ce2fdc66768b4U,
  0x42413e081ed3702cU, 0x2c20a32d9d811f37U, 0x3c55eea41b5b4456U, 0xa550bdfb5f8b4a1U,
  0x8190e4d98ba4a754U, 0x791a847bb1e6074U, 0xf4dfa0daa6af4cfeU, 0xbba3150df4a3e958U,
  0xe99dd89fd3a5514aU, 0xf56fda667d788175U, 0x1688811b53e03e9cU, 0x7620c5f7e36d5023U,
  0xc706c3005fde990cU, 0xf84ca6b39bd324e9U, 0xaf1c282cb636781bU, 0xf08eba0bf0a26241U,
  0xae4e408c882d3053U, 0xb67f4ceba8ab2bb8U, 0x974b814bfcab8659U, 0x9c519a56b445e78aU,
  0xac9cdfd81d9d97e6U, 0xf6c8749acf243203U, 0xee90380583811b34U, 0xcee8660a846440f6U,
  0x939d9c01a88875cbU, 0x228173656c5540d0U, 0xbe73cc1733e00211U, 0x3e5607ed57c624f1U,
  0xf7f5b45f5e2a9a3dU, 0x135808f17f508c5bU, 0x1c7823f42df8af5dU, 0x1a78a042f1476263U,
  0xe45974287f5a92U, 0xef2d481272bfedc7U, 0xfe5df778ff88ac5aU, 0xf3d4597f649a3219U,
  0x64883f3fd0452a9U, 0x5fb3f2f9ea018becU, 0xe07969115861104eU, 0xf0fb5296edd6e60eU,
  0x57f601c34cceeddU, 0xa1bd75c83b011a45U, 0xf91af1d243021329U, 0x425db4687b0d8f6cU,
  0x9aff81b1c312d3e7U, 0x282f1dbff14d8397U, 0xada3515b6460cd5dU, 0xc0519e52f6f78d13U,
  0xd545e665019595daU, 0x2fe581b0ddfa2e1cU, 0x2be70eaa52529f3eU, 0x50e365131c7f3320U,
  0xa043737ed1e7493bU, 0x3947eb713c5d1b4cU, 0xa2b7aad2ec01f742U, 0x150678710c9f7bU,
  0x5c2df8fbffbdf978U, 0xbc59fe0881d11647U, 0x64f6a3c6f5b5f4ceU, 0xe921db369e67b4f4U,
  0x7b5b6d5b59c1b78fU, 0x28124bd673770acU, 0xa4aafae7143eee35U, 0xe193b1ab0a34af75U,
  0x8c47ca37b551e08bU, 0x9df6f74381f22570U, 0xaf56d83db22b9de8U, 0x9b535424ed68eef3U,
  0xd34a1fbe6575136aU, 0x1e813d07ca2bf868U, 0xe252caf957d4bc6aU, 0x8fea2c362eff1651U,
  0xb8688167e1498daeU, 0xa7bf0f9419461cdeU, 0xc6d26e2d63ddb0f1U, 0x8cc944e8faf911daU,
  0xe39e51a016d9bffcU, 0xd76624a6bbdf4bd5U, 0x97b833c67f32f963U, 0x35babe076e4c0e77U,
  0x458d38e7fa48a5f1U, 0x7b5ee14d15061392U, 0x2cf35d437f5dc638U, 0xbd95a06dd03426caU,
  0x94ce2b81a206699dU, 0x34e53641d5dbc60fU, 0xab27cb1b6a39ddd3U, 0xe3adc685902f6866U,
  0x161d93ad4f66eec4U, 0x5542c37ff4b742baU, 0x6ddb856b25c399b4U, 0x3b9931f94fa36c09U,
  0x3aa46566736c867fU, 0x87168c3f58eba1cbU, 0x1735523c47353055U, 0x2073e4c4a4f11eb5U,
  0xe59c81bc2b3846b5U, 0x5c0e74ff73675d6bU, 0x396b5eac2138cc64U, 0x5da1f57f481e59a3U,
  0x45546b7f4df20b4dU, 0x20d0ce1963f206ceU, 0x2a27faa8634ec768U, 0x723a47fe4a5ee3aU,
  0xa11754fe0022744fU, 0x909b269b08293444U, 0x299afd875ff317bdU, 0x6f736a23e8bc7b17U,
  0xc867bc5b75810d9aU, 0x6f92b5f6f4e34e34U, 0x447549cbce6185e8U, 0x1a44cc907f9da062U,
  0x79f8119ab62aa3d1U, 0x623722a86772ae06U, 0xd03f7322d6389ae6U, 0x72baf59362cb14f9U,
  0xaace8c81a65644f5U, 0x2fb9674cdb08a9a3U, 0x7f598e76fdcd50c4U, 0x1bb406fed8b1dcf5U,
  0x7019f5dc03026316U, 0xcfecea7c2bc82345U, 0x6699a2e02dfda799U, 0x7f42c7579d47c0beU,
  0x40484e2caab6e01cU, 0x972b890a15fe9495U, 0xffff668c12aeaacfU, 0x2c740000bf60U,
  0x564400003147U, 0x13680000f88aU, 0xffff2115ffff5cc1U, 0xffff8137ffff7e90U,
  0x4dea000004cdU, 0x91ffffed0dcU, 0xd23bffffade6U, 0x3f31ffff4f38U,
  0xffff8bb20000262cU, 0x5b9700003530U, 0xffff4ed3ffff6b27U, 0xffffd5fbfffecdceU,
  0xffffd4f7ffffe451U, 0xffffca4500004704U, 0x818c29a900008c73U, 0x17bc229d81d47fcfU,
  0x3caa416bc2b1a1eU, 0xf181b9cefd3ac452U, 0xdff3c27fe18f8168U, 0xc19ad6167104699cU,
  0x7f73eed8f2243b36U, 0xbb218bed8d26f07eU, 0x86107fa410daf982U, 0x9bffd3200381cae5U,
  0x33357fed6f7f0307U, 0xb0c736bbcac2dd79U, 0xa89376ea923d1981U, 0x8144d148eb214e2bU,
  0xaf818dd27f01fb7fU, 0x459bdcaab781ed81U, 0x5a4c4c08b81d8b4fU, 0x1f2a71801d5bf28U,
  0xa4441e7fbfa3d4d3U, 0x96dc81252a8bbbb3U, 0xd604bcac4d7f3f89U, 0x1b81dfa5c8c918f8U,
  0xa41258bfb2a33860U, 0x9f04e7d7810db2a3U, 0xf57f5f2296b032f1U, 0xfe397f486f07ccb0U,
  0x490d36eb21709f8U, 0xc5e9f63169bc4d5cU, 0x2482fe5538ef3da6U, 0x4c0d1b2e42b7d6f1U,
  0xd64a2a4825707fd5U, 0x81841f7f990ad989U, 0x74355ce07f18aaa9U, 0xce3c0a814a1b0d7fU,
  0x5ee0daeeb9e9fef5U, 0xd15208911a3c8128U, 0x54b9c3016d6U, 0xb5bffffcae5U,
  0x8f3000010caU, 0x1f43ffffee6bU, 0x4faffffed02U, 0xe360000078bU,
  0xffffe6d4000018f0U, 0xfffff09effffe3e5U, 0xffffef1000000bfaU, 0xa400000194U,
  0xfffffa41000004b8U, 0x18d800002c28U, 0x130a0000276cU, 0x2d1f000024faU,
  0x339c00003fd8U, 0xfffffb1300000badU, 0xd73481cc000012f2U, 0x361ededcf544a83dU,
  0x168b6ffea61d26a3U, 0xe69cd03d26073f1U, 0xe5ac253259fad11aU, 0xff66ce09223e7965U,
  0xdda65d51640e4f2U, 0x484570db81b316d7U, 0x7a308eee4fc9a5efU, 0x4a70b509c653ea30U,
  0x9a3c2353ada2d939U, 0x20e4a581156a8a2bU, 0xf830cae1787bb958U, 0x49071cb3d2151c48U,
  0xe4a8de4d29c7711dU, 0x53e781d9858ba8deU, 0xa1981b915007d65U, 0x6e6657dde4d5354fU,
  0xc7189c1a54c0adb2U, 0x58ec765329074345U, 0x8aac9665c4b7a9aU, 0x3f160740b19cec19U,
  0x3c8eecee5554dd51U, 0x1b677d8191e627bdU, 0x6656e4301d224f57U, 0x833ecf30036229bU,
  0xe426c0d27f1b4c31U, 0x61495a9febfdbdf3U, 0x3e735341146a24aeU, 0x41fb95e68ab69eb4U,
  0x876af2fdaf2a04b5U, 0x672e248170a95e2dU, 0xf4360cd773452b36U, 0xa9c87e560f9334fU,
  0x608c2dcc926f8281U, 0xeeefc6b4e19eee14U, 0x190f7f0813dad66cU, 0xda60a190f8e9a888U,
  0x2192745defbf122dU, 0xcbaf56679a676258U, 0x38d85e52704375f2U, 0x30e057078b62de9cU,
  0xe9f4d4ef0a5366a6U, 0x2a5ffaf3812fa5bbU, 0x14aaaaca03fc245eU, 0x8148b4be909185d7U,
  0x2eaca4e3251b6159U, 0x304c5a8538bdc635U, 0xc0403f36aedbfe61U, 0xea859eb48a19071U,
  0x4cc7260fd87915faU, 0xecb2dcd923c3f176U, 0x66a2dc27361dcb81U, 0x76b9f2be67c2313fU,
  0x848e4a6d007885f0U, 0x6bf8040f815963e9U, 0x79936b72053d81fU, 0x8fcc4bc8a681107aU,
  0xc36941bdbcaaaba9U, 0x104d18c6c471c1e1U, 0x666239713de1d95aU, 0x908a1d4b8101f26eU,
  0xe513fd5d3bbc6ed5U, 0x5c1cd0bf4f31b7c6U, 0x6b87d3f42c42cc25U, 0x5a498e8e0017bec8U,
  0x1bb5c6f9a078e3bU, 0x4f613e88cf27b8acU, 0xba13dfd58b6f0e81U, 0xb5adec46f0f2610U,
  0x7ff4a949e441ce37U, 0x883ecd627eab91d8U, 0x1243ddbd8fb9eeffU, 0x82c316f3779949a0U,
  0xe59306ef5fe83292U, 0xb7f2ab6f016d7faeU, 0x4eaddc88032406dcU, 0xaeb8f0f96434f3d9U,
  0x51545c5bb4d8789cU, 0x64927ff9220c2ec6U, 0x22a7c138610315a5U, 0x766df81feeeda8cU,
  0x7cd46ee7512efbc8U, 0x84dd490281935b22U, 0xd8c13f25903f9febU, 0xb1739ecd1b81a56bU,
  0x98ab44c8bd30c1a0U, 0x78cdd207bcf58a52U, 0x5ac6b0eb29e826bdU, 0x51bc65c4dfc051caU,
  0x3a145b305a1719d3U, 0x3de58499900ded7fU, 0x94c3eec2b74c54c5U, 0xea4bc745e2231ed5U,
  0x997f4a5c630a7e0bU, 0x4328c391c52867b9U, 0x8d3fde0d5ac92fb8U, 0xead188c84e958166U,
  0x403c2b7fe17b58b7U, 0x44526a83753c71f9U, 0x4a462eebabfc82afU, 0x1bea3ee05e4da03dU,
  0x64eb92ca699c716cU, 0x6312aa564a220b72U, 0xf51312378148a9a1U, 0xdf14f5c3419abe21U,
  0xffea7586e5db9ceaU, 0xe11d85e5813361eaU, 0x5a8b7bccc54e4fd0U, 0xc240fcc13542e03U,
  0x4220c9fe5be16e94U, 0x3c5eba347f7462b6U, 0x95052d9c4b2563b1U, 0xd75de88252f9b904U,
  0x926f63558163e479U, 0x9fba2bb9da5c86faU, 0xb1704e9e6ebdcdf3U, 0xa3ee0ede4eaa0c5fU,
  0xc434670c02e94864U, 0x49c4f95357ccb5f7U, 0x54d2de0f037fd60cU, 0xd045054f4d14065aU,
  0xe26251b5f4fbd814U, 0x6581907444d538d5U, 0xbf69626ca37359f7U, 0x4a6f81e8431ee7eeU,
  0x8e6ea214fd2cfbd9U, 0x41643aa426aa038bU, 0xfffff66054e8a984U, 0xffffe2c9ffffd518U,
  0xffffbd5300000c16U, 0xffffbc92ffffe3c4U, 0x3b4bffffdbcbU, 0xffffeb53ffffcc94U,
  0xfffffc520000519fU, 0x3becffffd9d5U, 0x341effffc707U, 0x18bc000009d6U,
  0x3e83ffffe8c6U, 0xfffffed50000582bU, 0xffffe543ffffe2fbU, 0x3234ffffb640U,
  0x1dc3ffff914fU, 0xffffcdafffffd154U, 0x3c1e4aa0fffff1e1U, 0xecb88f81845d1fc2U,
  0x22fa130c46e816dcU, 0x202d2d7acbcf050cU, 0xe3566862dcb5a9e1U, 0x26d040f35b0b0ccU,
  0xc3f25b81166e487cU, 0x7c4ea4132716a1f7U, 0x7e3f028103293b3fU, 0xcd6df4f746e2b042U,
  0xf01fc11b0d4a073dU, 0xe14567d371962cc2U, 0x81dee1f6754e27a4U, 0x50e463be6dd58162U,
  0xd99edd40ded527f4U, 0x9c53c2134495c3cbU, 0x1c7f77b8a17542d6U, 0x36f35f0fc3a6aee2U,
  0xaa3fd752928ea373U, 0xb7dbae13fafe19e9U, 0x735d95c0b7c172e1U, 0xc253a9aaf76f8160U,
  0x6397f2636a5d9dacU, 0xb4d2781ed298cdbfU, 0x905962bec653279bU, 0x212017405f04ca16U,
  0x1f0398f474248c28U, 0x12d3f15ffe2bbf7fU, 0x59214ffee16ffa06U, 0xb85bdce053753fa7U,
  0x7fa4aaed4e67777bU, 0x48258f50ad521a47U, 0x48666a22fbcc0590U, 0x472d2c81bacc63aaU,
  0x983daeabbcee0c59U, 0x2300f507a9b0dbdfU, 0xdfa4919b7b894178U, 0x88ee481689ecf160U,
  0x46291d18dad3b2feU, 0xe590001a1c58161aU, 0x8b0897ab7faf46f9U, 0xb299a2bca6f31abU,
  0xec284b24e2a21a88U, 0x726119c2f58143e3U, 0x40c3129112da0314U, 0x48782d8152ae159fU,
  0xb267065e62bf74b8U, 0xdd033560cef3b9d3U, 0x92b21b4007abb78U, 0x139fef4252f6c365U,
  0xa72c860876dd55edU, 0xf1eaf0927ff753cfU, 0x6b6c81e12dfb5a23U, 0xb507b0c349675debU,
  0x8b9c84a14ad8b4c7U, 0x81379739b14513a9U, 0xfbbd704501fe4ffdU, 0x694738114d39529U,
  0xd7704fade2a08cbeU, 0xc61b0d7f6236443dU, 0x15ae4b72712f43c4U, 0x5da48cc9647afb81U,
  0x1cea69c0fb04f69dU, 0x68043dbd1cac2116U, 0x75736acd0e6849cU, 0x1f3af948ce066d92U,
  0xa3b1da7be9a85d90U, 0x250d3a48d5e9203eU, 0xafea6e20c7f0b181U, 0x552ba39821bb137dU,
  0x7bd9920265b1b5b4U, 0x8dd4b9c6d3deeb02U, 0x2bfd00cf246381c1U, 0xe0a6c4205d1d357fU,
  0xa65c9e45f4bc8814U, 0xba8f89ce7db5bb9U, 0xa965182a14597743U, 0xa3fffeeb8f7f70c5U,
  0x1d36033dae493b5U, 0x15279efe24b256b9U, 0x4dd2ea0f0da45ba5U, 0xbbd64967930f73c4U,
  0x2ad5f4c0a1b622adU, 0x4543760e7ae5fc13U, 0xa47fd16bdfd18113U, 0x25de67b176ca4d0U,
  0x38a271cd9acbc854U, 0x25c9ba1404bae2a8U, 0xa84a612fb0dc12eeU, 0x749d8fa0dd672e8bU,
  0x552c7fd4b944d8caU, 0x22da9725a46f8d72U, 0x14ed23a3c1f5cde5U, 0x81d3391699ef91b8U,
  0x3a1b5f10aa93c36cU, 0xb06256bb3f0ddc22U, 0xf906e4f04e3c3607U, 0x2f1981711675f126U,
  0x71f95538df55d951U, 0x3862cee812a225f1U, 0xe64b49799fd5f59dU, 0x5e2fe0445cfaf998U,
  0xe8357fb5e2cfc2f2U, 0x8df46918f06254e4U, 0xba88e26fca43f294U, 0xeb4cf5583c28a5d2U,
  0xe4b1b91f76978107U, 0xcb48cec192a19d3dU, 0x36af582209b157edU, 0xaa369c8c6ac358d7U,
  0x9fa0b616dd0a0b81U, 0xc1f843be0a12713eU, 0x8ee1a647042258d2U, 0x54f8651aa128dd31U,
  0xabbbe9304dee03c3U, 0xc62f7f1cb14ac265U, 0x78093e00ee741b4eU, 0x54bb2344ac365cacU,
  0xec6ed4865bed7174U, 0x49e9fc177bc4d56eU, 0xcaf31b38bfbd447fU, 0xab6edbcf48e30babU,
  0xd4c0718f948136c8U, 0xa2125e19b62bdf71U, 0x1a014be2ad31087dU, 0x52f9e2b045db4219U,
  0xd46f7ff15b0cf4dbU, 0x222f51c6df8f928cU, 0x5a0495d0d492U, 0xffff6decffff32ddU,
  0x5df000007696U, 0xffff7ab9000042e2U, 0xfffff9dfffff35daU, 0x59ec00004a6aU,
  0xffffb79bffffb6a4U, 0xffffbc4e0000a74fU, 0x235900003e9fU, 0xfffffb91000097c5U,
  0xf7e00004f79U, 0x31a500003acbU, 0xffffa8fa00001c1bU, 0xb46effff9d7dU,
  0xffffb8cc00004497U, 0x46e9ffff189cU, 0x2f40ba000037f1U, 0xe7e17f8174ed0c03U,
  0x34147f97c0881581U, 0x2dc67033c0f2158U, 0x49cb986b7f42e223U, 0x9ad20d3dfde820baU,
  0x39e5fee27f249936U, 0x41dd4af623aca0a9U, 0x31d27fba06f52dafU, 0x8be5d430d2e21c7fU,
  0x57bcb30c45918122U, 0x976c6f272cd3cd6eU, 0x6c4167f4f8f8155U, 0xf91e930581ae9313U,
  0x17d44f5aec953d0aU, 0x54141581f2613149U, 0x81867083621689ecU, 0x8b00c9f389568fa1U,
  0x6d02d2aa705839acU, 0x909c2276ffcd16afU, 0xaefc4d518613410eU, 0xf48b91eb112d7f3cU,
  0xdbff8815fa120e6U, 0xe63166e7f27f3ecdU, 0xf30bd19f2c97ba6cU, 0x9a473e61a3a975c2U,
  0x7f55f463db061282U, 0x677e6be881d8ed72U, 0x5e819ed03abe3670U, 0x2181e6e29f7f7ce6U,
  0x757f970e0c7f7fd0U, 0xa07f8182dcd37fe5U, 0xc1613668dbd3d681U, 0x7f2aa14db11de7bdU,
  0x6107b60eb7cc135fU, 0x81f15be2c775d27fU, 0xbc81764aU, 0x20f0ffffe4fdU,
  0xfa900000632U, 0xfffff891ffffe4f4U, 0xfffff24b00003c37U, 0x1f1700001e6bU,
  0x1c0c00002eaeU, 0x1f37fffff06fU, 0x1156ffffe0edU, 0xfffff9ae00001240U,
  0xffffdb4bffff9e65U, 0xfffff3e9fffff64cU, 0x195a00000e25U, 0xffffdeb1ffffbb55U,
  0xffffe668000019bdU, 0x2ee500000c31U, 0x236be0acffffe8b0U, 0x5e797002daca8766U,
  0x9e05c4a5eb811d68U, 0x2afa400dc564b45dU, 0x6c7f7be7bdf8e4baU, 0x70afbb0891884b72U,
  0xf666ea771cbb8899U, 0x18293a9d5b295a98U, 0xc681129479f88c77U, 0x498637ec4692753eU,
  0x9abdf7bdd8615240U, 0x6c59935f022adc57U, 0x9790a9a5a599440bU, 0x26578b84d565230eU,
  0x30a0181fa461f3e3U, 0x1a6f491ac27f2a50U, 0x2253f5a3d41d5c22U, 0x79ecf6747f755ddfU,
  0x3126b47960814f46U, 0x3b4a20219b7ae8b5U, 0x2e26cee8e1becf86U, 0x3fe65ca9a8071cb4U,
  0x62c45a443181c381U, 0xe291026605c0a72dU, 0x32815b18e2a0aceU, 0x6e6973981be924d8U,
  0x1cf94a3524eb378aU, 0x86e8eb0e70084664U, 0x4381286dc871df81U, 0x2f21d8ffc8d1c3c8U,
  0xa2605971afd78cc0U, 0x9d4afa111ae263dU, 0xaaf62c9951616ca2U, 0xf179a55ee399ec9fU,
  0x49468588e62a7fc2U, 0xbd70799c0ef38fc6U, 0xdf5af5f8419d51f9U, 0x78995335ac529653U,
  0xee5ac66da25ba0e7U, 0xa3d37fe8946cbddfU, 0x3f109b7334c2132cU, 0x91ac98832fed00b0U,
  0xe1b5096717058161U, 0x25e29cb98f74691cU, 0xc07df4cd869c20c7U, 0xd7832be140a7ebceU,
  0xc5bcd4c1575fbf5eU, 0x60007fc8881968beU, 0x41ae27483f70e376U, 0xd3934c59eed2bd59U,
  0x91bfff493d7ffa70U, 0xa624faaeab50a936U, 0x575cbbc5e28a3e00U, 0x81fd5af4a8ece1b4U,
  0x29f6346382af10b1U, 0xf09921853dccc18dU, 0x732db52c5ad8ce9U, 0x884f5992ef633910U,
  0xf5417307bebb42f2U, 0xe0dba4d47fae884cU, 0xc8d0fd81c05e3829U, 0xd8c5dae070c1b271U,
  0x82a4678827ea2a4aU, 0xa96a2492d6e1f730U, 0xae527ff6ba587102U, 0xc4a8f397f88391cfU,
  0xb4afe9096eb47fcaU, 0xe61b716cb8f6c5a1U, 0x58a890837e1eb691U, 0x93fb7b69094f9fd9U,
  0xaef5da1b1be57455U, 0x1432e518cfdf487fU, 0xa5a1f490c62ee748U, 0xa24dcd228b5de7eaU,
  0xd7e9ddbab937780dU, 0xc968287f899afd5eU, 0x49781e0ed40c552aU, 0xf265202f25920572U,
  0x8f3f8bd3fc657181U, 0x2f947f4010ffde55U, 0x539b1a7471574beeU, 0x7c44b17d31c13b70U,
  0x38a89452ef2fa66fU, 0x4f43e681f15113b4U, 0x2994626c75a5eaa9U, 0x3115da3e7f99e27eU,
  0x2d4bd0a53c2685e6U, 0x5317525ab1d7ed7aU, 0xdac5e0949f84874U, 0xc7e864c2f606d181U,
  0xa852ed8905482c90U, 0xbce37435955598deU, 0x5831359dea742bf8U, 0x52ae2f948ad7994cU,
  0x1cb31e14aeb20c85U, 0x5025fe716881beaaU, 0x8f267bfcb40922f0U, 0x3bf7289693d9f7d3U,
  0x8b99617e34340e9fU, 0x9e5ecc6495dbb2efU, 0x5812d895057981b6U, 0xb9e87ffdf151e81eU,
  0x5daa8a58207ad2d3U, 0x3bb237be90506c15U, 0xc40761813c35f379U, 0x6021a0251e4afff3U,
  0xd9e07ee9bcaac344U, 0xc79afc3f2d30f041U, 0x52ad696267e80fabU, 0x55d0736c017fd460U,
  0xab20e53aefa319bdU, 0x887e2df779b1117eU, 0xfe23925f66186e09U, 0x715a72ebdefbc004U,
  0xc1fb0351630cc2eaU, 0xc8b7de3d647f73a1U, 0x22aec10017f3a626U, 0xa117c24dcec3d4bcU,
  0x17e1411c7f2f645cU, 0xe14197c37dba032bU, 0x3d0eff48b5afdfadU, 0xfe139d60c20ae38bU,
  0x911740c0f806f262U, 0x7462b3cf1725f662U, 0x1f715359fc02117fU, 0x5088eb7e9ab3d249U,
  0xda3e72a57a31bb37U, 0x14cb81c1a83fc272U, 0x1ae200a4008U, 0x4bcffffce70U,
  0xffffb8a4ffffefffU, 0xffffcd17000028c5U, 0x2e28000013f0U, 0x4ba1fffffac8U,
  0x55dfffff66eU, 0xffffe9cf00006e06U, 0x407400002d4fU, 0x20fbffffeceaU,
  0xffffcc62ffffab63U, 0x2600ffffa27bU, 0x2d4000003489U, 0x4bcffffcd78U,
  0xffffd0fdffff9472U, 0xffffdd8c0000177aU, 0xc4ece4cdffffdea4U, 0x5001b2db1d7447e5U,
  0x813304093f6218ebU, 0x52cc38533d08724cU, 0x8e9a7fc5356e8d0cU, 0xe9b2c5696222550dU,
  0x1c5804d4c0cbeb75U, 0xd02aa375c568e7c4U, 0x719a823aa1727b64U, 0x479781ced877006aU,
  0xa4af935c45b74911U, 0xe604402e8a0dbecU, 0x257828c7b15269ceU, 0x7f4b9549dabf1265U,
  0x214dd64ef4c262ebU, 0xf1795954dd001fe0U, 0x4b3e47f72990c23aU, 0xcd70e3a7e0f811bU,
  0xc8d2ff26c9f069b5U, 0xe4d20059eb84a890U, 0xf759411fcaabd140U, 0x9281a41d3d8a34e0U,
  0x21d53c45b0364800U, 0xb8bea2d5c4a7bbb9U, 0x392932d854b53ee8U, 0x9bab02147cd91d1aU,
  0x32151d5c7f770be8U, 0xf85d906e30dee5d2U, 0x19af68aebed3dd38U, 0x742d0954037207abU,
  0x1bb64f2b536aafd9U, 0x8133b48e53ba114dU, 0x4b1a57139ee6d353U, 0x3d031e6b430b7f1cU,
  0x8cde48a21255e2b4U, 0x510562958752e90aU, 0x93e54ebd6da34670U, 0x7f5a6b09719361a6U,
  0x1f50518ca4f443d8U, 0x1bfa7f2f6871f511U, 0x1d21c6c1de99d8cfU, 0xe9084416e2fd4494U,
  0x1d1ed2ff7fb9a3e0U, 0x7666c7bddc42bd6cU, 0x5de61b03a251e6cbU, 0x6901f938c6bd0c1dU,
  0x5702a981466c11e8U, 0x224fac2c8c9c302bU, 0x1e1cef951cecfbe7U, 0xd7812725899c358cU,
  0x714e1bff14164a8dU, 0xcf86908d931b5098U, 0xde01168759d615c3U, 0x3f2e319e37821657U,
  0x92059755353b814cU, 0x96e1429e7095a263U, 0x609b069361034ff3U, 0x6eb33a6dd70f35cdU,
  0x8f26a367b63b1268U, 0x1d1c4db463b3e254U, 0x59f900e789d5057fU, 0x5a1e381c78a9da67U,
  0x8198cd742b140c11U, 0xcf8ff9a3ec6fcf8U, 0xf2856af698e47954U, 0x107f3e1a639633d3U,
  0xd837db406126a80eU, 0xdfa7f03a6a1dd481U, 0x5a8f9a4ff7ece652U, 0x786e55d71bcd247fU,
  0x9feaaf3fc47f1b19U, 0xb6b60eef6da2f136U, 0xbac64e130c251decU, 0x465997f33ecf6c2U,
  0xbd9436b94075d4c0U, 0xdb0f3ed371c876c0U, 0xa469351212a34aacU, 0x50f4c5e6dce11322U,
  0xe9405824ef817826U, 0x9c631114b1b53a5dU, 0xce56a059cad50fc8U, 0xdc99157a62fde81U,
  0x1c601db958cf4e2eU, 0x373e28c75f9288f1U, 0x7a74540dabaaffadU, 0x764fb59be935fdf4U,
