/**
  ******************************************************************************
  * @file    network_data_params.c
  * @author  AST Embedded Analytics Research Platform
  * @date    2025-05-03T15:32:20+0200
  * @brief   AI Tool Automatic Code Generator for Embedded NN computing
  ******************************************************************************
  * Copyright (c) 2025 STMicroelectronics.
  * All rights reserved.
  *
  * This software is licensed under terms that can be found in the LICENSE file
  * in the root directory of this software component.
  * If no LICENSE file comes with this software, it is provided AS-IS.
  ******************************************************************************
  */

#include "network_data_params.h"


/**  Activations Section  ****************************************************/
ai_handle g_network_activations_table[1 + 2] = {
  AI_HANDLE_PTR(AI_MAGIC_MARKER),
  AI_HANDLE_PTR(NULL),
  AI_HANDLE_PTR(AI_MAGIC_MARKER),
};




/**  Weights Section  ********************************************************/
AI_ALIGNED(32)
const ai_u64 s_network_weights_array_u64[146958] = {
  0x33f52dcd66a5d3d4U, 0x7fb870a7b3f5a715U, 0xaecbb1f81581a323U, 0x9791149ec3a3c7abU,
  0xe6a57ffd07b74fb7U, 0xc0dfa311a7627557U, 0x448120f1c63e51c0U, 0xd2793985bbaeedcU,
  0xb997835fcc360023U, 0xbf5619d7047831fdU, 0xff868b2a5f6311c9U, 0x5c13f8819b2db61aU,
  0x1c365faa1e390060U, 0x390223154f76104fU, 0x46dc0a7fa5f7f713U, 0x42b11ff901402363U,
  0x7cb1af22875931U, 0x8d216d30f0a2e4cU, 0x378d2032e3ee9838U, 0x8966fcc07954d781U,
  0xc196eb9c361b7d1U, 0xe8442444ee653d9fU, 0xb34fd073537f08b2U, 0x11240db0ee646bffU,
  0x7a139d971dfcbfaU, 0x25d934e7c22fcd70U, 0x577f7de012adc922U, 0x67b8d2784f3bf320U,
  0x62ade721a7011907U, 0x2ea0d757f7ed9bcU, 0x7fc863ee32d9fa9aU, 0xfa546837e0ee3c71U,
  0x421f11733918adffU, 0xe103818be4e012b0U, 0xfa86b4049914bd81U, 0xe304b6f4e91762b3U,
  0xadefd6f3a48adbf2U, 0x2a4fbeb6077f396fU, 0xeb6c3adab53955c8U, 0x5aea4d3fb14c9f4fU,
  0xfdb11766072cU, 0x7837000069aeU, 0xffff7447ffff57e1U, 0xffff2678000023e9U,
  0xffff89c0ffff98d1U, 0x12fdcffff80bcU, 0x4d396ffbffff184fU, 0xd1f74e498a56e5c1U,
  0xa94a5d97e633b5c8U, 0x1c8e9b839ce9f110U, 0x22612606e2e2a045U, 0xee36ed30c20fc60aU,
  0x3ef24f17e5d5e0c0U, 0x6b69012fd3554569U, 0xf322f6ef8881e125U, 0x680a1779968c9a8eU,
  0xd2384521964afa07U, 0x89e5cba15d1dc1cU, 0x83124bfae3d33c6cU, 0x40d99da31cac3e00U,
  0xb4b696aaab514f73U, 0xc66bbb94bc406f21U, 0xbebd7fbd5ea072fbU, 0x62e48a10fcc80822U,
  0x8d63ed065b51be1fU, 0xa5ab7417d94843efU, 0x1f164d9ee821e4ddU, 0xc494315d6697f24bU,
  0xb0e591e9c6ea4a29U, 0x4eb71a302158b2c0U, 0xa7fbb624d6742307U, 0xfb9aa462fd91ce32U,
  0xc09a39e64e035b4fU, 0xc622ea9dfe2ba4c1U, 0xe7c601f83eef7f9dU, 0xdc019b71d655b9ecU,
  0x2cc6e4d158ceaae6U, 0x5843da2b5a9ca43aU, 0xa5aa0b2e18fa23d0U, 0x3ac3b2b543ced549U,
  0xc2e2751745feeea7U, 0xebc8ee46c3e10a5bU, 0xe820090e4c416ed0U, 0xf2552e8364207deU,
  0x54f75128a66ea92bU, 0x12de0362cb829a0U, 0x7b969bcbf152a35eU, 0xc0b63a2d216da757U,
  0x431f5920c2b2daf5U, 0x9d62a60e1c43bc3eU, 0x94f8ab21e77ff034U, 0x9aa65e56f9d030d2U,
  0xd128389098ff31e1U, 0x891ce80ca3ce3d91U, 0x4a4ddc0dc6bb1020U, 0x212d8fa822014bfcU,
  0xd4cd9ab08e63b728U, 0x99edbe4e1f393eebU, 0xb041c1baebaed41aU, 0x538b3869a5662946U,
  0x62fbfe6309990daU, 0xa83ef3eb6086ed2U, 0x2ca4071645fdbc2dU, 0x59758cc9ded561ceU,
  0xb762d8d4bfae9819U, 0x615b1cdf634e3b0cU, 0xa60f39ce95c424a4U, 0x6039ecf809c456baU,
  0xdde253b9dc7718aaU, 0xaba15246b5311698U, 0x17ab386a7387d364U, 0xe362383e01b63720U,
  0xa7c557122f289eb4U, 0xf10e147f3e6e523bU, 0xa03bcc335866c005U, 0xccb073af49a3eeebU,
  0x3a587ff9b0cb0bc4U, 0xc92cd5fb6c33191aU, 0x2252b7e0557b46a7U, 0xb0904cd33fc1bc4fU,
  0x21369a430ebec901U, 0x25059741fee072e1U, 0x6a28df2c91fbbfeU, 0x68660a9d8b2a9028U,
  0xe4100bc9605a426aU, 0x4b70f79e20e5b411U, 0xca92b22e153c5b1fU, 0x6e271d59c60b251cU,
  0xd431aad0b178a0d8U, 0xc0ad97ad1e40482eU, 0x4532ce590a9e3be5U, 0x18c45e5708df0bfeU,
  0xdf1e02ac9bcb87b5U, 0xb8930989c48befb7U, 0x49128bd5b78d5019U, 0xc0450df17aa965adU,
  0x12eafd6efb916b0fU, 0x88b6ace96dd0d4a3U, 0xff91396b268556adU, 0x95819336e6c9f536U,
  0xc1938804c509459bU, 0x9c9d5b811bbc1d69U, 0x46fe2dc940f4b159U, 0x50b2a4a3f1d0334eU,
  0xb3bdbeb981d15aaaU, 0x97f5e3e1ba61c632U, 0xcec18ac65e1265a6U, 0x9f27e3b92c4dcc46U,
  0x81d6fff058b194f8U, 0x1a3d9ab3c1dcacf6U, 0xa78cfa420f1be158U, 0xe6bdf4471bf30aU,
  0xb2aecfd9630ef2c7U, 0x3dc04bf522a6d331U, 0xdd92adc1abe94aa4U, 0xe14c4299f2fb3139U,
  0xe7400a68e029b05bU, 0x1c2be4b411ebb620U, 0x2f964cfdaff1a56bU, 0xbeabdca4e75a8f3dU,
  0x12e3549ae5631f0fU, 0x4102a5e43681e760U, 0xd30be0f7c526025eU, 0xfbee33beaed0c7c0U,
  0x2aee3b201036a191U, 0xff0fc6176c2e344dU, 0xbb64440baec8adc5U, 0x19c9eac2d350100U,
  0x27ff427b5a125e3fU, 0x32d01371ccdb5dedU, 0x5a07ee5ffae0ffU, 0xa3553efc1ee360ecU,
  0x11eac9696f521371U, 0xeb01c339dd1f692aU, 0xef6d1eeb766841eaU, 0x7ffb1aaad69bdf0bU,
  0x65debba0b2c4a94bU, 0x5a5fcb1f4992273aU, 0x6aff31087c07fdbfU, 0x9154db70288fbf2bU,
  0xfd9dfe941de004b8U, 0x4115cd669fe7242cU, 0xf843e798390bae08U, 0x305b27392ba7bdc3U,
  0x9dd09c269d9f3bc0U, 0xaa6e14ce3e8b660cU, 0xd1c9e1d251915779U, 0xcced40738be30945U,
  0x5943babab8dad9daU, 0x4f813cc10ee417c3U, 0x93bc3250e5a9fe48U, 0x6026bda3bdd0ff05U,
  0x2f228aa3ab4f6d5aU, 0xd2c9993ca42af30dU, 0x58edcb185fd76550U, 0x3e20d8111bca2d36U,
  0xe35d0145ae5a98edU, 0x4b1fdaf644f07f22U, 0x4f207d2f731f63dU, 0x13e5b9ddef26fb97U,
  0x5051e266b95c4a45U, 0x9513dfdfc80fa263U, 0x11605e41b5502f27U, 0xd65b55b396e7401eU,
  0x19247ef84b40ffd5U, 0xeddca704fcabecfdU, 0x4c08d03394210eb5U, 0x1088fabdb413ecd8U,
  0x1b1723b839bf1498U, 0x63037ae4db8b132U, 0xd020e82b56ed0b53U, 0x546149265f05aeaaU,
  0x3b31e3a9c749fd65U, 0xd9bd0f606ec5b855U, 0xc93f695012e74cd7U, 0x680ea03d6415c94eU,
  0x45ff44d257597fc2U, 0xd2bcc7ddfa56a130U, 0x4b560ee05abc0fdcU, 0x37e3eaef1b27ee31U,
  0x43b31b5d9bbe9c28U, 0xd3512b09a5deecf3U, 0x235b633dddd43228U, 0xe3d322466caf2e4eU,
  0x5f0e65de1d9dc34cU, 0xeefbaf96c9d4b4efU, 0x53ba13ea064df010U, 0x5627f12ce65efadU,
  0x463053ba3a644526U, 0xd724bb52f10e0501U, 0xcd0830a333ecfe3cU, 0xd60eb56670433f06U,
  0x59d108facf8e5069U, 0xfaf49dafa439e2f2U, 0x4d10a2395a1f21d5U, 0xd7e47df1e0a2f502U,
  0x259609fe4b272ddaU, 0x30fac191cf1d1b01U, 0x9ae0204aafc412f0U, 0xc447ae8f1c89ad0dU,
  0xd32160c9f74b61c5U, 0x6d6e3f86964230bU, 0xc50dee2ba08e3a25U, 0xadcd449128efda29U,
  0x4c48b2d5f6c165b2U, 0x50edeb698f367f20U, 0xec43a858f134d6a9U, 0x12c519615ad75d82U,
  0x18bbf7e124a44d21U, 0xa6615a90f1640c81U, 0x96973815f63fb0ccU, 0xe0d8d3b06b2c8fc8U,
  0x51cbf837bdbdc339U, 0x5ca19d4f382365d8U, 0xc5ceb3a349dabc61U, 0x17b384289b5811e1U,
  0xbc1b19a5e18d9d3U, 0xc10746563bd10956U, 0x7e70b6826ed38aaU, 0x10fe1d471df9f9a2U,
  0xbd0fb8bdbb64aeeU, 0x6615f304d6020cf6U, 0x3b287991b6ceU, 0xfffffb44000031a9U,
  0xffffd524000097c4U, 0x15b19ffffb53fU, 0x515700015b0bU, 0x5d2effff101aU,
  0xffff1eaeffffb110U, 0x2f6cffff4a0dU, 0x8c6c7f9400009b09U, 0x76187fcd1bd78139U,
  0x9c33ae3ae95dadddU, 0xd5128f310204bb88U, 0x81b9077f933a9aa3U, 0x8c996fdb62813904U,
  0xd35b9b267f14819aU, 0x7f5e057f03c2a77fU, 0x255021d303a533abU, 0xec903f14afd6972U,
  0x8ae0e80ddfd5ae86U, 0x697f4e0ff8f50326U, 0x4fa4483967393417U, 0x3071bbff7f5e3de0U,
  0xcf7fb714be6e607bU, 0xbd089cd6dafc49f4U, 0xd6e9349fb8a39562U, 0x2ac89306e45086c7U,
  0xfffff5b00f7f1f7fU, 0xffffd2c9fffff77cU, 0xffffe958000060f2U, 0xb7d00000efbU,
  0xfffffa96ffffd366U, 0xffffdf2300000adcU, 0x8f6ffffdd54U, 0xffffddca000028fbU,
  0x22e7636b0000051fU, 0xed8f368be97f21e3U, 0xb3926b7a4bd70d53U, 0xfb604c6ec6966281U,
  0x40c72231dacb20dbU, 0xf5b681fc2f41e87aU, 0xdbfdce37ea0b2870U, 0x8101a63f5fd37a05U,
  0x7fa3bbc74fb7d414U, 0xc4dbbcfd055b2fa7U, 0x68637f20c5b14a47U, 0x97603720e7cafb58U,
  0x209594289ba998efU, 0xbd815082b4e2fc54U, 0x8329b21076086b0dU, 0xbc67e62f3e9c8158U,
  0xcfadb8c7f34b097aU, 0x81de6e160801ce09U, 0xc9147f2cd8ed2c6eU, 0xc6dd7299a0c4b8a1U,
  0xf479f63ec93a9b01U, 0xfc92654c7f38ebceU, 0x74f09a43a156f08fU, 0x6865d3f81253e12dU,
  0x6ba01cc7e4417fbdU, 0x71829313e7b22ac0U, 0x4db12baa7f5124abU, 0xe44d5b7f0cc04358U,
  0x7b1e811ad15c59a4U, 0x5a4f8fb22d2888d8U, 0xbd2a237783812a4aU, 0x6992a9c3bd16cc77U,
  0x11d29c2381723218U, 0xeb7f51a28bfc6e4eU, 0x812a257d10147aU, 0xb922b0c10af382U,
  0x1255da0b0afeedfcU, 0x159e14937fb09c79U, 0xdb1372ac5936c6f8U, 0xeda8380ed830cc9fU,
  0x44a2009f34081d7fU, 0xf2d5f41869535062U, 0x9005d93f81ea1047U, 0x4257713244d57195U,
  0x2ed4368d05367f90U, 0x616d50fcfac97f07U, 0x2400737e0ef31ae0U, 0x367b7f67ce008288U,
  0xdbf65d46daa46075U, 0xccfd93f0692b9849U, 0x26bb616c88207f92U, 0xd645a80072857d7fU,
  0x24ab249f38ed434bU, 0x7a7e37fd7fbafe86U, 0x81df991a691537e6U, 0xd3b5c7a6b3d0f362U,
  0x11810eedc0c81b56U, 0xf7d3ea62cadc2cb4U, 0xfbf72f358a1319d3U, 0xeef30c0542f207a5U,
  0x6359a4eb3456c7fU, 0x46187fce44775965U, 0xbec176d98cbe4453U, 0x3481a713628f3b8fU,
  0xffffd4acb3f6cfdcU, 0xffffc73000001ef4U, 0x2cdb00000a2dU, 0x3adcffffe6c3U,
  0x43cdffffffffU, 0xffffbf5100006f80U, 0x15c2ffff6660U, 0x44cffff9aedU,
  0xffffa6c8fffffa42U, 0xffffe32100006f5fU, 0xffffc9e200000f3fU, 0xffffb176ffffa852U,
  0x45ffff9cabU, 0xffffa7b6ffff7d87U, 0x5c9000008c9bU, 0xffff5664ffffc265U,
  0x4aa20af000073a3U, 0x7f8801c8b8048d6aU, 0x15aab77208188f79U, 0x1823935e56cf9dc1U,
  0x93d6ac9acce6a9f4U, 0x85a40cb9297f2000U, 0xeff7fcb3eca58900U, 0xd2f72c09d6422fc4U,
  0x358e86b74260dd59U, 0x4bf519e45caf18U, 0xecd76682504dcae9U, 0x1fc5bcf47d7fa776U,
  0xe23af3bc7a46acc4U, 0xbd14f942aff91635U, 0x9912d8d2c87fed8fU, 0x1af20e3bac5c991cU,
  0x9f59e0abb9099443U, 0xf0e5b352a6895793U, 0x34c08ab8cd42ba31U, 0x42bd4a7f1000dd36U,
  0x65aae074bd5873ecU, 0x4fe20358393c2475U, 0x3b4727b09c324616U, 0xe69c2fd69fc2558fU,
  0xfffd33a37f40f056U, 0x248143a1e8101646U, 0xb62fb13f06d1a747U, 0x3c0f900af887ff58U,
  0xbabc4663f9148655U, 0x4333f027911a5b7fU, 0xf56016aabf6013e4U, 0x723340a6fbba61ceU,
  0x98d2fdcf41508ba3U, 0xda0f0f067108cd53U, 0x95697fc1e5c9c7cbU, 0xfeb4acf2dcfcb473U,
  0xe6921b41d9e1b52aU, 0xdf42c1137709f989U, 0x420e6093810e61f1U, 0x747b2dc5ff3a330cU,
  0x7b629af54a2bc0ebU, 0x1aa96735810af6e8U, 0x836d298294311c48U, 0x26203729b7f9a0afU,
  0x3e071a7fa500bb72U, 0x79a609682db43fd9U, 0xc6eceb37d695b0e3U, 0x7b6ff830d735f439U,
  0xd95afac640c20745U, 0x6de1bb1d3dfc861cU, 0x1c8ecaf1d1d83e06U, 0xa4b43c9e59038462U,
  0x8a78ec767f1b701eU, 0x4244ef881109ed6cU, 0xee06b2d63852a39cU, 0xd4c47f2cc57e0a09U,
  0x74811d5b75a0dad2U, 0xfc66c0e12e4f0128U, 0x339952fd31e24392U, 0x8cc8d476cf6c7a0cU,
  0x4936c6641469f58fU, 0x23bbe289fd88ef63U, 0x7269e39c318b7f41U, 0xa725c2284cdad4ebU,
  0xb2cdc0acce24U, 0xfffffadb0000a75cU, 0x6429000083bbU, 0x6a81ffff27b0U,
  0x9afdffff6bc1U, 0x3f4affff71beU, 0x13bcffff57e6U, 0xffff6be4ffffda3dU,
  0xc3dc9a9600002c37U, 0xaf036cf062ba09a5U, 0xd4a0ad489150f9dcU, 0x67fbe10ef38f649U,
  0x958afd40dd11d704U, 0x856b27794f76c8a4U, 0x9164fee5c82ee768U, 0x49e54265eddb7076U,
  0xaa4f8fd6b4587f06U, 0x4abb1600096eab2eU, 0x3681e75d6e01e28bU, 0x78144dfdebaf5195U,
  0x2fda2f4a5674f804U, 0x57571639d3230a73U, 0xf2d16c9be776de3aU, 0xd8493b1523eff614U,
  0x5344ffd9b364377fU, 0x7b19d0b550667f97U, 0x30cf0f0874cd4a88U, 0xe821524820cbb5f1U,
  0x7dba909433b168aeU, 0xf0cf35d80fbd8aaaU, 0xc6c467082fdca6c9U, 0xb17feab36ca803eaU,
  0x9227f87a7ed91f22U, 0xf0e72ebd464174b8U, 0xf07c1c5a459db17fU, 0x9ff7d4787a474724U,
  0x9008814b456720d8U, 0xa18bf69b61cef81aU, 0x31247aca2e19a5d9U, 0x1a24fac06bab559U,
  0x2ebcb3c8d79fc342U, 0x135cb4ec504a65a7U, 0xfa3c2a17ead15050U, 0xf3286330a6815bdbU,
  0x45203e346fad168aU, 0x2b68f154dd9fd466U, 0xa140943919e79f33U, 0x2eacedb9b7f2ca7fU,
  0xca2eed88556d61ffU, 0x99363ab8e774cd36U, 0x77039ec2413bd933U, 0xb8638119c8fff63eU,
  0xd0bd14fcef1050c2U, 0x5375096e26d6f96bU, 0x2cfb811388e23a25U, 0x6d0e377ad1482ca6U,
  0x3f6084e49b4638dcU, 0xd4d8cbad13930034U, 0x43a727843de2eb5dU, 0xd69881b411d945b9U,
  0xa96f96574b69215aU, 0xab16d0846a6d4d24U, 0x107f35ecc28999d5U, 0xb1a5739dde0cd32bU,
  0x3c5d727d5c9e56feU, 0x972c6bce388af8cbU, 0x13855fea1ae6d581U, 0xa4fc3b987eb6e4d6U,
  0xdeb940305b01e331U, 0x757fdb108da5f149U, 0x77bd5fab952064f5U, 0xcf6073a24dd9ad74U,
  0xa08a75de5c85U, 0xffffc831ffff342cU, 0xffff670afffebc07U, 0xfffeebad0000b52bU,
  0xffffae210000e546U, 0x1c98ffff8b14U, 0x713cffff52c9U, 0x10d400004120U,
  0x877f5362ffff872aU, 0xec42549e12e14100U, 0x4f75c19c0c16f9a5U, 0x434d9184f909b77fU,
  0xbd7d7c826744056bU, 0xfdd4a469fd6de481U, 0x4487ab34b8bd33a9U, 0x7efaee467115a2dcU,
  0x7529ac81e6e28165U, 0x836943b96e4631ecU, 0xe5ccfbda8da6a72bU, 0x421e5d767f643ec4U,
  0x1c690ed0f9d57526U, 0x30e07db2e4feebbU, 0x22ddf8d504ec7ff9U, 0x4e7fb06e4fe6e9b6U,
  0x519f14679ef4fbaeU, 0x908102e942cf1e7eU, 0x3fb6b8e200585ad7U, 0x87c0b5354b8f8164U,
  0x1840bfd9a0bbf7dcU, 0xdc709c7f86a5227cU, 0x6ac222813ca09398U, 0x7984206824dd0aedU,
  0x232ccd2de07c69f9U, 0x818bc06bbd04893cU, 0xad522e63aedf7940U, 0x2ca36227ce865510U,
  0x499ba984b7517f8bU, 0xddebf152e624e77fU, 0x6d9f0de6a243e3ecU, 0x81aceec3a8b02817U,
  0xffffc41893f2e7a9U, 0x31abffffb9d8U, 0x2b01fffff2aaU, 0xffffb45fffff5307U,
  0xffffcbe9000008cdU, 0x4a550000a639U, 0x36fdffffa910U, 0x3cd6ffffbb77U,
  0x1f64bc0a0000c018U, 0x81ceea5c5ac681dbU, 0x898bde2c9a0037bU, 0x65e77f9352f3153cU,
  0xeb32bba3426da597U, 0xc07f37dec5d47081U, 0x6fb507f5e819b60U, 0x4ccc19211a3bffc4U,
  0x5013ca5597ca95cdU, 0x5ed6c25307de561fU, 0x7ff7814e2eff52c9U, 0xcd3c1636e07f5cafU,
  0x3f270602982ce857U, 0x7314c9b1bd65a786U, 0xb80f90b17f2a933dU, 0x4e636c81bc89465aU,
  0xe97f37f8d2f981c6U, 0xe211fe7381c8d5c5U, 0xffffd72194cc7b81U, 0xffffb70d000065b8U,
  0x9125ffffba78U, 0x12f7ffffcd30U, 0xfffff899000024b8U, 0xffffb7acffffc334U,
  0x544ffffb8ecU, 0x4541000082afU, 0xec81d15500002773U, 0xb8ce67878a625d6fU,
  0x33fe93a3aa154c1U, 0x91285aeb21b80fb8U, 0xb54e61217fced2dfU, 0x6b810c524b3a7378U,
  0x1608c6d06e327ab6U, 0xf97890aadc7f7ef3U, 0x845de5467f33ba60U, 0x1dff8129f2d46920U,
  0xc61bbb7c135155edU, 0x7fca4ec6f71134a6U, 0x7fe64b1e416c212bU, 0x3e71a14c5c01f23cU,
  0xec98ae0fae81e1b0U, 0xfb7f6c2e365fea9dU, 0x919fd9824feff061U, 0x667fd51457fb5d84U,
  0x8191f6f85bed845aU, 0xa12e9e159c975f21U, 0x3e9c30acac19b98bU, 0x3fc7074e550774e5U,
  0xba49544b647a7fbaU, 0x7f09c56f01b45a88U, 0x36e2587f30b265bfU, 0x393764708260dd16U,
  0x4b63f333e5831a1U, 0x6c1c7bda482f6eacU, 0xf1ed150e6c819635U, 0x2e6531c32fddb71U,
  0xa1a336ff9681feedU, 0x1a812d054a22284aU, 0xf73caa60fb2U, 0xfffde923fffff761U,
  0xffffaf43ffff8544U, 0xffff9d18ffff3574U, 0x5344ffff7cdaU, 0xfffec64b0001d67cU,
  0xfffe85a5ffff95d1U, 0xf38ffff3d05U, 0x43277f640000591fU, 0x2677ac1b3a09dd54U,
  0x8381c02add9eeb4fU, 0x6e2a2b641d7af59dU, 0xe13ae7ed16b9dce1U, 0xe37ffdde57e2a750U,
  0xeaff4e7f84684b36U, 0x9d1757bd9d62c9b2U, 0x149a01f886bb1b8U, 0x99811646e804f94dU,
  0xd98a9909ddd397b2U, 0x913e7fc41a89e6a8U, 0x3da526e070bb36e9U, 0xbaaa013c6d94bf51U,
  0x1538cc54d0137facU, 0x6e5a81fb5b31b08fU, 0x5a3fc924b51aecaaU, 0x5af782e8977fb488U,
  0x7f7676dc1bd28623U, 0x7bec772b997bc40U, 0xe867f6f0f9cbfb0U, 0x34d8799d9bd0e704U,
  0x1b1a1eec9d351187U, 0x24ca818e56180da0U, 0xab2da34cad2d83a4U, 0x888681a07098a397U,
  0x281c99db079bd198U, 0x62d8b102b27fdd86U, 0x2252f481cb735823U, 0x629bf24b1d48fa54U,
  0xb39d54a287c6690fU, 0x9f3fccfe13c581bfU, 0xfffecf7546b4f018U, 0xffff85a800000970U,
  0xe06200006188U, 0x2e570000d8b0U, 0x8ecf00000823U, 0x430400003153U,
  0x23f050000fb5dU, 0xffff9dba00001502U, 0xa4da813f00013327U, 0x3117acd8f5afff6bU,
  0x9d7f5892304fbaa4U, 0xe7f7f98187f7913U, 0x956326377f381b7fU, 0xd05806defbbad981U,
  0x36cc4fc099efe33dU, 0xefefc23c7bb7fa3U, 0x2a5db239217ad32fU, 0x81d60307e5c8ed1aU,
  0x8108437fb67f5856U, 0x4803ce314d5beec0U, 0x53969b9b3d270df8U, 0x9362c01b560ef4ddU,
  0xad59bd9825bd3febU, 0x20198d81b5ce1d66U, 0x647fdbe2a21f7f46U, 0x81b36d0581eaac51U,
  0x31f27d08d460U, 0xffff888600002b3aU, 0x3d3000047f8U, 0x2fb7ffffd85cU,
  0x33ce00002cc7U, 0xffffb3b100000ce6U, 0xffff8f1c00003f7eU, 0xffff884bffffdd5cU,
  0x36e5f3c1ffffd4d0U, 0x81207e9014c2c8ecU, 0x3af4661f28128e07U, 0x794531aa7f5537dbU,
  0xc0bc3c9e884d31f1U, 0x3ff2bc99c2dbfab8U, 0xba674ca45d7f95c9U, 0x565fff4c6e9f857fU,
  0xe6f8ee83d749a801U, 0x468c813b228a4c1eU, 0xb39f7db63c8972b2U, 0x25820f7fa61b0483U,
  0xbc813586435a2af4U, 0x17fc16904a903a8fU, 0x1e0287b2e6bfd624U, 0xc30c40106b37adaeU,
  0x45b589d5633b812aU, 0xc95d50dfcb613b81U, 0x7e33c555ad5cc137U, 0x2dd181c24fe5094fU,
  0x3020286e92ac392cU, 0x6ad6b3d4b7631a2eU, 0xbe9dde57f58124b6U, 0x6591cb04812ddb47U,
  0x81d9f2170149681cU, 0xae3499361ddb057dU, 0x90ff53aede2b8fffU, 0x6193f2f596544f7fU,
  0x9644aafbb475e2d7U, 0xb0584d0ef3c94e8dU, 0xbfbf372297fec58U, 0xcce01f3a818feb78U,
  0x934305a48c72U, 0xb21affff0a36U, 0x8d06ffff7ce8U, 0xec740000312fU,
  0x30d9000015c9U, 0xffffca3dffffde9bU, 0x64580000209bU, 0xffffcd0e00000974U,
  0x8b79037a00002b9eU, 0xaaee8c857fd393e7U, 0x38124ebd74daa32U, 0x2da85de954824754U,
  0x1f62b94aa6924c21U, 0xdfa3e275526e70fcU, 0xbad3cd47908a281U, 0xdaa860997c8602e9U,
  0x97cbea817f871c6fU, 0xf97352cffab2d677U, 0x819d9f9c7379619aU, 0xb512202cd2e59ef8U,
  0x24a6813c03b0e3abU, 0x4b61e24abec5e27eU, 0x52e09b42e991ee40U, 0xd01f9d7fafe50200U,
  0x7621a6feab3b9eccU, 0xcae747b65cdd218aU, 0x4600641b81a9677bU, 0xc07a97b7a4aa9ecbU,
  0x77c5d3dcd67fd2d7U, 0x334681784f8b6bdaU, 0xf35e8f05ce5ce21aU, 0x818dfc0742d0146cU,
  0xb67696d1a20e50e8U, 0xc7eee391b0813047U, 0x1e375b5a3b1a8bd3U, 0xe288e9217f3ee8c7U,
  0xda20c4a07506b31fU, 0xab1c1c1eea0698b4U, 0x595a207fa73081eaU, 0xe43ba124db184ffbU,
  0xd0c9e8289923U, 0xffff1f1700001cfbU, 0xffffe6a000002ce1U, 0x17910002457cU,
  0x1d990000c61fU, 0xffff83d20000c683U, 0x19a1e0000713eU, 0x19378ffff0d1cU,
  0x7f817316ffff0d46U, 0x6cc1368481a7f2a9U, 0xe2e57e1bf86d9159U, 0x8dd4b75aabfcb808U,
  0x6a6bd162fa385923U, 0x95720d5096632fbcU, 0x28e6308156666d3dU, 0x81812b3ba481817fU,
  0xb8c3acd916b36a0bU, 0x579f3eee69b2740cU, 0x75fa8be12cc58137U, 0x1d9fd0b055b4c948U,
  0x1100f095ad1868f8U, 0x32d240574b5881c6U, 0x391b8118577f82acU, 0x2dd07f812b375736U,
  0x25510cf195086218U, 0xe64955b1420e2ac2U, 0x2a5f7ff9df81U, 0x18bc0000183aU,
  0xffffeafaffff82feU, 0x1e1f0000234bU, 0x1572000006c2U, 0x4985ffff9fbeU,
  0xfffff61500001a4fU, 0xffffb6ffffffe246U, 0x14fd8fddffffd66fU, 0x49611fc3162b2e9bU,
  0x5c002ff581a7538fU, 0x81aafb3d024fb2d3U, 0xaf1405124a27d24eU, 0x81d505225b5b678dU,
  0x4c92a2ebd304a9c5U, 0x39e3e558e8627f08U, 0xf0dd4da86302aa0fU, 0x2d7f1ff061bb8302U,
  0xc6603d04647fa30aU, 0x69c8e12b7b31be42U, 0x7f8e5243080c7fceU, 0x5eb42c3e0418d1c7U,
  0x3a20dfb123aecc9eU, 0xac9fbeeb7f3a5004U, 0x43842e8eaf042222U, 0x626b2ae6665c56d4U,
  0x9b0af85ab57f0c1eU, 0x220090d3558d40f6U, 0x9ae0dcd32a77811dU, 0xca8c68f94aaecf58U,
  0xf60c47f867fadbcU, 0xca00d3e265a84557U, 0x42ebce9bb28b0498U, 0x987fedf1a4d5120eU,
  0x228a24b266b6fc8bU, 0xf8ff9fa28763dc56U, 0x42e832f48177f6feU, 0x61761ed3acca819eU,
  0xb179ef6af47ba064U, 0x6618d2a73c815b72U, 0x6ea65713a1dbU, 0x5684ffffd850U,
  0xffffa72cffffa31fU, 0xfffff5e9ffff3bd5U, 0xffff0fba00000f53U, 0xc5d500000bbcU,
  0xa7f000002102U, 0xffffdfe700009f6cU, 0x940981d2ffff8ffaU, 0x510ed6d3372f8a97U,
  0xee69051819999f68U, 0xb86a6a9b4f9673baU, 0xc546912138d0240bU, 0xa1029c64ef569750U,
  0x8797e20cb67fb555U, 0xe6f396c127462366U, 0x81e047ab18f42205U, 0x5d9b3e76e8ddd73fU,
  0xa3023fdfa3ceb4abU, 0x5d1f28b2a901219fU, 0x110fd0245c8bebc1U, 0xb7f1f526dfb406cU,
  0xca0d83a671de6a3aU, 0x298d9f665d515734U, 0x2f06ceec43c4fdf0U, 0x392c20e7ade4fd92U,
  0xaa136a042bcaf94eU, 0x4d9eab030868d481U, 0x29f4e629884766dcU, 0xd12e75a1f79001aU,
  0x844682826f1b940U, 0xe52addfbbb97f32bU, 0x59a99a1e8108c5d8U, 0x468f756d9efc0a5cU,
  0xe756c55248fca7b7U, 0xdbb530832e81ee21U, 0x9e8f0ae62a678ac6U, 0x8156990cd2e07299U,
  0xc21b61d3944a3d57U, 0xc91d41914a67350U, 0xb3287fbee3341dc0U, 0xd9fd9e02a4733afaU,
  0x5e3cb0a356c6d2f3U, 0x90d1e4e5471023a4U, 0x2afd7efc2ad50ed3U, 0xd14268e6bb8581d4U,
  0x596c9b168fece5fU, 0xcd54dc3fcf204636U, 0xbef94c4f34725a41U, 0x4c6303c40bd539dfU,
  0x713f077f1f279faaU, 0xc115f2e80d58a81dU, 0x3e05818bec9908aaU, 0x433284da3c932028U,
  0x787ad07ffb570700U, 0x2c937baba835d10U, 0x89387f9a4c267944U, 0x889eb0f52c3433c3U,
  0xbbf04a6065b18511U, 0x4a62ec3e4a90369fU, 0x3d73f7bc8f609b40U, 0x45091e50a8712481U,
  0xec7ba3237acc9d74U, 0x1cb8e38124b03b92U, 0xad7eae4acf5c3486U, 0xebc6e2b7f699447fU,
  0xf969246e1c14fd51U, 0xfb88f2608cc66eeeU, 0x188fcce28fcca2dfU, 0x95ad4f33f38cd0b3U,
  0xb4abca4d1ea4d9dU, 0xb481a57346d631afU, 0x24d3a86e75b99ce1U, 0xa6a9dc597fd0594dU,
  0x5044ce162f278ee4U, 0x37b39f4bd903cb05U, 0x50d54e54d60e08b3U, 0x8a1de9c01b494279U,
  0xae1d5fd8ca0ae8feU, 0xb84685cb38b4a0d4U, 0x2a6cac00b37fe162U, 0x528b5f7a68fbb38bU,
  0x68b9aa9a8e602fdfU, 0xe97fc8342ffb21c4U, 0xcce3e9dd431a7b49U, 0x5d7e533f06f7812bU,
  0xd21a8d5ed3fcda58U, 0xb1f7dfec7050cdbeU, 0x3fc3f652e3a48cc2U, 0x754528fe6cd77da1U,
  0xffc633bdcc56559fU, 0x2918466e3405fdd0U, 0xe68ccf6ad73881dcU, 0x84fe520ae7a78ed7U,
  0x2e9306817215feb6U, 0x9b835f915cd0b601U, 0x5c8156f69c076419U, 0xf4365c5b10f63e46U,
  0x63590fa48a57639eU, 0x338b18894c6d3a63U, 0x714568ac3a234195U, 0xc7000a14a321766fU,
  0xfa6622f5ec8736aeU, 0x12ba29522d15b5acU, 0x7bf3e0257f1f51a1U, 0xac427f64919253f9U,
  0x161dd442158e9dbU, 0x174b9ca30f3b3962U, 0x547662e129529adU, 0x6a0b6c780bef425dU,
  0x8f2f396a6ac942f1U, 0x1ee87856eb9d5a39U, 0x5aad2cc646c817fU, 0xd80068ef4413b767U,
  0x94eb633b4ef2ce7fU, 0x8ba55e4a1a40b40eU, 0x8f98c79cb866c669U, 0x668ab3747f47f5f3U,
  0x90739322fccb95d9U, 0xb5a3a001cc5a96e3U, 0x9f8e4c59e557206bU, 0x81cced75bfc5639dU,
  0xef34fbc20cc7b122U, 0x2374e8c7c04a05ebU, 0x81b885031bf08c48U, 0x3b2242f757a1556fU,
  0x4adbacb5b2c3b21eU, 0xf14117b2bd2b618eU, 0x4dcbc71dec73a459U, 0xf0e8d01e26b27feU,
  0xa35d740d051c9ce3U, 0x2a55c04854c92ff4U, 0x6356568a8c811e91U, 0xde156f0a469faa51U,
  0xd1e881b3a786eac8U, 0x59b1e6dd18fc0eccU, 0x1502cb8af0411U, 0x1418700004966U,
  0x5347fffd8403U, 0x190fffff0e52U, 0x76af000100abU, 0xffffa793ffffb349U,
  0xf57400000fa0U, 0x10ccffff4800U, 0xffffda4700022545U, 0xffff4843ffff5ddcU,
  0xfffe9542ffffd607U, 0xfffe60a60001631fU, 0xffff2000ffff43b6U, 0xffff7bf3fffce079U,
  0x10b7600016879U, 0x3a45000091d2U, 0x6b7116b000009f69U, 0xc9c988597f4e1530U,
  0x7f570e2181f074b3U, 0xac81bdda91e77fdbU, 0x217eb41bb85b6681U, 0x8740a4e9f3c8271bU,
  0x37de7f796c2de1abU, 0x48876c128149d1f5U, 0x1a70bea7b2c47f96U, 0xb26a74e8db7f1501U,
  0xd7bc293b298241dU, 0x91fc7f271ede5a0aU, 0xa7016af012a3e1f5U, 0x4181c52a53aff141U,
  0x3bae86bc451ac9ebU, 0x370c21c437f52a0U, 0xa0ef01af0600ed13U, 0x17cf9d49c9ba7f65U,
  0x1175e59bcced7f22U, 0x10f84d4ee443e47fU, 0xa66861cae25ae45aU, 0x81bcbb2a3fa5d709U,
  0x17006b17f581c10cU, 0xc7241ed035bf01f5U, 0x185881ab81f4c37aU, 0x1dfba7d65851ee72U,
  0xc1f95eafc777f950U, 0xfe0417df88eea357U, 0x7f46b57f69f8c356U, 0xbc4d38810fe27381U,
  0x917ff781a5953b7fU, 0xa8d55cfeeeef55bbU, 0xa0818bed4d81b913U, 0x1f127f47c06ba4aaU,
  0x4c54a9afb498c377U, 0x816d218150f3469cU, 0x588ff7cc0c83U, 0xffff60c10000597fU,
  0xffffcf1500000a7bU, 0xfffff600ffffd454U, 0xffffd48effffb0eeU, 0xc400003f7eU,
  0xffffbbc7000048b4U, 0x4a69ffffe2a9U, 0x7eb30000537dU, 0xffff8f22ffffecbbU,
  0x276cffffbac3U, 0xffffe021ffffb726U, 0x20a300002341U, 0x261ffff9434U,
  0x1d7900006819U, 0x354700000956U, 0x46013b4900003b3eU, 0x3bddb9282727a9f5U,
  0x9d2ba2c8dfea6e1aU, 0x10b16d59ce7f28a3U, 0x9c0744034d269602U, 0xedca53a8b6817021U,
  0xf73f03febf0b2cedU, 0xbbd88da5e9b4a361U, 0xa7b365be0089f60cU, 0x3643385dd4a0977aU,
  0xa2135e81e9b4d8abU, 0xfe56785a6ae1cb04U, 0x6cfaefcea16a66e5U, 0x14d4f137ef15bd23U,
  0xef6ff67ae3a15392U, 0x91450333a7f3fcbU, 0x645ca2bfacf1c7baU, 0x1729f569feef589fU,
  0xd65897744729d5e8U, 0x1d8a98053fec19c4U, 0xe9ed297f007ff41cU, 0xe18dba97db6dc99U,
  0x354d7cc2e7493d3bU, 0x756ba72a690ec149U, 0xef44ab2fadedf016U, 0xa112ba8453f823bfU,
  0x1d77515b9ee5d3b2U, 0x2d6a20a2097fd2a1U, 0x52194789eaed3572U, 0xd816b00cc82e154cU,
  0xb60dffb86ab383aeU, 0xc841fe7831dbb132U, 0x12fcd8197fd76123U, 0xc506ed1aa9f653edU,
  0xc27ecd846a335369U, 0x79d62c9b0570e5aaU, 0x429ea59a0c813f00U, 0xf0e4dc97480c892dU,
  0xb1ee7fd5e8909eaaU, 0x394073d4b8e7fa16U, 0x57ad4db8442bcb61U, 0x72af69313f435335U,
  0x8fc5bc402f547ff1U, 0xb8eebb8daeb848f8U, 0x74369f18b2cb7fb9U, 0xbe6da643607f1fb8U,
  0xcc03a4fbc71cd9c6U, 0x5f3f6103a9b72fb2U, 0x2af7b95a403d5cbbU, 0xd038319f6db9de56U,
  0xe64b2074c4db7aeaU, 0x306dd9817406fe67U, 0x92e83a7fc56ddcb5U, 0x2f1768881e946ed9U,
  0x3b9c95a3336e9eaeU, 0x39edbec2a9d35412U, 0xb227de53115f32a1U, 0xf0c52c57a2776115U,
  0xd1219258b14c74f8U, 0xcd0fdb77f10e7f6dU, 0x645f4e154e2fc681U, 0xa2672e6d533812c9U,
  0x276395f3ec9cfd41U, 0xda3a63005bc7e581U, 0x520f15c71b99a75cU, 0x1068e134e219b546U,
  0xe632b1f881f0d51cU, 0xe5e92a1ebbb49037U, 0xe6d10cf02162baa6U, 0xa858d962eee07825U,
  0x7fbd8f52900d4e7bU, 0x3e93c9ebd8e673d4U, 0xc9f46c34ab0838bfU, 0x277f2d96f1e4ecc9U,
  0x10a300dc15af7523U, 0xda7dcd2f20149942U, 0x30fdad7adde5b7e8U, 0xc9b9b461925b0c56U,
  0xda18938f0da13ffeU, 0x814dad2b369b9fbfU, 0x40697f0f8d7dc962U, 0x8477a2661aa10d70U,
  0x63b510211d8a1cdeU, 0xd944261286d40856U, 0x36c8736a2efe8c47U, 0x783247472fb4a10cU,
  0x60420729abb709b5U, 0x531f5a1eb4a91082U, 0xebe4d12d81062178U, 0x29e53fb07dcf811bU,
  0xfdb6a048b1efbcb3U, 0xf8d959375c2e1c00U, 0x57ed987fc934c544U, 0x3687916c1d934b39U,
  0x91090502b8de3206U, 0x40cc02d74ad73b90U, 0xb449c4dd54c5a7b4U, 0xb4b205e50ea1609U,
  0xb1225fda8bf4681U, 0x3cb2df1bd319eabaU, 0xf734535dcd2163bbU, 0xe5514d34561361a2U,
  0x3f60c09ac5f658e0U, 0x4da9908b53c8437eU, 0x287fa7333f43517fU, 0xe44ca325f4a401bU,
  0x90690979844d71a0U, 0x9be682419cccfde1U, 0x24c2547264a4a712U, 0xc3fba7c69ec13c57U,
  0x3cd1f407c19c1099U, 0x3a6c0c1fb47030b5U, 0x87ca072aea2f81a7U, 0x592e09476a090c86U,
  0x25ccf78b6b96581eU, 0xc6db477f95399657U, 0x2f9abf40be82a3a1U, 0x24164f7d43523123U,
  0xe0568f3e698adfeaU, 0x75b7ce8c8c1ba187U, 0xe41d3aa62f357ffaU, 0x36519d351af7ed31U,
  0x45438853c4b199cfU, 0x9d9351a210218ba8U, 0x39f6f0217f3be0ddU, 0x5de67b6c42fa3acaU,
  0x464a779cb94daa81U, 0x9787e83e5ef534e3U, 0x93244cf834f45076U, 0xa5cd2ce681b3cc63U,
  0x98d228f7dec63e84U, 0xa0ef72291ca17ebaU, 0x37e6bb72d355af8U, 0xe16056bc32c3f0cfU,
  0xfddc517f0b3ea4bfU, 0x25f4f3bd08a23f45U, 0x1e7e59ef1ac7cf72U, 0x72bb9badfe8cbb97U,
  0x1102149a527c68b1U, 0x1c75d8f15a98b9c0U, 0x6b7c21c5193a7f4fU, 0x83c524cb7d989d56U,
  0x21162ae87f05d238U, 0x266737ffdccf5f43U, 0xeb81904589ced24dU, 0xbbec0d8c2a7e8e5bU,
  0x14a8b01f6473609U, 0x6e4689e28eef5b90U, 0xf945871a0cbe2753U, 0x753cf6fbab72bc11U,
  0xb37f01e84b9d69b1U, 0x471432617976b1e3U, 0xaa93fa703f4532a0U, 0xaebe2cf2bdad5dfbU,
  0x7f2c52b9f103f233U, 0xa826780f5d196ffbU, 0x678184e98dbde9d6U, 0x4214a674b8ef90efU,
  0x1c8886da297f7017U, 0xc204dbdd652f0d96U, 0x5e1ea269d479e6e1U, 0x6f094e81bbe6c477U,
  0xed05291e70d371c5U, 0x17036609d4ef02aaU, 0x986c8fbbd6561130U, 0xe1fd40003e9170c2U,
  0x5281edd4a517a8edU, 0x3adfc68241133930U, 0x3f25f94f0d553015U, 0xb7ce050b413702efU,
  0x73b60f0916bbbf4aU, 0xf1c3e973d258c48bU, 0x89c0d2597a323381U, 0xacb97febf306df9eU,
  0x484e64c7cb43d7ddU, 0xe103027316c65fa7U, 0x71f24affbaf4fcccU, 0x2f16c5474584a639U,
  0x6b7561e3fce36d35U, 0xe2d376bbcfb67fe6U, 0xf6b19bb74afc569dU, 0x20649478373b922bU,
  0xf5f4894f0b5981b9U, 0xa4eea2e6ed1d36dfU, 0xd0b95d2816331ed9U, 0x2361ff9dc1eefc87U,
  0xb6d85422414dceefU, 0xd94d819cfc326912U, 0xd596a23eb858f8a6U, 0x9b536346e38f33d1U,
  0x98c5a12481a1d299U, 0x7e2351ccff12dfcU, 0x746bfe054eba9ceU, 0x28bfe60cacce23c7U,
  0xcc338bbe78511a81U, 0xf9b239f1139b664cU, 0x8268ca7218ffa883U, 0xab342389575d3a99U,
  0x377093a3e6b07fb8U, 0x5c0b7c502e71ca91U, 0xa3424367142c3938U, 0x8ceb3a51bf551417U,
  0xa286f8c85c08e28dU, 0xa59dc07f3ee80860U, 0x20fc9348105e84a4U, 0xacd5c4d9d1d5acedU,
  0xd3778d4d4fe74608U, 0x5f246528d58e0924U, 0x42cb7781952df67fU, 0x1455515545d12704U,
  0xf17eb964770c243fU, 0x412e68e50af376feU, 0x554d9a516fce3f0fU, 0x6ceb9432ad43580fU,
  0xacbbb725004a1b07U, 0xd2180134ec9e6e57U, 0xcc7d221da781bfd6U, 0x9303c56c6938db48U,
  0xab707fd00a134511U, 0x289095ce1a0049a9U, 0xb3b08836305bc98cU, 0x50811b7250979664U,
  0x236c319b162ab762U, 0xcc6d86f5fae456a9U, 0xeda73c0045b4e862U, 0x9862ca9e23973bc6U,
  0xfe49a10056c4fa81U, 0xc68e134ac1a8af93U, 0xb42e0fc2793a6d38U, 0x8155a4575e09f239U,
  0x7655ca3ec8230966U, 0xc5c60739b96e0e16U, 0xa6339d946d0359cbU, 0x2cddd20594c169caU,
  0x23e03df1b7da071fU, 0xa0c4c07f25fc2b52U, 0xf95fcc86c916fa43U, 0xa0f1a9262d107f77U,
  0x135ab435d11e390eU, 0x296fa94beebec8e6U, 0x1304974f1642a5a8U, 0x640c23fe58985140U,
  0x95612f4aa297f14dU, 0x38f37f0a3fa443a4U, 0x739239b1faf3869aU, 0xc62162425f6055adU,
  0x92cffcf0a6dbacf6U, 0x1d096bb2a7c91dfdU, 0x299e90ac810a28e9U, 0xc70798b30481a315U,
  0x45b6a004ee651507U, 0xacf110429a1f3145U, 0x562d5171106f999U, 0x1e57b155487fd265U,
  0x22d53676ae315433U, 0x6cbda52e4bce95a5U, 0xffff2e78db83bcbaU, 0xffffff650001fe05U,
  0xffff38bcffff7988U, 0xffffbfaffffe8d55U, 0xffffa66100000176U, 0xffffd468000192c9U,
  0xfffeaec1ffff422dU, 0xfffe652100006838U, 0xc2b5fffe8df6U, 0x2de7ffff9af6U,
  0xfffeea6d0001a12eU, 0x6db9fffeb79bU, 0x57590000cc12U, 0xffff982efffd7a88U,
  0xde190000ab11U, 0x1056affff793aU, 0xde51fffea4a5U, 0xffff6476ffff00d7U,
  0x73e8fffeba0dU, 0x12fbfffe7af1U, 0xfffe9d5a000117adU, 0xffff76f20000adbeU,
  0xfffe36450000b80eU, 0x78b2000102e7U, 0x132890002616eU, 0x9975fffe8ff0U,
  0xfffc7a9affffccb2U, 0xffff22fa000023e5U, 0x1364000001a97U, 0x11ffafffe7830U,
  0xffff8a1cffffa570U, 0x22bd00000d162U, 0x29e35ca5ffff3689U, 0x311aca9f61bafbc1U,
  0x12ebb34cb34f47c9U, 0x754bc1b16ba8da66U, 0xc018e5cf5d2ded9U, 0x72ed3f8b4bd9d111U,
  0xbc9f7f35922c5a44U, 0x53b29003475d36b3U, 0xddbb95452ee076aeU, 0x810644f212e6ab60U,
  0x9ebdcecd486e96fdU, 0x3be12b8b449b2464U, 0xe0feb1ebcddf5f1dU, 0x6fd9817bbf585b1cU,
  0xe56ff4544fbf15c9U, 0x8e9f6cadc4309193U, 0xe1f159e63c0dfe30U, 0x629bd1b7949f943eU,
  0x4665d8029d0627c6U, 0xd50c24a8275d89afU, 0x22b4eab2c151b073U, 0x1b14157dc5cb2499U,
  0x1d9f02ccb487b208U, 0xb2d4be7150cfe805U, 0x52c6eccb7f00c098U, 0xf0a7024f2d8ed795U,
  0x179887ebb0f9c3ffU, 0x447f64aa70bce0U, 0xd2dc213b646d4ad5U, 0x17e0a3b03ef0a8bbU,
  0xd8f76344e0e24ce4U, 0x5d0bee24a99d2516U, 0x470ca35929f108ebU, 0x8d982dd5b0b00633U,
  0x917b20528e55c806U, 0x7f075b74c795b1a1U, 0x6c17b5646fe83375U, 0xc9d84cfc64a69b35U,
  0xc0ebe3eec051ca30U, 0x16fbdf25ecd797b4U, 0xb13791dc4526a0a1U, 0x53b2ba68fc0dadbU,
  0x791edbfbcd183040U, 0x6120c9eccc9aecfaU, 0x349d6a816453aab8U, 0xc05e4f9c89372032U,
  0x8e50cfd819e1b51fU, 0x490e2fe4da8d53c7U, 0x813832dfa38c63d8U, 0x42edb928b7204489U,
  0xd82f079ec6657ef6U, 0x87e9bbf0cc15014aU, 0x7367c87ee8204284U, 0xa9ee1216eb70e802U,
  0x1d8613186b16c1c8U, 0xb7dc48e8d67b24d5U, 0x365989c606604841U, 0x2ea6a184e5ee498cU,
  0x71a9476b29c29fd5U, 0x10df50739343eb4cU, 0xdf664b31ee81c6ebU, 0xf20e146737c48b62U,
  0x2301250b27e10b12U, 0x3ed50a91a8293d1fU, 0xbdde08a8b0957b55U, 0xf06f0338d7a36f4eU,
  0x93f92e3aeb28193eU, 0x49c87d9f2c44ab2eU, 0xc32f66a09ab5a0d5U, 0x45c140c7a4e79410U,
  0xe9699318b16f570U, 0xab4f61bc6e6d7f2aU, 0xd1147abb1f16bd89U, 0x8b0ba935615ffdb7U,
  0x361af0c9cc92b2b0U, 0x2e4baf1af7672ccfU, 0xe60708a7668e9abaU, 0x40d98a40b030a85bU,
  0x1759fd203afd9a7fU, 0x626206e51756052bU, 0x377d46d8f01ed6baU, 0x7ef6b315c9e4b36bU,
  0x91c5331e425bb86cU, 0x9d277fbabf5c0659U, 0xa874e950abab2cfdU, 0xfe987eaa4cc1fad8U,
  0xafaa5a636015242aU, 0x93cda2872b94bbbaU, 0x5243d45882fb282cU, 0xdf8a92f053bffaebU,
  0x489ff21888915312U, 0x811c28d98157ce9dU, 0xa25aa8dff55fa416U, 0x17ed00b635b53d24U,
  0xd32640d1d4b62c83U, 0xaf009ed2558b5c0bU, 0x66e38138548bc28aU, 0x3eb221df1fb76f38U,
  0x3059bddd0d6d0520U, 0x538e214fc751a2ccU, 0xb75227e37434d44bU, 0x6b90fe33ddcde7beU,
  0xfdb43255a73b42fbU, 0x225be28e292de95dU, 0x1e8d9c131166c1efU, 0x30afdb65d0d30faU,
  0xb0f65d3fe5664ebeU, 0x1e920d84f097e721U, 0xca01bda85591a4U, 0xf88a115b75788700U,
  0xbae3d6ea722ef96eU, 0x9b59819939345808U, 0x38f59444fdf821dbU, 0xd3e1c59ef17f53cfU,
  0xc3f04ffb7284a869U, 0x9bff9b85c232c1f6U, 0x705d333bbbf5e6f9U, 0x1ab6946e582b0075U,
  0x49a9771bd017c2f8U, 0xfe1ffc32481d6b6bU, 0x612a5e3a1d84cd1U, 0xe7eb061450599a60U,
  0xcfa59a0e8a0334f5U, 0x9e8faf43c4115264U, 0xbbd2ba9ca8fbcd23U, 0x812322a82fb35c4fU,
  0x9da3f9ae38d0b0ffU, 0xc72b3b0009524f51U, 0x2cba6bc56f1a57d5U, 0x52bf736f5da2d73dU,
  0xcf4e944d08c52fe5U, 0x8adaaf8cda240d71U, 0x23ce970db81ca0e6U, 0x8122ab2c7a3f8a18U,
  0xfc16b5f0620eb9deU, 0xd2a192739e686bfaU, 0xd7e8690dd51a9859U, 0x1b10db725da18346U,
  0xeac54ea3653dd32fU, 0xf71f9adcb1551232U, 0xf823bf96aa251792U, 0x3281db1c89020403U,
  0xe74d892104654ddaU, 0xbeb90167b56b55cbU, 0x321b509e9f574c10U, 0x4ba19f10cab5b8a3U,
  0x60042e52b3eb51bbU, 0xc2c2792068d2c43fU, 0x1e35dc1b761cd6a2U, 0x8f86c2a086c2da50U,
  0x6da5229a8f3b8f88U, 0xae81f72b0a264d20U, 0x9439a9fab004c0aU, 0x759c4f59e6cc4a45U,
  0xc115ffc1cab4dccbU, 0xb168b674bed87653U, 0x9e0c214537401baaU, 0xd6966bb0bf8c71c1U,
  0xec7f3d6cfa2b0b08U, 0xfbe5db8dbe2cb49U, 0xfabf46633cfaa913U, 0x8f61355bf7cfe6fcU,
  0x3d085225f2bc0ff5U, 0x2b4856ef3bfbe1c2U, 0x1e422002e76776e5U, 0xc84fb27064f7b320U,
  0x31ec92d938237e24U, 0x3f48560cd1cdf481U, 0x15ea981017abed29U, 0x5e2437fe5c9a5b7fU,
  0xf3fabc6b74452f20U, 0xf954412a24455e17U, 0xc01b995e724c154bU, 0x64320db0d402bbbeU,
  0xae60e9e55419b54bU, 0xbfbd05b5a15e5be0U, 0xe2993111a7ef5324U, 0x78aa1cede151e571U,
  0x1e4503e43e5656bbU, 0x74305112999004ffU, 0xa43ab7f623172f38U, 0x29445b1e42bc2f0cU,
  0xd45bcfeff708814cU, 0xd4e01ae7121e031fU, 0xeda7bf7cd6fd321bU, 0x5592314fb166f4b5U,
  0x516a65d66db66e5bU, 0x424799efb372fe6aU, 0x41af365141491b44U, 0x1605564f5ea8a7aaU,
  0xb7ccd0363abbf1feU, 0x393a2cae49d355a3U, 0xcbec6323f9f6cf7fU, 0x32a22de509fefbc1U,
  0xaafa019fd7168146U, 0x94eae4143fd99315U, 0xb58da364f9c3203U, 0xd45ff9fa8365322U,
  0x9751c37266c2a862U, 0xc0f36c980bb39d93U, 0xa0954bdf00df491aU, 0x7164155666d32525U,
  0x35930a656acec93U, 0x56b28c8307eb5b49U, 0xc11aaa3b1f05cf75U, 0x7733c1fcb9f31164U,
  0x58f87f35965c566fU, 0xe5d624627636c25dU, 0x679baaec00855aadU, 0xe75264ad10cede17U,
  0x2a8e68f22fbff304U, 0xf0dd4b3e46810ec3U, 0x3f739662043fb16fU, 0xe2ed93d4e777b102U,
  0x9bea4ef642d4f220U, 0xa145fed814e17fa5U, 0xfe24a5333d155861U, 0x2fef90340551780eU,
  0xfdfc47a4d18450c5U, 0x49ff66201d0f5902U, 0xda600039e9d8fbbfU, 0xacc83a1c7d3e1c98U,
  0xa8e805b91deb9409U, 0x8ed250081f7fad95U, 0xe022db9fe16289dU, 0xccbc9dcdfa667f39U,
  0x703318cceea92f22U, 0xdd60fa007fd081eU, 0xb393bf09caad2cccU, 0xe5c12bdeb34740acU,
  0xd34a5c1e16d06aabU, 0x42a9bd6df11187a6U, 0x613218ee9af2a193U, 0xdc86e7b5be3be63eU,
  0xbb980cf4b871a992U, 0xe68c35a6525ec8d9U, 0x2bba3bc3e866ecddU, 0xfc133d814513ae22U,
  0x8919a729b2a3012dU, 0xa5adf04ef3002fffU, 0xd197ded65663281cU, 0x445d3807a8150c14U,
  0xd369467fdaf6477U, 0x4c214064aac97f47U, 0x7fe498c849b773dbU, 0x3067faab173cb99bU,
  0x260700711fffe66fU, 0x2a07ed29226e08a5U, 0xac561a73efd90d8U, 0x7440299b92aabd2fU,
  0x6d8a580dce2610f4U, 0x70ac1d2c0bff5af3U, 0xd862a8a23f213b3eU, 0x60f53b707fc9a0c2U,
  0x7592e1d1aef16008U, 0x1bfb56f077685d13U, 0xffffbe404b65f5d8U, 0x1c1630000a53aU,
  0x7b060000ae96U, 0xffff950700010f00U, 0x38610000060cU, 0x39750000136bU,
  0xffff0f9400021b6aU, 0xffffa94d0000c7fcU, 0xa17d0001048aU, 0x17bab00003865U,
  0xfffe8d8affffea64U, 0xfffec915fffe12d8U, 0xae1efffe6198U, 0xffffbfbdfffe8c75U,
  0x1672500001e3aU, 0xfffea54700010f71U, 0x51a81a74fffe83c0U, 0xc06ef5e0ff5da3abU,
  0xf8af07c8f0f40282U, 0x2352b01ab8bc9b1dU, 0x27fb3d44daacb96aU, 0x95712db937f187eU,
  0x666a5bd4ad597956U, 0xa9de14d10c81e836U, 0xd77bb0ac6c7a5bbeU, 0x92b018995da485ecU,
  0xc47819549b78d46U, 0x56564936e8ba7e3cU, 0xafc3cf4e7378a824U, 0x3e38af798ecad338U,
  0xdbfa97290f61bceeU, 0x35205b07aeb6084bU, 0xfbccc6c10e40cabcU, 0x4f633aa5d2c4c96bU,
  0x725af047cf7fe6a6U, 0xbdd968f6e02d394dU, 0x5f50b771ed00b347U, 0xa8629e3b65d149f1U,
  0x8f632e6ddb5b9f0aU, 0xacd249f32230bd66U, 0xf4ff6fd6f414d5U, 0x6220e5a52e6348edU,
  0x3d1b17c4a37f11fdU, 0xf269e1f3004b3c17U, 0x1e9078a5946ba543U, 0x78586aa6bdfeb214U,
  0xe37760fd9425faceU, 0xee61278b1f7310ecU, 0x64c7be8653dd2e58U, 0xa850e0db2d61b859U,
  0xddf2e9ee0d6835a8U, 0x23d51ccae4a7016fU, 0x7faa8b61660dfe67U, 0x653efeb364dff821U,
  0x9bc9e4e4283a23bfU, 0xfced820a0ecc4f2fU, 0x49ada49d39d473afU, 0x5b44fe1c5a9bc1d6U,
  0x71059e36b90918eeU, 0x88ca239481ef0f3aU, 0x1e5b258782eba325U, 0xf9c7dd64ef4f4df6U,
  0x2e4438214c03e5d6U, 0xca5d472f97a4011fU, 0x746044305a3a13f9U, 0x4cc3c3c84226fd0eU,
  0xd00c3f43330d25bfU, 0xcadb229e1ccd00e8U, 0x1c6faa6d13dad271U, 0x233ebc45ea980dbcU,
  0x31d3c5e8b839547fU, 0x484a9f3e3e438ec8U, 0x46fae6b5b05a4b78U, 0xc9b4f1003b3418efU,
  0x788901b32ca43135U, 0xb2b9d37b534a51c6U, 0x5492dda9e8654601U, 0x746988c0b520c902U,
  0x5604250cf5657e7fU, 0xc95203bfa523693fU, 0x11ab2572c9aebaa8U, 0xe9f29ec1c9b32444U,
  0x9820d998f5a1508aU, 0xb4ace6486966d4f0U, 0xb55f7221d595388U, 0xfd81089bb32f30bbU,
  0x62558950015a9d32U, 0x63276596bc2cfebeU, 0xf422c9e303f0286dU, 0xb9a4cb3d0d1f6a94U,
  0x8147f3e13fb86a8bU, 0x239259d2603eab84U, 0x2f2f25d2f41865d6U, 0x6e27fb5402346a9cU,
  0x213a8d13c9473323U, 0x40101cca943d329aU, 0xbf62faff21fa4a22U, 0xb19d6bbb1e83e65aU,
  0x28ef59a8a334cbb4U, 0x784af69af84ad7b2U, 0x1005b85f8b172d65U, 0x5014eb37017ffe23U,
  0x55c9f5d6ecb4ea46U, 0xf26eb92013ffabebU, 0xe867bd0dde28cb37U, 0x6df8131d1de3030aU,
  0xe2f96d3e6bffcb4bU, 0x71957404b06cd174U, 0xfa4dd6485e81ec1cU, 0x9b449669bebbc986U,
  0x5a1b7a3e670dae85U, 0x284fdc595f32fcc8U, 0xc4cb2cc17793ca8aU, 0xc4b6a34801096e0aU,
  0x6e0ffb12e287f35U, 0xef336c9c5f183ac0U, 0xde5d562c11aa615bU, 0x35ab620d0a5556f6U,
  0xdacfdebf3bc8569dU, 0x86889fa06e5f3d9bU, 0x2e476e66be35ac51U, 0xc8703c0551a08163U,
  0x1f3f549d6114aec3U, 0xf83868395188ffd6U, 0x90c68c32da711b8U, 0x20a712348432f8b7U,
  0xc9b5b7dbacf5308dU, 0x486ca1bd0e2115f5U, 0xd2f4e1387728b2f7U, 0x4eb39c22c231c53aU,
  0x7cbdeea3b346217fU, 0xba1df3c2fb0bb2c2U, 0x2136fd4f8adc7f35U, 0x6d4f1b5a93e07ae4U,
  0x9ef02ba2b8ed44a0U, 0x34c6c7058ebb5fdbU, 0xaa984469ce17f90fU, 0x8df35c55ee8ad166U,
  0xfd02ec7fa1588798U, 0x37033122e22f135dU, 0x5873c9613b5e4106U, 0x9ec2baa90f4f0ec3U,
  0x1d063418435b9c71U, 0x9ebf934214f2ee1aU, 0xb850acc4ddec22a8U, 0x86f821e3132f8612U,
  0xf8cc0d014bc21a73U, 0xe9a261cfcab73e1fU, 0xb275f0500952cd08U, 0x300a3b031b2ef5e7U,
  0x9436ffdca668bf13U, 0xcc51945b857f4100U, 0x5d0462cae115cb36U, 0x69c704f87fe1ca16U,
  0x5a164e9658848416U, 0xefe41a94e33ed0d1U, 0x914fd69f15323d99U, 0xe1f494952ee5520dU,
  0xab29acf0d2b00c21U, 0xe5cd7a9594ddc4f7U, 0xcfa264a8395348e6U, 0x7f22b3d7517044b9U,
  0xcd867fa4aa65b63U, 0x72d86e18cde16fe5U, 0x96fb490c0bf0e61U, 0xb3ecdafffe22f5ceU,
  0x53dfe4e16fc4fefaU, 0xa8f44afa4f4ceaaU, 0xb049410658f71868U, 0xffb5935971878890U,
  0x7f236fcde81d24eeU, 0xb3fb88eecccc0cc1U, 0x7dbc15ea47d90885U, 0x52346d08ada76e28U,
  0xb2ba4e0546b11dc4U, 0x13b83e205025bb98U, 0xdf89bee5b4faba90U, 0x81265531ecd46584U,
  0x76dcd561a2a8516bU, 0x3fe19c23e7fc50a8U, 0x6dca83de08ddb5caU, 0x9a9be936a73d23e8U,
  0x886a7f3dcb50ebceU, 0xd4eeb184dc434a7U, 0x6db2b6de8e764f5aU, 0x699919d790f002bcU,
  0xfce852701a30d26cU, 0xebd56425d9ac867cU, 0x7f31de6dba77c7b1U, 0xbeb87304cbadc397U,
  0x4ebb85d3b897499bU, 0x45ce2508117ba5eaU, 0xade146c7a44ece45U, 0xfa98f73c6fcddd39U,
  0xba97f4f6635e86c9U, 0xa31a15b204771077U, 0x7f58c493eb76745dU, 0xe70cd71916df34e8U,
  0xbe9c1bc15ad30e49U, 0x2ffdadb0f7ad9263U, 0xc19a97054761f39bU, 0x7fb04397f12b0c0dU,
  0xd1f9ec97a76fc6d5U, 0xcdf0a42ae603031eU, 0xe56621ce486048bcU, 0x35e488bacdb20d21U,
  0xf6535ae8484a1d6cU, 0xeeeff840d0d56314U, 0x6a6fdfaa346c630bU, 0x2bd3baeffe3829ffU,
  0x4f005e772baebee0U, 0x1148e011ec884e79U, 0xd0dbc13bd245e8daU, 0x26e8212a5eeac238U,
  0x3d4d66ab87d83e4fU, 0x7f132f0cacb7c810U, 0xbd6c81fc3e454688U, 0xb7638cb5c8fdff8aU,
  0x98323b901fbce527U, 0x3408fc550a14bdeeU, 0xceb02c77d4600607U, 0xff57bc52f73c6603U,
  0x33db14dbad54e808U, 0xfcbe40d6a2659e8aU, 0xd95eb2589862cd95U, 0x4d21efc29d8850f0U,
  0x3a75df10f8f1fe66U, 0x2dbd064903a02d95U, 0xa68eb1ce588e4cdbU, 0xe2a65e1bd1ab2138U,
  0x3681951c68521203U, 0xb1aaf1e0023b5dedU, 0x6f8cbac8a11d5c68U, 0x1a11295b10aeb50cU,
  0xf19ba0e941c7ff0U, 0xce5fe64bd848b942U, 0x6a0134cf23397d8eU, 0x902b88f3265f173dU,
  0x44cc0027543ea735U, 0x71ca91eb6755f1ccU, 0x249dee8da4ebf0f9U, 0xa3dab27f88ac0662U,
  0x26e96e7c47e5fc36U, 0x63c61a13bdc43c37U, 0xab955276cf726005U, 0x3099d4054ef56661U,
  0x32a215d3b819b59aU, 0xa9bb36bcf258aa10U, 0xa1d417a840925bfaU, 0x5d0a7fe3e4d4dfc7U,
  0xf852f993eb7d8e6fU, 0x5cc2c8c6749850edU, 0x7272f6d0f94a4c4U, 0x29fd125823c05760U,
  0x731d4913a372e158U, 0x4932479219021cf3U, 0x2f0a61f70a893ee2U, 0x1ff21a9468ec4df3U,
  0xd035be66ea636239U, 0xfa7f0fb6302a4deeU, 0x9b4bdae5ba6bf3c1U, 0xa2bcb95be143538aU,
  0xc5ceb32f712a5417U, 0x704a27fef6624738U, 0x5faf62475be897b9U, 0xfd69e791d2a5819bU,
  0x9595ff06f395dec3U, 0x61c7ef61459f6932U, 0xd37a72c8defc151U, 0xddea29af2043d7dbU,
  0x898dd313b7602e03U, 0x6d5024345c5c9fd6U, 0xffff752cc5e3bbc5U, 0xfffee8ea000066d4U,
  0xffffc642fffe2baeU, 0xfffec05e000029e5U, 0x5b46ffffa702U, 0xfffff950ffff8659U,
  0xffff9ab1fffec4a9U, 0x6227ffffad81U, 0x17fffff8962U, 0xffffb6e900011cfbU,
  0x6a850000d685U, 0x1b1d0000c672U, 0xfffef5a4ffffc5cbU, 0x5d170000fb81U,
  0x23b3ffff4db6U, 0xfffe67b1ffff268bU, 0xc00b7f8d00012188U, 0x85704b4c6f08bf9fU,
  0x76f0a21eafe928ceU, 0xd095f61512171b8cU, 0xaeb0f732ff93bd56U, 0xcb61b10537c37f65U,
  0x4ae5a2e22c3a9f87U, 0x1c500cb316155eddU, 0x3d814956f44a24f0U, 0x3a0b5203b558faccU,
  0x8eca177e4e17e1beU, 0x620cb84ee44478f3U, 0xe97f3ced1ce2ebd1U, 0xb5cba622bd5d79dU,
  0x6316749b4103ace6U, 0x322f9ac208541d87U, 0xd00cf9b592e7f312U, 0xcec02bd13b100ca1U,
  0x1c5170349037a6caU, 0x2281536ae4fe2f30U, 0xa84ce5da65730ad9U, 0x92bb4a11547d6e08U,
  0xc307e82e51e32cacU, 0xf36ec0adf85baa6cU, 0xeab9d2ffe5d67facU, 0xd0f97c532c3b460bU,
  0x228fe7b2e85bf524U, 0x3d9081014369d6c9U, 0x9bc27f29a22332d9U, 0xeed0cf5333f366b7U,
  0xf9f98f7834db3b65U, 0xdaed2b261591a8d3U, 0x8e7f55c2cd4340e4U, 0x86dc17b8280dfb03U,
  0x434cd34d6c84f2b2U, 0x7c1927c33890f1fdU, 0x476a1058eba5c779U, 0x6456116a8249752U,
  0xc2aa475902e948fbU, 0xc572c5488109bea4U, 0xe70d34d816191c3dU, 0x52dbab5df676a025U,
  0x2846b8916f3b5f95U, 0xb9b11a2f136e4bbaU, 0x1675637f147f3d77U, 0xbd6cc07472e0f42eU,
  0x49f5000d0d60ddd2U, 0xdfcea89cfa0af32eU, 0x2695cbb03d8c48fcU, 0xad6428eb4bf21dbdU,
  0x686bd028b33074b3U, 0xc1a5f40b9681484cU, 0x5c08221e30f3a089U, 0xab81170577d41ddbU,
  0x70fc46e6bed565eU, 0x8c991481c5d2a703U, 0xa267d5f5b3c1d6f1U, 0x8f64ec1932e96e51U,
  0x718339a1fad9e81U, 0x866349a4dc1bccc8U, 0xc043003816b82cfeU, 0xe72c36aa9d0a10c2U,
  0xe1518f49aaac402aU, 0x1683264cab347fe4U, 0x7a11fe948d5ba541U, 0xb9348b23f7b6f545U,
  0xea58b5a15b27a77fU, 0xd93d0dfee9d029d6U, 0x539d351a0e0b4020U, 0x5b63c21e70086a2eU,
  0x5387e7f41a642bf5U, 0x40d06cc9f8b6f24eU, 0x7221731a28812d1aU, 0x969b9df6d2331b36U,
  0x142b4cebea0ff03eU, 0xac55d8e9bc587be4U, 0x5acfb1d457e2147fU, 0xf3708566637f2ff8U,
  0x20d2c1379a339265U, 0x2296587eafb1a01aU, 0xee61b407b36a19b7U, 0xa1991e4e1d5d2026U,
  0x33738d3ea4d7ff4cU, 0xb8b0c2d494d02c6bU, 0x6d37515ceb81be4eU, 0x9e1263cfd71e2084U,
  0x4232988aa0f22ce2U, 0xfa39646d66c5a6a9U, 0xcd8cd1bdf722107fU, 0xd9276a8f9f6089fcU,
  0x89d29b01e7670859U, 0x709292f51a4f4120U, 0x5f7b7f6efd8130bfU, 0x34783edd519a0c63U,
  0x77c175e6665424f6U, 0xe0e973635ade5112U, 0x405f880ca8d097afU, 0xc5e4a57fedc1a8ccU,
  0xcd77053cbbd2eef5U, 0xb150bf13b5ccd9e3U, 0xc300ca4263a01a57U, 0x24f6589c65847ddU,
  0xe45f8e3e98532c7U, 0x29dde38115f085afU, 0x97810f81248961d2U, 0xa1ef2bc163345ad6U,
  0x94c5cad81070ffc1U, 0xb08b68e8af5dcb00U, 0x6c5a6a680c1072c0U, 0x8cf6f83942c0c13dU,
  0x19813503d2ac97aeU, 0x78d5caca60508166U, 0x88f4465f74d7d61cU, 0xfb73a407e3539ddbU,
  0x99e7757f2cd2040dU, 0x3defb4938a5eaa25U, 0x7fc43cb03ba7c67fU, 0xbda2fa7325dce81cU,
  0xbc1da494a8b8b06U, 0x819f73a0c3c68551U, 0xa0a1c8b02296b45fU, 0xc2b696453a211d10U,
  0x352ac864bf05fca3U, 0x68467f70f3515a1dU, 0xd21454c016dd0759U, 0xf617a69af7493337U,
  0xad7f352173f2fe59U, 0x2d8a28ef78b53876U, 0x8dacfc36228bU, 0xffff43a5ffffc74bU,
  0xffffbd10ffffe96bU, 0x1a6effffbed5U, 0x1c1effffe6beU, 0xfffeec5fffff5dc4U,
  0xb7a0ffff30e3U, 0x8ff70000a993U, 0xffffcb9000004e45U, 0xffff1bd0fffeeb37U,
  0x7844ffffe597U, 0x11972ffff7845U, 0xb882fffe071fU, 0x110290000c6e4U,
  0x1531ffffaa23U, 0xffff6e96000119efU, 0x41fc329bffff27e0U, 0x205fb0ec642492aaU,
  0x5c5b6140948d5c6fU, 0xe7eff8de3b553802U, 0xafa6862d746f0feU, 0xfd44819bcb7132eaU,
  0x2c6d65fb0923817fU, 0x37490afbf381e9b7U, 0xc801371566089efdU, 0x41700e7be5020353U,
  0x81bef0f681938926U, 0xde810aa6a9a68d95U, 0x81bde0d71525d2feU, 0x470a4dc602cf24d8U,
  0x62f720680643a707U, 0xc6889827bc2f9175U, 0x27fb978184d47fb6U, 0x63360888c56e006fU,
  0xa465d63fb89fb038U, 0x56bdf3b8372d2ab5U, 0x858c81ef61e25e05U, 0x1ae43fcfae7f7f7fU,
  0xb014e9c34a1e516U, 0x9f79c62f7fdf87beU, 0x8f0260183081c48dU, 0x98815d4a7fb94f00U,
  0x207febd703f93000U, 0x81d981e3a4c87f7fU, 0xbdd7d4df3196bc56U, 0x81b2bc7fece2c8d5U,
  0x2cb8994031a84cb4U, 0xd0b9f481750e2506U, 0x37f4b632f568ba2U, 0x42976f365ad50dcaU,
  0x2097817fab7f2fe7U, 0x5b5be0d9338e9021U, 0x37c281c7cf7fU, 0x37caffffe457U,
  0xffffedf000009c5dU, 0xffffba7affffab9cU, 0xc9fffffd9d5U, 0xfffffbb6ffffbc40U,
  0xffff8ef1ffffaa55U, 0x8538000046bfU, 0xffff9006000063c2U, 0xffffa21800000c77U,
  0xd3bffffaf22U, 0x804e00006e8dU, 0xa0f9ffffbd13U, 0x4aaa00008ea7U,
  0x3a1b000026d7U, 0x46e0000060bcU, 0x88e12233fffff73fU, 0xa8afd81bcc683cbU,
  0x83e792a2e4c0e8dcU, 0xa5c5115e3a2ca9a3U, 0x94a49cd57de264eU, 0xb2eb524cc152b8c6U,
  0xb35433136539baf1U, 0x6581dbc431a930cbU, 0x6462d5d456b119bU, 0x9042258974855bfeU,
  0xccc48baf0b34f327U, 0xfd1a58cd7f6e000fU, 0x35baed1ecbca283cU, 0xe4b35f4090e1d862U,
  0x8d89e4be5f32921eU, 0x9c6ccdab8cabd5e8U, 0xa9c7efd02eb6387fU, 0x8153884d0376da74U,
  0x156b43df70a39f91U, 0x7926e7b5f60bb61cU, 0xdf5e84a33d04f8a7U, 0xcbc971f2683392e3U,
  0xaaea03d17ed919b8U, 0xf1f557da7b318569U, 0xfd8173994c8195d0U, 0x63103402aac27dbeU,
  0x54f82ea3569f0ac1U, 0xfaa748cf1cbfe3b3U, 0x1d14dd53d73c4b7eU, 0x6397076bd28547ddU,
  0xb7b67460f0e9501dU, 0xbbb6faa5a87ffcccU, 0x81410ed86454050dU, 0x9e77df2729cf59e4U,
  0x4d4f2e93c66b9c86U, 0xd50d1655cc323b40U, 0x1f08db6421d2ecbU, 0x9604f614a3818c92U,
  0x94520bfad50a3f08U, 0x66594a41371a467bU, 0xc7868144d608350eU, 0x5795714abaaf8a2U,
  0x699e7208e124b6afU, 0x1b2bab64307fc39bU, 0xe6c01da78b1e491aU, 0x9e813c66649ecfe5U,
  0x1bd38a914bbfa739U, 0xaaddab170dfc6bbbU, 0x37ca9f8e214f2e85U, 0x3f92ff9c77f05dcU,
  0x9dcbfd46c50b6358U, 0x48aa6746ad9ed84cU, 0x9db71789db27eae2U, 0x5d2b2e4f1d0cac6U,
  0x1f58bc5bc9c2566cU, 0x16e3b2a9378581baU, 0x494267117ddbabeU, 0xb68d8599111b7fc4U,
  0x6508110ed6610eb1U, 0x2001eec243ebe78aU, 0xdafe59891bdcf4e3U, 0x984d3ffa127f654fU,
  0x4db22d29c2e60d3aU, 0xb4a96e42ea185673U, 0xea754ee555dc4cabU, 0x20b44f3795371285U,
  0xa83de411c094e51cU, 0xee2677f0b4de55bU, 0xd1ca811dc8b130baU, 0x6f555c73a0c0c4f8U,
  0x3c53993b2fc5344fU, 0xfc6df6701a7aed97U, 0x4a9abc7f8e6bb57cU, 0x32515f3d690bae9bU,
  0xcfc821a61605f4e5U, 0xe9bc939811cde0dcU, 0xdd4822b6bb8f9c05U, 0x4881f5814f424632U,
  0x3c87c9d667394640U, 0xb6b05e4827a4128aU, 0x87cd879cc2f84f5dU, 0xb2b6fdd82cd3520fU,
  0x51c408871a1400eU, 0x6d6cd81d48e4266U, 0x20f791501d09b514U, 0x490322e256bdd9daU,
  0x75cd9773eff22a85U, 0xb1beb911b381b814U, 0x4294a4ab21c3bfd3U, 0x51ae2981db70df0cU,
  0x84b30eaa30344598U, 0xfb6e53a7d15b6532U, 0x96ae014d0ed2de0U, 0xd5d184de25b3997fU,
  0x9a7ebcbee1730f59U, 0x12a17ed6fa8941a2U, 0x47814077ac420f20U, 0x1cb2e50f742e1c1dU,
  0x5d621ca10c43bd8eU, 0x53b00dfcc62100b5U, 0xc01876441f410955U, 0x36fe47ea5d231056U,
  0x48c4615d4da9a67fU, 0xb6859d4c27a72f25U, 0x149e779a5194ed0U, 0xd894d0ba4ef229d5U,
  0xb640dd2d67827f75U, 0xdbf6b9432e175dc7U, 0x847f8656e49a295eU, 0xfb5f679f0aa58c7cU,
  0x2f632125c2ca6d6eU, 0x8c48dc350b9e26dcU, 0xb7374bf306000814U, 0x3ba64b94caf46ae9U,
  0xd9ee93e618ac4277U, 0xaa1e0a8b4394787fU, 0x525b2169f5dd411dU, 0xc589065211bd41b8U,
  0x7f5d2b10f4c43af2U, 0x4ba5646e3002e757U, 0x5bac1450fbdf09d0U, 0x2618ff3333ba7b7eU,
  0xffdd5374124d47a1U, 0x210d51bf9b822ac4U, 0x7a5da774087f84a1U, 0x2b1421815cad180bU,
  0xbbd68e760fe88a33U, 0xa6ab5f17bde4578aU, 0x3fb155982ed13U, 0xffff001fffff925bU,
  0xd19900025753U, 0x85be00012299U, 0xffff2aa9ffff7588U, 0xe06b00000c30U,
  0x4c3d00027e69U, 0x12dbf0003e5edU, 0xffff6f69fffd6fa2U, 0x2c92ffffdfafbU,
  0x2cb14ffff55c0U, 0xa4020002a586U, 0xfffe5e27000078b1U, 0xfffebc08fffe3ae6U,
  0x1833ffff1e8cU, 0xfffe6fb0fffd62ebU, 0x816a03e30000a488U, 0x9bcb09de3ad38c3U,
  0x66f9758dba697ceU, 0x170aa965a4c45814U, 0x61b314e4d575fed6U, 0xc7b4d3c4d33aff67U,
  0x3c7fcefedff7156cU, 0x9f4a44100e9e2767U, 0xbabb2138775dcaf1U, 0x757bd49305e66cf0U,
  0x68f1c981606b4153U, 0xe81e4bc2631684aU, 0xa37f15c28a1fc7c4U, 0xfc546397d03dfd9dU,
  0x984506643ea0d765U, 0x51e4ac65ae4a7d00U, 0xd3c2abe5abac7c6eU, 0x5eb5ffda17b7c195U,
  0x95e3b1581bdf3272U, 0xc2beaa819878159U, 0xe92bd14105f2ac25U, 0x5e8157c225af507aU,
  0xc51bf5c56ebef28fU, 0x1a7b0dcd0166aacfU, 0xc55ed4cd8dad6d4dU, 0xbb214fade4a0553bU,
  0x1d3fc6278a26fa03U, 0x61a1b7bfe62e88caU, 0xe79426c784b01881U, 0xe17fe8964b4a4871U,
  0x1c7ff2334f1920eaU, 0xc183490939584682U, 0x3b9e4305021ee546U, 0xfa6a523d26c6b96cU,
  0xb2c80a8e9f1a9cd1U, 0x2c41072276478f3eU, 0xd021305ad1a7567fU, 0xc9c12fdf272eceb3U,
  0x6129efd52c4fec66U, 0xf855ebc3989fe78U, 0x90bedb2f85d46b81U, 0xcc338c6681755d03U,
  0xefd0613ea92ced5fU, 0x1887e8755e18a539U, 0x24137f5413f7d33dU, 0x2ed362e52454d9c6U,
  0xc21739012857278bU, 0x14a4e0f5660532b1U, 0x1c367953229ac3adU, 0x7f08142539665c4dU,
  0xf837d14094c178d5U, 0xb50a6f0b8d685d48U, 0xb0c8d7265f4be4efU, 0xe7dcdf7b96054becU,
  0xca04892a6c71da44U, 0xada32aeba5367fabU, 0xefd8c761ee25c36aU, 0xd5af9b7beac25122U,
  0xc0ec3ec8e5add630U, 0xbc6281fc1372038eU, 0xdc5f8c10795e78cU, 0x51f3561a312d957bU,
  0xb81f7262bd63bb14U, 0xbeae24c7ae43a5f0U, 0x605a65d8bd847f28U, 0xbf7fc5ae61cda407U,
  0x263a48eeb0d7d132U, 0x5d11e40d6450959cU, 0x3fb66f8293b2bcf9U, 0x268191058c9df3a8U,
  0x8176c934ac0e289cU, 0xf096c1432c3b8a65U, 0xad56b6c8009c0869U, 0xa95062c48497a239U,
  0x5e307550422223ffU, 0xac5214f3ec9d56ddU, 0x5f9e4129d98a5781U, 0xa0fcd7a21601ad94U,
  0x1ed0396378b6f2daU, 0x467f087e9bdff33fU, 0x2c5ba97fbcdd323dU, 0xb02b2dce8c42a6afU,
  0x23fa047f6bb0452U, 0x6d836e9b6f31dc25U, 0x869cd429d2adcbf7U, 0x81867d21c3595154U,
  0x6f74c7c334fc93fbU, 0x64272fae7e611daU, 0xc09de867da2ab8b9U, 0xf6478d3326a71396U,
  0x94951d9f4a1070cU, 0x22860cbf1881b4b3U, 0xfb49b43bb8503528U, 0xf1a7e947b1c779c5U,
  0xdf9ff57efadd957cU, 0xa76ba1d0425248dU, 0x2c3aaf8156fd8a7fU, 0x605011e8565ce8e7U,
  0xb7d50d6b6c02381U, 0x50eed165f549c723U, 0x3b1f06a8d4d0f190U, 0xfc38cb6eb5caeb5eU,
  0x44e92d26965df081U, 0x132309ae9d250182U, 0x8bc5888d9a1dd93U, 0xf8815a081428e438U,
  0xae163250b731d72fU, 0x63aa47a66d721b20U, 0x9ca87fdbf36ca06bU, 0xafc292f63ed875ddU,
  0x9821d8e77298d607U, 0x173d4531ca9349f8U, 0x5c81ba1ee70c665bU, 0x31226f1a4979454dU,
  0x526be3f5fd4e4446U, 0xe7f06dc2616c0030U, 0x560a5b9d903291feU, 0xae6993c960edcb3fU,
  0x898e98fdb5097f2dU, 0xdba565d871ed0499U, 0x8d72449b50dce756U, 0x6589879eec067829U,
  0x9e7faa79c537a0faU, 0xa2d80a649a3ef26bU, 0x333ad5d05570efe1U, 0x64a8031e4611d5dbU,
  0xdc888a01dfceb679U, 0x3bd79ee363aaa1f0U, 0x123b8c0b8814aU, 0xffff91fdffff4525U,
  0x14af0ffff56ffU, 0x16094ffffe371U, 0xffff9a37ffff067aU, 0xffffb3f9ffffe992U,
  0xfffdd569ffffc01aU, 0x122a200003102U, 0x12dffffff839U, 0x55b900015778U,
  0x285cffffd420U, 0xe53100004056U, 0xffffdecdfffff0c8U, 0xffff31510000de18U,
  0xfffe2f2200003682U, 0xfffff413000049bbU, 0xf9a97f4f00014261U, 0x10502bbfdd4e07fU,
  0x81afb9395a5d797fU, 0x55a25703472181d8U, 0xd0399f981dd697efU, 0xd6656020815fae6aU,
  0x8810f9174c7fcc8aU, 0x8992ce3a8fab28f0U, 0xfa81762929b66629U, 0x814e7ffab59b3300U,
  0xb02819b97f5c1ce2U, 0xafdc3a46d4814981U, 0x1b975e25f552c5e7U, 0x8181a8bcec3fda9aU,
  0x5be16ef82ba617c7U, 0xee450c814963a967U, 0x8f315904a481abbaU, 0x9069bba02639d24dU,
  0xe2bae8010d377f4cU, 0x867fc6267f4b77eaU, 0x7f520dc30ad5e933U, 0xa57b3a7ff7155608U,
  0xc67f984503b0105eU, 0x9331b7971276fd4bU, 0xbd3ebe7f67b07f30U, 0x49ae1fcde76ce550U,
  0x455481ccad5e5ac6U, 0x56527f7273bab779U, 0xf6fb65f8a16a91bU, 0xe8321c92a581682bU,
  0x14d1ca5b0ace7ee8U, 0x811c9fda8c49107cU, 0x63a805396c4dc07fU, 0x6ad708b1efb67fcdU,
  0x8f97fe8195c50499U, 0xa3a6cf1065bbc34fU, 0xffffa94981c0e9b9U, 0x824ffffbe38U,
  0xffffa585fffff622U, 0xfffff538ffffcb2bU, 0x4ce2000081e9U, 0xffffc20bffffc083U,
  0x42db00006a97U, 0xffffc8c8ffff72f1U, 0x76effffcbfcU, 0x20f200004b17U,
  0xffff97e500006df4U, 0xffffefe500001909U, 0xffffe832ffffacd3U, 0xfffff9e30000055cU,
  0xffffea1800009594U, 0x3e9a000049daU, 0x83025aa200000e87U, 0x34a5c8e22edb3fafU,
  0x38b864d29a71cfd7U, 0x8e9deeb4eece7e76U, 0xd948d3ac9d77f1cU, 0x1a9431c3d3ab2f3eU,
  0x2046485172c82992U, 0xe8ee840368d6d19fU, 0x6126a5a39292457fU, 0xe13fa072c8a1ab9fU,
  0x5dd702ddcb7a8749U, 0xee3781e23271031fU, 0x585ec94e7b0a165bU, 0x73932953dd17a0f2U,
  0xd8158171e4379c53U, 0xa506212f55aee1caU, 0x1c99f6c9d1ba2cedU, 0x8158fd9224db0984U,
  0x2418128c815c5771U, 0xcc01314c8a6e72b4U, 0xd52ce3c9476b8449U, 0x4e45a9f0a2489dfU,
  0x7f10e5fd7f389c5aU, 0x89cc4afec75ad35bU, 0x3bad3112592186c9U, 0xcc5a5a3449a73675U,
  0xb953251c3df88ce4U, 0x2344fbbd37a27fa3U, 0x2b4358a3eb163b9bU, 0x8995adbe97306220U,
  0x3d88c8b087470d90U, 0xf045d3037f778aeeU, 0xa1b2835a69c0f16dU, 0xa3e0a0992394e272U,
  0x84362e1731147f8aU, 0xea08ab9e1860dcdU, 0xc782f529c5446072U, 0xf163d3540ccad34eU,
  0x8113b53a7ec51a2bU, 0x3c7ce43e13933520U, 0x372c4743fb91ea0dU, 0xee43adeee5bf10aeU,
  0x90993cd1d9cc0b7fU, 0x36a664b78d6c18bfU, 0x89893549f9a4544aU, 0x4aec79ddf2dc63c8U,
  0xd3f8fa02f97b5541U, 0x817bbd2fe5b091deU, 0xec9df054e3b22f66U, 0x7bce3e0e253f7f0fU,
  0xd221a7d620891f54U, 0x796fc6e9759d7394U, 0xdf066b6282fbfacfU, 0x79e8fb9498760ab6U,
  0x4d886825ffbf7031U, 0x98681cc46bce1acU, 0x81e559b99392a8a1U, 0x976c013345f64603U,
  0x6900d2380f8d2555U, 0xfe06a3d9caa905ecU, 0x8119c366cf342032U, 0x8ac2a67f77a0a951U,
  0x3f48ad5e00b5af06U, 0x50fa03d09529c521U, 0x23cb77434b94db78U, 0x9eb035f5bcdc13bcU,
  0xe38c397b2d9a518bU, 0xa284e3be497f4699U, 0x1e58ba6b893fa15dU, 0x2e504d24c2418cc8U,
  0x20515dc859caf524U, 0xf56db5efaf1c49a4U, 0x354e32537ffea77aU, 0x1bd82afc5ac60b4fU,
  0x643999097d092cbU, 0x4b5d624081054a43U, 0x644f2467ee9af1beU, 0x88c7ac605789af51U,
  0x4e4b208e048ec9a9U, 0x4a20ab292a9cd881U, 0xa5c2273e5e09a32bU, 0xd130f4ccb6bdaebcU,
  0xd5e77132e7d33871U, 0x56c287fc7f942459U, 0xd0d6af4ff328ee1fU, 0x146f4abc32c70763U,
  0xc3d068a1a13f3fe3U, 0xbe262859289364adU, 0x2bbc62fbc466f181U, 0x4bbefaaf419860e9U,
  0xce6075a9dd7faeb4U, 0x4526ffacc34930b9U, 0x55b0647f09201d16U, 0xc8dbeb30d290325U,
  0x98bf451d08fa90cfU, 0xe357c8245dceebeeU, 0x9f189760f78fcbcaU, 0xb2e3b495dcc8aa10U,
  0x52718109b16baf3bU, 0x92772170751f121bU, 0x13572c207cedd6f9U, 0x1e871d7f915e8bdfU,
  0xabe1aaabfd38f54bU, 0xcc9fc1e5f920265aU, 0x8328679406f95443U, 0xc17d75ff198b57aaU,
  0x8537f72abd445bd1U, 0x95702ebeb27d7fadU, 0x48169b35eae97031U, 0x7a402e5f1b83de42U,
  0x956d5d42442a815dU, 0xcee996a0e0af13fcU, 0xf08c991ebe11ef0fU, 0xd147b41e02cb910fU,
  0x56352feea3061dc8U, 0xf981aff48bd80760U, 0x78f7c9ee525f8538U, 0xc35f1a4a33c265a0U,
  0xd57fbcf18603f382U, 0x955e0a846b3cb833U, 0x94ae9bc6b6ff2824U, 0xd24342221ca7dd9fU,
  0x38993366cf30f57fU, 0x844828393ee94df7U, 0xf5d39ada6825d527U, 0xc77b81784055f741U,
  0x559f3b21e01cd80dU, 0x2cf674b0f4bab405U, 0x17fb70bb9ad1cU, 0x226500014bd9U,
  0x669900001b80U, 0xfffe6f2d00001c26U, 0x2ddec00017d0fU, 0x8c91ffffa7b4U,
  0xffff40faffffaa75U, 0xe360001f6bdU, 0x1a0a40000ca03U, 0xffff7877fffda0f4U,
  0x7a3f0000d129U, 0xffff2eedffffd5d8U, 0xace00014762U, 0xfffeffef00000c5aU,
  0x23bd2ffff61bdU, 0xffff86cf00004194U, 0x7aaed1c8000058fcU, 0x1ec23f521fcf815dU,
  0x57f618c549ad871fU, 0x4afef04900f1918dU, 0x505ab8705de78c37U, 0xd55fe0d156c78173U,
  0x597c68c6f2d9eb26U, 0x5be572ae1909b8b7U, 0x9d5e44142a6a0ccbU, 0x62d155ed36510025U,
  0x4141b2b7d378ad7fU, 0x72af5250bd1dda90U, 0x1af595c118117d1dU, 0xd4f8bc1b13ad7bfaU,
  0xdca22df5deece73cU, 0xbe10b77710858cd4U, 0x23650996cdbe7f5aU, 0xbf5536bced6d72f9U,
  0x4ec417f1dfca9d7U, 0x5658bccaf2b7abccU, 0x251316cc188e6037U, 0xfc761da6c9d0811cU,
  0x3602694dec8f2a02U, 0x2b012792e56342a8U, 0x8e26814b140cf066U, 0x32b020b4da488f92U,
  0xc4e5b14ccb3edaf5U, 0xb3dd5f38f55d9efU, 0xb943ba594f489ee6U, 0x5d24c17008e72b3bU,
  0x3c73096814c5120dU, 0x5a7f3fa89b4292ffU, 0x1003cd5d66ffa0fcU, 0x548112394793623U,
  0x317c21722a93f00U, 0xdb8874aff745e01dU, 0xecee3b0c4e811da6U, 0x19f7494e116a92e5U,
  0x47a993b69e50b414U, 0x30102a1e78ddd260U, 0x4c343766e74f81aeU, 0x3491b93c1c7582fdU,
  0x42143b06d5260d7fU, 0xf1a4034e2c7538a5U, 0xe9b114bf4a7fca19U, 0x967f047960f696d6U,
  0xf11ea6f8a9467362U, 0xc6a05021df253101U, 0x3010f81f579f42e9U, 0x68559815eb59a1a3U,
  0xe6ae90a21d3f5190U, 0x1bb5e47f2eedd393U, 0xf07f6e56287763f3U, 0x9d5ac6a535bcafedU,
  0xa61d956e37448863U, 0xcaf09d453e6bff4fU, 0x1e81e0498cf00113U, 0x22f95c8bd6a0feb8U,
  0xfc3f66daf7b8c57bU, 0x9f3f3e8325ca4f6cU, 0xa078316f814fee43U, 0x68a2bf3865a181f9U,
  0x4c12a6bbf0711781U, 0xaeebc4d090c60207U, 0x2355a9d4e4c2b579U, 0x63e1071ec09553ddU,
  0x51d5db95d97db3d1U, 0xe7bb906dc627d540U, 0x294d32fbf281b564U, 0x61411c81a43c67c9U,
  0x2d915569dc02588cU, 0x915e3b31a2ee5e13U, 0xf77a9f234e1ab0caU, 0x401db41a5c4f443eU,
  0x98f5817f38e70171U, 0x850573a3c3f862f4U, 0xf941287f9361eb7eU, 0xddabd445b1ccb789U,
  0xbb460250b32943b9U, 0xaef3e3ae233f8565U, 0x27395a888106e2ecU, 0x7556c96bea45e0d6U,
  0xa6de7bbfdba1a29aU, 0xbb3ee1f97fab31d7U, 0x9cfbbc37423b6e52U, 0x4dbcb1a53a716740U,
  0x69c93fad916b5819U, 0x62b3fa52721ffcb9U, 0x9e574f1e36817444U, 0x349541548fb6e8d8U,
  0xad8122cf993a1aa5U, 0x83408956976ec99fU, 0x9eb52778676623c0U, 0x5af1d01ee8e6d037U,
  0xd2294d753d81be08U, 0xaa37fbd7931fc2f8U, 0x1000450d7e86b2aaU, 0x679d5d252a43a4e5U,
  0x815ad46366584d4dU, 0x125ff9f11ff1c4edU, 0x94d19b3911b5f23U, 0xf037fb1c31e69ce2U,
  0xb0d9545bb6c278aaU, 0x587f52f658d9d019U, 0xbc7878ec58fe6dbdU, 0xd07fa66078512e8eU,
  0xd28c971b0496dc1fU, 0x70f247388570c04cU, 0x1c9f580dc63279faU, 0x7fda01f68efba3cdU,
  0x122cbf02ef11b70fU, 0x3d01636f18625f8fU, 0xbed1c500acb67cd4U, 0xcdc116e85e4eb033U,
  0xe34d248ace681ce7U, 0x8783907f6b1b20dcU, 0xc5259dc93a03515eU, 0xb3e52032bdc26afeU,
  0x703afb7fec6c0850U, 0x4762a77553907af7U, 0x294806a0d5522641U, 0x3e0405826ffb5cb6U,
  0xc0381f0adcd54381U, 0xa1b56506f0ea95f8U, 0x479d817b2800c3f8U, 0xc52562303d359344U,
  0x35e4196513a6cc70U, 0x9c4269d35f098476U, 0x6a14779d438aU, 0xfffe3203fffe8e82U,
  0xffff6e0500015afaU, 0x18e7bffff8e93U, 0xffffb466fffe4ad8U, 0xfffdd016fffffa4bU,
  0x25bbffffa8c9U, 0x3b9dffffb83fU, 0x1216900014346U, 0xfffec122ffff144fU,
  0xffff620700013f7fU, 0x16502fffec068U, 0xfffe48c30000d6e7U, 0xffff024efffee857U,
  0xfffff26affffd1e2U, 0xb803fffe2a85U, 0xaa791e51fffed69dU, 0x4a358b845ef0ecadU,
  0x99a6267fadeead9fU, 0xe336227781aa7f81U, 0x81b92512c49b357fU, 0xed7fe16ecc9879d8U,
  0x76c92e189963d173U, 0x4ee4ad2dc355d15eU, 0xb2fd8152cf0cce0bU, 0x52c45730224cd17fU,
  0xe9d5eb0c9ab0fa81U, 0xfeb95eca3bd02f0aU, 0x14487a5fe5db7ffdU, 0x7f47576214ea35b6U,
  0x5c7fbbe8b07ffa0bU, 0x56cfb73c4cc57375U, 0x8b1b483bfd7f2364U, 0xfcc67f81054d55a0U,
  0xab4c3983aad28648U, 0x95497b812481eca2U, 0x5e989cf2059e9ecdU, 0xe65dc11d06ff81b6U,
  0x93daeef87da599f1U, 0x7f81c37c3bd59b97U, 0xaf42f10ec193b9c8U, 0xfa38ff3f328155faU,
  0x8197c3b125fe89daU, 0x4c33bf2eff0e6ae7U, 0xe7f8d8149327229U, 0x3da70ef87f2d5af4U,
  0x1c90813e9174a7c3U, 0xbc47ed66461531deU, 0xc45c3a648146f2b6U, 0xd746b345d0a90cadU,
  0x86848aeb7fd87fa1U, 0xe3b77f8b944e096eU, 0xffffb4acf9e135f4U, 0xffffabb400000890U,
  0x4ec9000074eeU, 0x2ab1ffffb5c1U, 0xffffe153ffffc0ebU, 0xffffb2eeffffeffbU,
  0x3753ffffbd27U, 0xffffe69000007e12U, 0x14f500004c54U, 0x563500004d91U,
  0x15ab00005c41U, 0x2633ffffb839U, 0xffffd7adfffffb1bU, 0x18feffffe2c0U,
  0xffffec34ffffdd8aU, 0x27bdffffdab8U, 0x2e49a8c000003eb5U, 0xf29af0860570614cU,
  0xd2c0d16b4c0fa5eaU, 0xf6e18a9ca15a1778U, 0x84811b16593b357fU, 0xc06aee36deaf9da4U,
  0x992739cd9a2dd42cU, 0x1c737c8c86e07c9U, 0x1d5e1b1054dc36ddU, 0x47f07fb52819019fU,
  0x9d67b069f2691613U, 0x589e7adaf0f922ecU, 0xe9ef1e1891010393U, 0x82ea66811735d396U,
  0xfd21c21e2a5db8f2U, 0x38f6889ce2e6a0c6U, 0xa288dd9e7a29fc53U, 0xe146e877425c45bdU,
  0xfee6da8e3bf781dcU, 0xa8ae0d9c4db3def8U, 0x2201089a260d9dfU, 0xaa3a61eef07b3e1U,
  0x13581884a5c8a5eeU, 0x30043642743e420fU, 0x4a96810c03c61081U, 0x78d391df35c91cf8U,
  0xfd4506ac5a7703d9U, 0xb04b14fbb7b915c8U, 0xdbef3f116c51e129U, 0x2501f8c82c2352f5U,
  0x9630377f3945c124U, 0xbfb421ecf14e5c53U, 0xfc1a9e28d20202d1U, 0xf009f3d95c54ddf8U,
  0xe07df1ec0c9e811U, 0xfe04532f40ff966eU, 0x48a6b0e6b6814795U, 0xd4b94d815393c22aU,
  0x5c95b54aefdbacb6U, 0x57b39cf34c872562U, 0x1fac1c05c2f67b52U, 0xf22c999e7fa710bcU,
  0x4134d09b44b934afU, 0x6e597d5db701a1f1U, 0x4b4141533499038cU, 0xca24a97fef909f36U,
  0x3fd6d85967b54cd9U, 0xd4e7924f6293409aU, 0x81e568628b260bb2U, 0xd8f79e1bf5233554U,
  0x63813802e9691336U, 0x4c725f5a2bf80737U, 0x1c1ec92df34fc929U, 0x8db8c10243573ee5U,
  0x6af4cc4371017b2U, 0x947fa855bc09bd28U, 0xc8bf89e665bfc724U, 0xcbef5f975db2bfaeU,
  0xd184188ed62913c0U, 0xe7094197d5366fdfU, 0xc55b0b7bf977815fU, 0x31b70b302757ea87U,
  0xbd65b435265a6ea9U, 0x13e67f2eac9ca700U, 0xca655c6e8e4c53a9U, 0x5236f3edb40856b2U,
  0x9ca4d39572c4b1ddU, 0xb37f5cbe1ac29438U, 0x26fa34ddfb2ec1c1U, 0x745422f7dc753c9eU,
  0xb3a1990368e74eb4U, 0xa530c981373f2c71U, 0xab4b6581d0cffc5bU, 0x2e1d21564812ee70U,
  0x1b2747a5a4193804U, 0x2dcc17283bb7773U, 0x4bf27fbbe43b4598U, 0x79459b8703fa72efU,
  0x8a2edb493ace01c8U, 0x12d2c01a39baed66U, 0x790967c6c2682fa3U, 0x48b7669d0926bd05U,
  0xf19af6d4c90936a1U, 0x92a2f5caf67f92e4U, 0x81bbac0abc1c1197U, 0x5b4ba3c123f4266U,
  0xa47b5b2190960c22U, 0x9b670aadf85778c0U, 0xb98a7fa42dcdda2eU, 0x15fce0b8565c4b0eU,
  0x7af9a397f32daef1U, 0x1b61f687120eb0dU, 0xc435c2c6339a7c6eU, 0x84f518014d8d2a93U,
  0x3192891226bbb037U, 0xd8900005d5bb27beU, 0xb1910cc548812532U, 0x81ffed5cf3ba8452U,
  0xc6db37727243c410U, 0xc64de844efd692aU, 0xa0afa181f797e47aU, 0x5993e93359e92e28U,
  0xd7dcc154c7129936U, 0x3861dc7160b8486aU, 0xffae3275fae6aaf6U, 0x9ab1dea8f7fdc4bfU,
  0x75bb63dcac71dc2fU, 0x435f659e509d1f7fU, 0xbd8e9d6a9be07b01U, 0x6433d97d44d6add6U,
  0x7f5a9930990acd96U, 0x1a34ffc861030f6cU, 0xa67f4137835a3658U, 0x205d7b2189416b95U,
  0x65a2315286018394U, 0x5cb3d2c812f30388U, 0xd59664a6c54ab8b2U, 0xe7e884144a8db255U,
  0x7ce7a5b8c4f9898dU, 0x536281e5d7bc27c1U, 0xb9c26309bf169d2fU, 0x874d011eb8bca002U,
  0xfd91bdbffa87d3d7U, 0xafe7bbdc41a57f0dU, 0x5127f07d53ad6e29U, 0xd883467bb97f4e25U,
  0x3394caf4d35d4adfU, 0x1c7add7304ddfb3bU, 0xffff8c169108fab3U, 0xffff34bf000202abU,
  0x2a8dd0001344eU, 0xffffe67600014eb2U, 0x7b57fffe95aaU, 0xd5470001a59bU,
  0xfffd30e5ffffe19bU, 0x28238000052b6U, 0xdddaffff3922U, 0xfffe7a28ffff5669U,
  0x1baacffffc8afU, 0xffff1fb70000537cU, 0x505a00030939U, 0xffff90a90000750aU,
  0x6c32ffff281cU, 0x2809000033ab8U, 0x52cfa7c6fffe15c9U, 0xf4c54981521b2a41U,
  0xa5eb9d5e9c79875fU, 0x1803a5ed766d4968U, 0x5af085be34d299f7U, 0xd081071ddea0d713U,
  0xf8143d08bffeea39U, 0xe6c7a7fac2b6fb2cU, 0xd935b3eab3fd2932U, 0x920238f8d1bb4b37U,
  0x1b2f533fb13a903U, 0x320475f3db308ae3U, 0xc541bc814be3d481U, 0x7c0cfbc52f855037U,
  0x7b971d7c080bafe2U, 0x10203191c5c2da37U, 0xdef461dfbafcacbcU, 0x3c45a56753d4aaa2U,
  0xd98a38bb12a697d0U, 0x8633bb153f7017f0U, 0x552e5354d24981ceU, 0x5f7f1bfc8d44173aU,
  0x76ed71d0682364eaU, 0x2b3de0f04750b24dU, 0xc634895156b8e859U, 0xc1d46de7f2e2d4a9U,
  0x33c281b2b4ce0b99U, 0xad0c3191f3e984ffU, 0x667fc72ba0b0c7ccU, 0x4dd3a730b453ae43U,
  0xe8181814d23fb467U, 0x3cdc43e073bba1bdU, 0xce73d2b96f4d45dbU, 0x46177f693588f786U,
  0x5c2e2e77a39cca94U, 0x2c4ed18c8e617716U, 0x9f31212d21812fecU, 0x1141b4779f03efb3U,
  0xda4b3068ff0521caU, 0x2f086e264d7fd697U, 0x636981c04420d519U, 0x85c2adad6c21f1c2U,
  0x41a9ca0674fe6964U, 0xd0417786edd9cd4eU, 0x81b9b9905eec9e68U, 0xf1b8a212ebf3102U,
  0x43d94128b533b406U, 0xfa0e5f9ddb74f147U, 0x426d2a476114efd2U, 0x707fc8f148755116U,
  0x1d6c1843aa9a34a1U, 0xc1a36d0c0d0a1cfdU, 0x7ff6add23c56e2e3U, 0xe322898130d6ff9U,
  0xaa1ab18c6da2f545U, 0x4ebfab0a6f0795cdU, 0xae0dbaf8613830b5U, 0xb3b5237a87bce028U,
  0x7712e16e56536904U, 0x9cd650785ecbb9f9U, 0x6d84adba7fb389d7U, 0xcbf61d22ee2a7028U,
  0xde1a810b4440be76U, 0xcec7ec419cd21fe7U, 0xfdf2c481dc67f70fU, 0xce34f8e68c5e3aebU,
  0xa51e14c7f21d7f58U, 0xe0f0bf952114ad07U, 0x40e3f18bce350220U, 0xb1f46cb0f2020563U,
  0xdccdc19b78449e04U, 0xe169d47ceda2ae1U, 0xbe7f5ff6811662c4U, 0xc9dfde2552618ed4U,
  0xe2a924136979f56fU, 0xbd48775a9703ca0aU, 0x5bc6b5dc0be0cc0bU, 0xe9b342a711dfeee5U,
  0xeaac813e57cc50ebU, 0x5a250d6112606b76U, 0x114b5c7f60075be8U, 0x16681f5855214930U,
  0x9e77e393b88d093dU, 0x3d12faa31fdbfde0U, 0x8f45a94a4d00c0b2U, 0xa0adb3c7d40587b5U,
  0x8c1f7f39a22959fbU, 0xac50f31cc6f53b59U, 0xbda40b0e7345d727U, 0xcc8158692647f8cfU,
  0x4501dee6cbb83384U, 0x88948996cfdbe05dU, 0xffd934fb1a4025b5U, 0x109947d42aa333aaU,
  0x72ae583d81af03c9U, 0x46c56219c2b36d9eU, 0xe7a221d1b6a0f259U, 0xa4b7ee0065408e22U,
  0xb5d0d71fe81b6ff8U, 0xdf520cf31901fdb0U, 0xcf4fc7e2bf7f203cU, 0xf3e7ad6e72b20438U,
  0xbabcf5a64a42bbefU, 0x385f81fed1d06189U, 0x4282233b1c07bb44U, 0xf4714fe91b76bce0U,
  0x7f67b0826d0ac9fcU, 0x2e34c86f2cb4b0d6U, 0x838b167f99e558f4U, 0x6587a53cfbcd0234U,
  0x9601d255023bc7daU, 0x62fd50bbf1b5b9aU, 0x7548a732788e5634U, 0xabf3511f10b63518U,
  0x5b2af97f5e8ef61bU, 0x938b6ab3a9527e67U, 0x5138f5b868217a6U, 0xa86b445cba0d4706U,
  0x4560334da80266b7U, 0xbaf9c6f87f17d5d3U, 0x5c3f4f1e28b95cc0U, 0xfb025f7f42c9c292U,
  0x31aac6fd486f44a3U, 0xce3ec10726496f46U, 0x25d321409edc04c0U, 0x4e11eb43ee0eb5eU,
  0x81da3b5741bc629aU, 0x8e52a6fba5aba16eU, 0xffffc2703b3bece7U, 0xfae80001b50bU,
  0x1480200010122U, 0x3af2cfffc67cfU, 0xffffe430fffeb2ddU, 0xffffced6fffe98e6U,
  0xfffd875800007460U, 0xffffb9c70000186fU, 0xd48200002d20U, 0xffff12b700011775U,
  0xfffedc6efffebf33U, 0x1f55e00009aaaU, 0x54e20000e855U, 0xffff37a000008a64U,
  0xffff8965000055daU, 0xfffeb855ffff1055U, 0x81dab95500005866U, 0x8b38d305c86d36ecU,
  0x402198ef0be4d8b0U, 0xae3490ef0a817f43U, 0x70f79fb40fccf260U, 0x1d1a81a8af92fad3U,
  0xef0a89d779b5f11fU, 0xfdd1bf317d976ed9U, 0x4a392f81fbfd19fcU, 0x8adcfd157f21112dU,
  0xf2d3357fb096719aU, 0x27dac462816e45a5U, 0x9ef3a93c06a56f69U, 0x1b7f90ec366998abU,
  0x31608d3a185b160U, 0x81d525c8c6115eb3U, 0x7d7f7f5e97818912U, 0x725d03ef6edf481U,
  0xc77f7f337ffb7fdfU, 0x6b5d7fca6386ba0bU, 0x9a43b0fa7f0d8181U, 0x7fc13ea4e482c567U,
  0x7f1202cf3fbcfc56U, 0x947f346174b8ae02U, 0x448b1eb34d0329e4U, 0x71cca906f2412c44U,
  0xd2f90e437110f6caU, 0xc0f32cf577b628e6U, 0xd7bddca60fd2e6dcU, 0x29d2217ffcf1c781U,
  0x3700b6a4607fd481U, 0x145faa7fb0b5cb7fU, 0x2de15d09f0dcbe9bU, 0xe3d5a43cd87f814aU,
  0x329e8acc131cee74U, 0x2f506a7b11cc2167U, 0x2addc8656c6bU, 0xc1c000000a2U,
  0x26d0fffff0dcU, 0xffffd8c200004c20U, 0xffffe50f00001386U, 0xfffffa6a0000693cU,
  0xfffffe23ffffeb98U, 0x3e40fffffb4dU, 0xc5affffab3aU, 0xfffff5c600003044U,
  0xfffff1baffffdf53U, 0x79f8ffffc0b7U, 0xffffae9bffffd16dU, 0xffffbbe8fffff7adU,
  0xffffe495000023e7U, 0x38050000138bU, 0xfb2f5bb3fffffcd6U, 0xeb4d1e307f9ef2e9U,
  0x1f38d15e7c44532eU, 0x7b236a57fffa0889U, 0x5735cc4a952c99b3U, 0x3184e449ceb221fcU,
  0x60b9e076b70db7b4U, 0xedd12d71119de6daU, 0x48ec717f6f267f59U, 0x29576ce8e4a07836U,
  0xc56fd30c9d3393d0U, 0x6047fd22e5a49f5dU, 0xaca253acbe7b02U, 0xe41ee8187b77e70U,
  0x6dec0ba810618bc3U, 0x49d472bfad846892U, 0x6c8132a4d2bcf60dU, 0x53472e3c0f5f1151U,
  0xeb30c8a030c642e5U, 0x7cfd98e315acfcbU, 0x4f43944ec1b92041U, 0x14ee1976dae63a10U,
  0x17e64c6d26ef58aaU, 0x2b510b1f7fb5e772U, 0xbe81174969abb26aU, 0xe0469bf4261beda1U,
  0x8d637b8a426c35d0U, 0x78a43d9aa8bfb2c8U, 0xb24c4794508ed2aaU, 0xf826164240377ff3U,
  0x36d8ef54f0b34ba8U, 0x1fd35c4b2140335fU, 0x487be7d3e6fee861U, 0x7e44a4906cfd5852U,
  0xa268de1efc0c2127U, 0xd1a49c67e84fba12U, 0x71515f445e811aacU, 0x53770d4592520a3U,
  0xba308187c7e80b40U, 0xa813df2a46a5088aU, 0x9257601227fc3c4dU, 0xd0a497bdb3a4ee58U,
  0x6b208ead7a5fc2c3U, 0xf8c9608546a318bbU, 0xb2f40bef5d7fe1b7U, 0xd25bc60e46080e17U,
  0x1db32deba9297fb8U, 0xbce64006d4435fd7U, 0xc1c4a5001ddcb903U, 0x497f700025d418a8U,
  0x711635de7c120711U, 0xf89052d81caec508U, 0xe3af9a474ca03abbU, 0xa2d8d442c96f94ddU,
  0xff17c76ada0ad2e0U, 0x13f23bf66461737fU, 0x95b9b6ac65a4c702U, 0x2eecaecc42aa4a4aU,
  0x501409bd3be97faeU, 0xdd3734082b54adc8U, 0xbdd341688e7722d8U, 0xd95293c30bffc9b0U,
  0x7fc74d92d945c1e3U, 0x992000a7d2a7e46dU, 0x61a4f0b6def9f9e1U, 0x3a096c0536da8ef3U,
  0x90b0fc2ec503f917U, 0xefd0994d8161f291U, 0xd1f9d018db48febaU, 0xc21f8ddc18f5b396U,
  0x5ccaf2b85524d420U, 0xd27f8679e176fe19U, 0x816e76d3d4b8113bU, 0xf9603e7664bd41d1U,
  0xf6b71037c41d19c6U, 0x1e6822ebf2d6b0fcU, 0x26f318f9f0260da3U, 0x6a4422946bd02285U,
  0x36fadc304d76121cU, 0xac598437a5bf536dU, 0xa1862b010181ea6cU, 0x4f54e6a975db5ae3U,
  0x2d2f01e563aad7fU, 0xb8f8167d655de309U, 0xbe8d2fd49f04d50U, 0xeb463ff6d0dbce5aU,
  0xa19fecd270aae9c1U, 0xab781bbb7f95482cU, 0x425a7462de347c1cU, 0xdb129f20d22e03a7U,
  0xb6c5f60f008fc013U, 0x2b8bd8ac4eff6231U, 0xbb853e7f7dec1a81U, 0xd4093247133521c6U,
  0xcd3d04506659fe57U, 0x66214f12b8b56125U, 0x22e0671294792e25U, 0x1b6bb5a23ac3017U,
  0x65c0a53b81d6fb9dU, 0xb833f3e39de9e7f3U, 0x6ae03cc35928b1f2U, 0x184481ccad51ec33U,
  0x6769cd1161fbc3a8U, 0x1d9c4007e54be184U, 0x18bc98291be065d3U, 0x94b66d4bc4604d5aU,
  0x2a136a91a0663e85U, 0x96aabdca69887f32U, 0x64b3b6f234d29fbfU, 0x8b662f22d39b491bU,
  0xeeb25a388a65193eU, 0x206f2381877a591fU, 0x4f608e2a06abef5dU, 0x86df79bf7233f47dU,
  0xa91f243b3e5c293aU, 0x41f7c6c4d58ad4ddU, 0xd55f35455e2f81ecU, 0x2169c4ebbb27ea23U,
  0xfb10471a5a9e00c5U, 0xcab81681224588a2U, 0x5b10feed2ce4a756U, 0x2e4e097c55e4c395U,
  0x81e7da2aa0edf38cU, 0xc449f119e66770e6U, 0x6c4a895878780122U, 0x59684716b3a98e66U,
  0xef8d5cfd5281ed54U, 0x1b74a25cb49e7610U, 0xfffd9cbbc50d37aeU, 0xfffeac9dffff107aU,
  0xffffa5e100015837U, 0x21636fffcc85bU, 0xffff0463fffd4094U, 0x11125ffff42cdU,
  0xffff8b6c000000adU, 0x6d97ffff8cadU, 0x1c13700020ff3U, 0xffff3abf0000a051U,
  0xfffd9b9bfffec34fU, 0x33ce00002319U, 0x18af1fffcfb36U, 0x8c45ffff90e9U,
  0xffff0b8cffff2e79U, 0xfffee3b000004d03U, 0x266c773dfffed80fU, 0x45be7fbfafc1717dU,
  0x49ccf2387701c002U, 0x238f188f18e8d8c8U, 0xe254389a7afd2258U, 0xc5bf4c63058ec803U,
  0xb8e1d07f32989f25U, 0x1f0b44e42b757412U, 0x834f4a48d6b3123fU, 0x44427193dac54ed8U,
  0x7fd90de985f55ca9U, 0x79011635a123e234U, 0x429fd2b041396fcU, 0x271db8d57618810aU,
  0x15fbe9ebb756a3f7U, 0x8a3d55d5d4341a48U, 0xa3c3bba690d42c52U, 0xad095248ed9510c4U,
  0x7fe0c1499031466bU, 0x72f826434244194fU, 0xa23ba884519fd3a7U, 0x57abb4f3bac47008U,
  0x58f67fd6d870f678U, 0xc63adf30cc25d44dU, 0x733c8f1b70dbfa14U, 0x772460a63b644d92U,
  0xb7f42ad52444526U, 0x7478fda1ad92a001U, 0xcfbe0078cecaad36U, 0x6c41d03c98d159c3U,
  0x562dd405f8e9231aU, 0xdabd6e8cae07787fU, 0x81c679fc89e377e7U, 0x5ecb9c780e30bbecU,
  0xc37bc3597c7d3b36U, 0xba1ee6dfa5a159dbU, 0x14249b184ffcfe6U, 0xc3e5d1f040709b71U,
  0xcf33ee3c04fadd69U, 0xdf52cbe2ffba3425U, 0xf16858107f7d332eU, 0xd75674aefac1051eU,
  0x23c305fe821bcf5dU, 0xa0b1af1fcf53e8b6U, 0xe1583b663bee7f28U, 0x6a5e3c54f05d1b15U,
  0xe44ff33b0a190aeeU, 0xf0edd082391c368eU, 0xc921c6257fe162efU, 0xf6dfbdf1e74fee7fU,
  0x7bbc72503987ad84U, 0x53c0c3e7dcdc30a3U, 0xd30d59ddaf5c7034U, 0xe21855ea2c6f212eU,
  0x2709ea15618124f5U, 0x8ed308091dd3125fU, 0x7ba00e8d53d1e0fU, 0x9cdb43dc0bd8d801U,
  0x7fbb13ef8a416ab9U, 0x244abc13ee8ed6a9U, 0x72fb1046a62c6afU, 0xe36b224fdaccf67fU,
  0xa06bced5adf62647U, 0x4ca7b33740e1e8b7U, 0x6aac3246ae91b69bU, 0x9f8995df4eb15d14U,
  0x40e4c29f9e7fd189U, 0x22c123f2ef53ad3eU, 0xe80817810bbc0d2dU, 0xd5d3e46d528ab2d1U,
  0x642300f6402ad28bU, 0x17e08cd8418ce998U, 0xbd87dc6292a9506fU, 0x11dbec3afa8176e7U,
  0x99933cd20723e152U, 0x38def0c1c9aac519U, 0x38d8139ba3b211dU, 0x3a8922ce55176a0bU,
  0xfa0afae60121db04U, 0x89834021b2178d40U, 0x30da0b36da9c3eaaU, 0x482732c390e0489dU,
  0x540e1a525c813846U, 0x93a9cf29d3057614U, 0x8d864cf17eee8a6cU, 0xfae04e50262eb6d4U,
  0x8ec97f8f3e1867d0U, 0x77355108c983702eU, 0xe7d21e3c420530eeU, 0x757f8177b983666cU,
  0x439916de1e7f28d0U, 0xf56aa5d22f473c02U, 0x415bda32655e785U, 0x3bd43f7f95054f1U,
  0x987f9f1807e519d2U, 0xe84a320dc2720cf2U, 0x45c1a404a53fd7b3U, 0x36a31bd9ae97e0e2U,
  0x493b205be3152081U, 0x85a64ca9a3fb28abU, 0x95435fdff044eee4U, 0x668b20a8c071565U,
  0x3a07cf6a6db0cae6U, 0xd19952fdb4be907fU, 0xccb8b152cf0c58ebU, 0x367f58fbaca79ff9U,
  0x2ecef5d7e5090e72U, 0xcfeeeeb51d483e57U, 0x1fe54b405ddaa89cU, 0x52b37c5569662afU,
  0xbaa3606fc9302ca9U, 0xdb71aa7fbcd3e6deU, 0xc660993b5924daeaU, 0xbbfa7c0654bcb3c3U,
  0xccb789a1aff67583U, 0xef00c63a6c76228cU, 0xc30db566da1eef81U, 0x38c153be5505faa9U,
  0x9d7bef9900515c21U, 0xe77f57995fb6a9eaU, 0x1ac8451e264c06e7U, 0x5fa166a3424366b6U,
  0xd1fe01ba8b694911U, 0xd4f67f0297536c4aU, 0xffbc9d75c0fc1c60U, 0x8add51081043a461U,
  0xc14abfc37fb64216U, 0xc3834c83e4a8e26dU, 0xfffde03c0895b1a9U, 0xffff4529ffffad2eU,
  0xffff8c21fffff52aU, 0xfffe629effff8ec1U, 0x1598ffff4808U, 0xffffa1bffffe0945U,
  0x360dfffd2b73U, 0x162aafffead5bU, 0x122a700012f3aU, 0x180240001ec3eU,
  0xfffee18e0001a6b3U, 0xfffe3052ffff16a3U, 0x2229b00003808U, 0x821200000c75U,
  0x207c4ffff66adU, 0xfffe3c82ffff540fU, 0xa45fed320001d91fU, 0x3fdf6332d6e2abe9U,
  0xb82469d6065f0a42U, 0xd77f65b6223dbc09U, 0x8116b0205cd80153U, 0x4aa4046851d181d1U,
  0x4906dd1691457ffcU, 0xebe3f25881814cfaU, 0x5ff436d319dab63dU, 0xfde0ec7f58bb23c5U,
  0xc2147f0e763166ccU, 0x2b3ef77f4f7b45d4U, 0x708b81f8ffae6498U, 0xe7d72ab9cabfe97fU,
  0xbd6463aee85ec429U, 0xae46ed8e1181c20dU, 0x3aed02b3b181432eU, 0xeb24d28f162619a1U,
  0x7fc02c98812052a1U, 0xb4298172a0f41a81U, 0x3876d299c74b5a2eU, 0x81d781dca4bc16a7U,
  0xcf66e589381d87fU, 0x18925be308823fbfU, 0x9d2c846a33a9f88aU, 0x93f5d2e60fa9c03cU,
  0xf7364b1fabe35708U, 0x2997245c108c7feeU, 0x9f7ff67f4889e617U, 0x9f7f060b7f81fed4U,
  0x1a04a7817f13cce9U, 0x7fdcd2f10f1849ffU, 0xfa472430815fe17aU, 0xcbdc5eada5e6034eU,
  0xea7f7f9275c95585U, 0x77a751e3e701ae44U, 0xffffd83791627f81U, 0xffff98d000005579U,
  0x1fce00000d88U, 0x742100004328U, 0x21bfffff30fU, 0x297800000435U,
  0x164700004fadU, 0xffffd1ffffffa24bU, 0x476a00000438U, 0xffffb80affff7177U,
  0x3a3bfffffe0fU, 0x5c22ffffbcd2U, 0xffffcf6900000a4aU, 0x1a5affffee31U,
  0x195ffffd64bU, 0x2fcbffffb1abU, 0x5255e8d0000009d6U, 0xd02594b1de3af8d9U,
  0x6a2ceefe0e4f4ef3U, 0xe6a537158c0d5a6dU, 0x1485851aa28c7fb0U, 0x60949cf0f6457fb3U,
  0xae515b160f1666a2U, 0x5f9ab3585b49e250U, 0xbfce87ae239f45e0U, 0x62dd7fa5985b493fU,
  0x419f7287e022f146U, 0xb61c88beb3d4208bU, 0x18d9ee3c29c59caeU, 0xa46560f5a7d1e83aU,
  0x370b08ba97965255U, 0x96cfd9ea4c9a2f4cU, 0x64d9ed9af381a715U, 0xc9fcf89f3c4e7f0aU,
  0x2acfd44c898f3e6dU, 0x9c3a18c422e19103U, 0x90f5a5eda45398dU, 0x273b7fc7c2c3e8f3U,
  0x283791066dc41a19U, 0xddcd7bd411d5d72aU, 0x95343ceb6bb5e2d7U, 0xcdf81b10a5b6199fU,
  0x95aafaf030a97fe4U, 0xf9fbb08e12899f0U, 0x67744bca47fce4d9U, 0xb7a8069856f0f6bbU,
  0x7d1ed6baf0fed26cU, 0x60819dd7560b0daaU, 0x4abe83782a4410abU, 0xb48552fdd1c15c8bU,
  0x3a50e0a006078b77U, 0x7f3e200629d4fb05U, 0x2cd445c9e1692272U, 0x7101718d055488e6U,
  0xa593ad20cf35a0d5U, 0xcc27df782d677fadU, 0xf73b202d77e3081cU, 0x2c74c7901a079b15U,
  0x740b2600a0c21577U, 0xe70f70e6ee52dd52U, 0xba72c576a47fd489U, 0x447f27a15501ede6U,
  0x40ed6056d4c5646U, 0x7a5f8e45740deecU, 0x7cf6ce1c1c0b5773U, 0x8815b725686005adU,
  0xd4465ef2b47fe29cU, 0x9e44d6ef1d3471f4U, 0xe4aee559bdac39f4U, 0x9e5483e839ab579bU,
  0xdc8b72b396f1b8a8U, 0x1cdf24f5fd07a07fU, 0xeef2b4d1fefabe48U, 0xe17c8ed5be86a0feU,
  0xbbd89acd9a110191U, 0x7d56ae5d258a07f2U, 0xf1ff637e9375f181U, 0x4a8f90ebbd664e79U,
  0x786cbecfb5eee0a0U, 0x42ecc5ff39726220U, 0xdc51eca01c5d4581U, 0x3f69db329c892decU,
  0x2b8fe46e626d33c7U, 0xe5688153e19e5940U, 0x3a48d1f3774e74c5U, 0x62ca5a39dcb1b4aaU,
  0x8cb07fd59ff807cdU, 0xdb94c93e3cff19f6U, 0xe4cad265e97b75c7U, 0x912eef4a5b587fdbU,
  0x481a127757dfdedcU, 0x7b503321b7360dc0U, 0xfb76967e942d6f4aU, 0xe73c2d459f75141bU,
  0xdd72f09e127dcf26U, 0x42ed77c0e2c8e9aeU, 0x6972414a027f1191U, 0xd489702d9ca75e5fU,
  0x4c7f2bc8ef08c216U, 0x34b6a13da422b30eU, 0xa6ce5a892eed9a94U, 0x459e327f98461d74U,
  0x531f7cf9cc728b29U, 0x5a98235627933c1U, 0x87d13dabb5f14485U, 0x402ebac445492e35U,
  0xf43b7fe24c05018cU, 0xb9fc1aaff152b367U, 0xc1ff20086b736924U, 0xe513e11ae2ad2a81U,
  0xa91297b0ac006123U, 0x624105ef8f484e52U, 0xb821470b92304cc7U, 0x81848283b7c52810U,
  0x60b5ea5dec721303U, 0xe1e2f59d2aa15a75U, 0xc315a37aa1cf008cU, 0x1d7c4758aff223b8U,
  0xfcbe301d517307fU, 0x36a2bbf330bb3074U, 0x12bfa792613e2e33U, 0x92b6657f572dc8d8U,
  0xb9503b9b2fe9b902U, 0x489960d2fcd5e8adU, 0xb91e9a192e9295feU, 0x571f76f0f4bcf820U,
  0x1db206bfe39e253eU, 0x3f4c0f8612048141U, 0x2790a1819d690495U, 0x6bf8d92fa81bed51U,
  0x44d393639ba570c2U, 0x33c7bc23a221fb29U, 0xed7b0add4692e69cU, 0x5bed46eb35251bf5U,
  0x7f4d6e8c1d289ecfU, 0xa9f18dd6e973014bU, 0xa334751f626c96U, 0x719ab94c420149a2U,
  0x7f0657ed15adc8ffU, 0x584df07316b3a6a5U, 0xa4f7eb012b761a5fU, 0xe0dabbf391f3de4eU,
  0xbd736aaf0c0cd863U, 0x17ea39fb5ce6bc8fU, 0xffffdcb1c4047fe0U, 0x14c6dffffbaf9U,
  0x64da0000b1f2U, 0x1536dffffa017U, 0xffffa5e50000305eU, 0xffff6dd1ffffd89eU,
  0xffffd0defffe8252U, 0x1d79800010371U, 0xffff202bfffefd98U, 0xfffe843900006f65U,
  0xffffb0c3ffff5e79U, 0xffff0ab6ffffa0eeU, 0x113d3000071ffU, 0x11796ffff0179U,
  0xfbcb000069cdU, 0xfffef1b7ffff1f9eU, 0x14e6a10b00006fa4U, 0xcf81f38fe470b7cbU,
  0x6b2f94d3656fd694U, 0xd6d9556985082bd7U, 0xe7eeee1afabc0b14U, 0x755f6812701f2fbU,
  0xbc9ac28f03c6325U, 0xeff04f4830f9c256U, 0xbcaa66676d5ee149U, 0x737e94c6f890e060U,
  0xb57f7774fd1de96fU, 0xdbe9ae3146229574U, 0x8d6728d6f19bcba2U, 0x3a46c0d57645d267U,
  0x5868ca81f5155989U, 0xb65ce909644f3af1U, 0x5891cda27a33b88eU, 0x8ad72c6c150ff6edU,
  0xff82a6810c84620dU, 0x249aec5cf9c364baU, 0xa4f36e81b8c1e710U, 0x1d684a60d88401f2U,
  0x1f355694c7d7f916U, 0x9eebe6360c93631dU, 0x2d168e7ef7740baU, 0xe60453493f7fee75U,
  0xcf97eec060c33190U, 0xe7e735c99515f683U, 0x893b164585d4501aU, 0xf56da6e1bf0c5ba4U,
  0xfd28a312df5c0ed9U, 0x510f697f70fe70b6U, 0xb6c82f7f570165f4U, 0x63d5a4a45385fd2fU,
  0x2979ef3dc9d4e712U, 0x4c84e96a86c72e03U, 0x6b4b6dd75312abcU, 0x49bc886c5321693dU,
  0xf2f74a1ce95d2222U, 0xaceaa5bc8d81fc5bU, 0xea2d2372b043a8a8U, 0x248a2e91da63bd30U,
  0xfd81bd3068367792U, 0x5392ce2f3761ebb3U, 0x7f414e15d0df8b5eU, 0x74382deaa1c4d4fcU,
  0xe12246554a21bc94U, 0xe68f6b295a8f322aU, 0x85695da64c7153fU, 0xdb482279a8aec921U,
  0x7a6814a09c1ecaafU, 0xaf94ffef9fd8d8c6U, 0xdef3f0de81117a5eU, 0x5fbc2e0f76b35a0dU,
  0x4b6087d3311f4afcU, 0x2b8739e69ae61481U, 0x3b57a05bc928be64U, 0xbab83e47ade1c681U,
  0xa0616c21c9dbd6e0U, 0x773dddf98a71ef51U, 0xe220344519d87c2U, 0xf28dfae03f1bb03dU,
  0xa2a3cad9d0dfae99U, 0x8f81456297688bcfU, 0xc086ceade0a77948U, 0x818ed8afbf4d70bdU,
  0x2f65f707171ba99eU, 0x4e4c2ff012451955U, 0x344b633b6b9226e9U, 0xebcbbd265017a4a8U,
  0x824350d203f804e1U, 0xc681dad3611b4018U, 0x862ffb49eed2beedU, 0xb7fbb87cd340102U,
  0x7c42dce24c545fb7U, 0x775c000bb7da0764U, 0x7d6bea3d256c7643U, 0x731af831d4610481U,
  0x6a91077734721e0cU, 0x139ab15999e7c5ddU, 0xa9f538901929155eU, 0xc4100d999212fc0dU,
  0x73a35288c3e0e8eaU, 0x8110129f9f01e751U, 0x90fa7cf2f5b7d308U, 0x411c07d908f3fe16U,
  0xc987cadfcc2b815eU, 0x202af8590a5530fcU, 0x61f70f02f28ceaf5U, 0xb62cdb466b43dU,
  0xce81eb1c16536c88U, 0xd5be24e44c511416U, 0x88bcf5d8d6aba21U, 0xe20bacfd947fdd87U,
  0xddf044d2d669075U, 0xb39ee6e59d3bb8c6U, 0xe378424ba699f1a2U, 0x13eda71b410fed6cU,
  0x565aa860cee4c932U, 0x846abd7f32893ab8U, 0x5842bc794621dbbcU, 0x773445768fea0fd7U,
  0xb801b1fbabc1247fU, 0x733fd68c104dbbd1U, 0x584731524cd14752U, 0x9b6ee0c2548987fU,
  0xe6a3effceddf25d7U, 0x1ea77a1632d30942U, 0x604281677538f5a0U, 0xbddc2fd3d3be0e1eU,
  0xbb492c0167beb19cU, 0x219629b5ec3fcea2U, 0xb73ebe427c51c8dU, 0x59e67f0994c1e358U,
  0x8e962f66b104ad9fU, 0x9b97e6872e39c440U, 0x99fb3dd1c66c5d4eU, 0x81af48f5bea07297U,
  0xafe5cbc07569bda3U, 0x13759ad4f2c36e4U, 0x119ccacc58fc23b3U, 0xc7207e81de009fc1U,
  0x36f6e8a15f4ec6c0U, 0x97df366f66d9e0afU, 0x4210f249efe5d7e5U, 0xa64da6d0d596c55fU,
  0x7b1769a25ef1cadfU, 0x7a0de52ce40970f2U, 0x1b6edb5f37f08U, 0xffff0e8bfffe23dfU,
  0x2d00afffe48ecU, 0x98b1ffffe815U, 0xffffc063fffd9960U, 0xfffff358000163f9U,
  0x1bcd8fffd93b6U, 0xbe44fffffc06U, 0xdf7c0002d2b7U, 0xfffcc6340000a1fbU,
  0x38f73fffda645U, 0xffff57ad00006e94U, 0xfffe504d00033a72U, 0xfffe765bfffe2bfbU,
  0xb2c00001c387U, 0x2574d0001577aU, 0x6f9d199fffeb5abU, 0xc0e5853d7f315dfbU,
  0xacac5ea9964f85c1U, 0x1ee8fb6f58551103U, 0xdd087bc704a74f40U, 0x38c4815aa35f16a9U,
  0x27f2a25c471c9faU, 0x167fa1370a050d7fU, 0x9124ae3781f918c0U, 0x88d7fb3fd0394f85U,
  0xd6897fa7f7b9e88cU, 0x455ed47f7f037e52U, 0x9abf2b16a97f00faU, 0xfd0842ada6ab7f7fU,
  0x6292b27f7ff16883U, 0x379dc6a22530814bU, 0xd304da005fc19f50U, 0x11ddff92efa07748U,
  0xc3ddf697de159309U, 0x7f6d32d2fc39d052U, 0x6740dddbfa671f4aU, 0x5c810ec1b66c6ae3U,
  0x81632e7397417af9U, 0x3b26425c257ffefaU, 0xb2cc00b469013162U, 0x81814181abd27005U,
  0x81d93525277fb181U, 0xcc663d1c5ea7a5c1U, 0x81b77ffc425bdb81U, 0xe35b3a96277f42d9U,
  0x68df48a1515e8164U, 0x2961812e6702d032U, 0x93819c81e35481eaU, 0xbe61515afc93a72cU,
  0x8ca75cdb91fe9497U, 0x92bf13ad06bfcaeU, 0x3e483cc04a03U, 0x3770fffffdeaU,
  0xf9c000075eeU, 0xffffdcf7ffff7714U, 0x21590000344fU, 0x331ffffff798U,
  0x64720000398aU, 0xffff97a800005a06U, 0x9dd000028c7U, 0x4399ffff9bd0U,
  0xffffbfe6000051ceU, 0xffffafbe00002c8fU, 0xffffa512ffffa207U, 0xffff8d6a0000208cU,
  0xffffe688ffffae4aU, 0xffffd224000003cfU, 0xc4697abbffffebaeU, 0xbb3f6954a02eb71dU,
  0x7fd5e4033ae7ef58U, 0xadfa254e5b843694U, 0xda851fbfd83c319fU, 0x217f990c88debf2cU,
  0x3f7df8ed5d958f5eU, 0x790961b68b9fd832U, 0x5fe7c9f5ed0c67b9U, 0xe8be181fdc3613dU,
  0x428c911d131fd640U, 0xf7173817e66014e4U, 0x1a65f3ec0875d40bU, 0xe7d70c0afb36aad4U,
  0x89a5e2cd9aaeb81U, 0xf66d252ae119c5dbU, 0x1fcee5961dd6f69fU, 0xd6cb302f937199cbU,
  0xc4d2b23f28eaf24bU, 0x2d9c9e781a49432eU, 0x1cacbebb457f5b29U, 0x97e70cde12b3048bU,
  0x959cdf55c481789eU, 0x6c8fbf9a60eac339U, 0x734285492014a3ebU, 0x137ecdcc3c26787fU,
  0xd9ab0ddc8c02acdU, 0x20e8ffa2fbef4f3eU, 0xd8e6739d484b9c7aU, 0xd6b7ce2fad0d2efcU,
  0xf31cc4bf8164af96U, 0x72bfbb8ce4cc63f2U, 0xcfb02d7fcd443b4fU, 0x311a424d9d52d252U,
  0x8b68475d1e7dd3fU, 0x7145a7af75332cbfU, 0x4f524e9bf582356aU, 0x967a98b6708718e4U,
  0x3bcafd747f15b013U, 0x7959fa14e9f44315U, 0x1a28183c0336894aU, 0xd9a2af86ccdab05eU,
  0x452710f73145e8d1U, 0xc4346edf8ebf6cafU, 0x30ecac05a47f0a78U, 0x8efd1c6216e02964U,
  0xb2e6dc4b42f7614cU, 0xcc7f5a933c5dadf1U, 0xa75ef98c1f072d5cU, 0x4b930a9490811b4dU,
  0xf963c9b370565aa1U, 0x27c60e6b6445628eU, 0x2ab64ffe06452d98U, 0x42996a0f6e192b7fU,
  0x993bb4923282534U, 0x7a16d4a6a7287757U, 0xf94f63cc472df4dbU, 0x20d8f1c08f538139U,
  0xd8b91bb91857769aU, 0x893bf42829cb4836U, 0x1cbac5360c320f63U, 0x7a8533050b4dcc3U,
  0x7f9d66c43dc4edb8U, 0xa7b76cc00f67f4a2U, 0xdf56f179cd371c08U, 0x811868e02b01f01dU,
  0x6f2c4e5f0d0a6f60U, 0x5d7e466e4b5f3d9U, 0x3963634ccb5ef272U, 0x2f1aafda90409820U,
  0xcea35e4c320173fbU, 0xf2c59781cd52ed33U, 0xaa6deaddc63cf364U, 0xd71d8a39fb4e74ebU,
  0x8a986b960f3fdf1eU, 0xd4c0b9dd0b941b81U, 0x41750e6123f3db68U, 0xd29a3c2ac7fae0ddU,
  0x74dc37a853c396edU, 0x759c419e81b810b8U, 0xba42b1560922ceb9U, 0xc2d07ae814342c3fU,
  0xb23052538bc0a490U, 0x830559c7af46b74fU, 0x91aa8a3a7f849d91U, 0xb1e82253c2b51e63U,
  0x6e7f096b3f75028fU, 0x89664459d2dd3191U, 0xdeefa3efcc114daaU, 0x4332aedf1b34bc43U,
  0x8dbac317c1187ab9U, 0xe41393c8927feba7U, 0x57657f55cf19307eU, 0xcd9aa958c10a7dd3U,
  0xb39fbc18c19faee4U, 0x50b2ce4dc45fdb58U, 0x5a3577bfd7cb594cU, 0x5c81d53f43262ab4U,
  0x1409a32310337e48U, 0xc8c29d02d27793f4U, 0xda46033513a766d4U, 0x4cb4d4b68cd981abU,
  0xf0bca7bc55fbc43fU, 0xb2339620d722b7abU, 0xe34ab761677db62bU, 0x8b0cefd71c45a68dU,
  0xadd1e55aaf53c4b6U, 0x75d830d018c17f61U, 0x75de59282f4bf7a6U, 0xfded4449243ef1d9U,
  0x269d67aa367a763eU, 0x4976cdfc574e451U, 0xb4738e6381893f92U, 0x56c06c918f0df52fU,
  0x9a773697517f102cU, 0xd0fc3346397523b2U, 0xf8cbe91c042c0ed5U, 0xa30e4e565bffd6d9U,
  0xecb7c0868ce0e3ebU, 0x8a6963d52e02c4bfU, 0x1e60bbaa1188bd7fU, 0x73d49e09c4e1765bU,
  0x49a85cb68bb8cd9cU, 0x3d4f8119b1172e66U, 0x71a28bc042ae2ce4U, 0xe45cbcb3c4cd074cU,
  0x554f9937e54f943U, 0x35c4ff927881130fU, 0xffffb5c175f63c75U, 0xffffe35300003d40U,
  0xffffd56500006666U, 0xffff7d2e000126fdU, 0xffff95f0000093b1U, 0x605ffff73f7U,
  0xffffe7fcffff56f5U, 0xffffc997ffff1e4dU, 0xffff101100002e12U, 0x7381ffffc51eU,
  0x8817000057ceU, 0x83c6ffffdc08U, 0xffffce9000001174U, 0x10750000c5a8U,
  0xffff65f8ffff764fU, 0x2c450000b41cU, 0x79cd810effffb20eU, 0xe94fdcffc972609fU,
  0x4f4a43fc23c16529U, 0x202aa32aa0881641U, 0x2f54e39f19574661U, 0x146108e4c614d0bcU,
  0x81a3ecd69eacb649U, 0x8a3bb45bd275379U, 0xecd4a0d2afc65819U, 0xb89c180de6b1e44cU,
  0xdb9bd6accaa64e41U, 0xe373cd696c76857fU, 0x1a8c81144ae32c96U, 0x6e16d0f8da5e491cU,
  0xbdfdb7fc5eef9f19U, 0x24f9ab59dc834f1U, 0xa6273234be34661eU, 0x38bb115f0a16258U,
  0xc061568f8a3c396dU, 0xb67d5cf1989d3ab5U, 0xa0459e4f049b8170U, 0xab5ca554c234f49cU,
  0xaaa0e8e420afadf3U, 0x2d2799dc9212b0cU, 0xf29736f38192111fU, 0xc9dd71f984673afaU,
  0x86859afaa0837ac2U, 0x23837f737b5747bfU, 0xc776d82139e5f10aU, 0x415a1fef54ce23ebU,
  0xecf3b565561f9633U, 0x135900ef7f4f8953U, 0x166c16fa1af3b355U, 0x137f9e32ef485f64U,
  0xf8e9586c267559a1U, 0xec213e1559b9fac7U, 0x466ec7b0690bc53U, 0xf6d0707f6c96310bU,
  0xc4c8ffe0208549cU, 0x6cb0ee06e5fd89e4U, 0xd87f6e1162630a6bU, 0xfaf5449fe1c8e906U,
  0xa6e6f193acae3ceU, 0xa9a971c04203214aU, 0xfa21e8c54bfa1223U, 0x4962c56b7f168d73U,
  0x950c8ba7c313caf3U, 0x323b1fd3f04c9996U, 0xabad59737168cb5aU, 0xbd6a9b57fc04810dU,
  0xd04df27a0e9f9feaU, 0x3cea87c1e5033a1eU, 0x22e910b94867a948U, 0x55ef58231a6d4822U,
  0xab4f677fdcdc523bU, 0x4050f37350681a3dU, 0x979ca1cff7faf93aU, 0xe4140e7c7803977cU,
  0x6639f6e604c2e77fU, 0xb158f5018dc7174eU, 0x64f3adc8ebb2f5c2U, 0xe427eb2fa16db2f0U,
  0x7659765d56ceb19dU, 0xfc9a25b65a377fc1U, 0xa69efee82044eb24U, 0xe790be9f023ca771U,
  0x9d49cc37bb4fec92U, 0xb305e95496f6377fU, 0xa752eb45b72b9bd5U, 0xa74e621feb7febfbU,
  0xd04027c655670e6eU, 0x1d932f18db2ce35eU, 0xd054d5f448dbcb66U, 0x81e9262b30061045U,
  0xb8668e71e15886a2U, 0xa7c5129b223d29d5U, 0xcedb7a2e63e0a9edU, 0x91c243f4f90514e8U,
  0xe99b5ab321dccc06U, 0xef6f2cadbeee47daU, 0x9dbb39c57f3a096bU, 0x33aab5f76b3d107dU,
  0x388e2fecee40a8f2U, 0x6f61e35108051b85U, 0x33f372427f5fc33dU, 0xae87887fd52c2ac8U,
  0xa0bd2d84a51374a1U, 0x36ec3240cfd4c41cU, 0xa416ba196939e1cdU, 0xe194ce819128615cU,
  0x1a1b8eb45077d9d5U, 0x5743c277f1a93ec0U, 0x55dd84642bba97b4U, 0x3da137ee47b05a13U,
  0x3aaa6a627161816eU, 0x83089d4243d9afdfU, 0x123f574b46342e57U, 0x216de9c396ff17b7U,
  0xe49e81ca272f3bb0U, 0x5a1077056c6b566eU, 0x307f4ab2213cca77U, 0x4da0f17c2f1d5badU,
  0x3a4c536e3aee134bU, 0x18d4d21153fb03ccU, 0x2232fead5c42c966U, 0x1269969ecb4dc3cU,
  0x9c0f5e0af82e7f53U, 0x81a12d9f06193c48U, 0x20abf79d64f010c4U, 0x5f7f5c1cf2d06b20U,
  0xdd61cf5c7199f2a5U, 0x6c98c5f5f8e43a30U, 0x3b6759bcd94896e6U, 0x1642c2937fa1a256U,
  0x78fe039dba1d9dcbU, 0x5b3c21b55875a8f5U, 0xda406f24d73f99daU, 0x7fbdf09666c811f3U,
  0x95c38c91aa554902U, 0x38b16b51d906b096U, 0x7451987ff1c851bfU, 0x14c314f4e3a6e3faU,
  0x752500eb07095b25U, 0xdce4f37f2fd0103eU, 0x6793a0d52800ac9eU, 0x7f43bf449947bdceU,
  0x263d4a2eacacea17U, 0x9d2883020ffa989fU, 0xfffdccfe089ca7d6U, 0x149230001c98aU,
  0x80810000e4fbU, 0x8a850002f65dU, 0xfffcd998fffd88a3U, 0xfffe3c65fffdb747U,
  0x3756ffff9a72U, 0xa8d7fffaee14U, 0x2d9adfffe8572U, 0x1070bfffd2d04U,
  0xfffeb92affffaeb5U, 0x1b6240000c9e4U, 0xfffd13c7fffde0feU, 0xffff4b77fffbdf1cU,
  0xffffc241ffff5116U, 0xfffeb90500012fb4U, 0x9588248b0002a685U, 0xffb6409e81e67fc2U,
  0xddeda9e49827291aU, 0xeb819ddbef04d43eU, 0xede1817ff0a5a25fU, 0xb784d81565ea789dU,
  0x5461e3a2cd6a1a3fU, 0x93118105ab100870U, 0xac1a4ca700e9fc81U, 0x8210a723fc81befdU,
  0x47467bed5c7f09ecU, 0x819651d1a581e86fU, 0xb9813fd9b33e348aU, 0x813ca16ef9224624U,
  0xaec581cd4fd7037fU, 0x25d2f4a4b687f5a6U, 0x4a3b3efb9a15814cU, 0xf5f2930cdcd29a2aU,
  0x9227227aa39ad1a4U, 0x93f48b182691b4b8U, 0xdf1397894f7f2091U, 0x3c81c797b8cb04fcU,
  0x810f4b9d8ecb395fU, 0x8ef3f8d085e6a8bcU, 0xc7d6bfd81d70dfbU, 0xd647f674ee8bdb8U,
  0xa81e17fafe32df3U, 0xe8f4112c7f9d3c7fU, 0x24863f2a410a45adU, 0x6a4132591ea9c9f8U,
  0xd71b086b0f717fc3U, 0xa1c21f7fb00ddaafU, 0x7f4a51f86e29c6b8U, 0xc76d1b81160ef47fU,
  0x66bba8d181e9fe0fU, 0xeb5c1c92194c8130U, 0x3498a34009f3U, 0xc98ffffcdaaU,
  0xad30000110fU, 0x493d00000547U, 0xffffea7a00000714U, 0xffffeeda000016dcU,
  0xffffe8d900002bbfU, 0xffffe715ffffc94aU, 0xfffff55100004ac3U, 0x13600001a70U,
  0xffffe96000001ca0U, 0x4aca000048b1U, 0x2bb800003f8bU, 0x31f300002329U,
  0x484100008a63U, 0xffffd6f00000155cU, 0xd52f8cc40000276dU, 0x4116d2d8f944b13aU,
  0x23a37ffaab1e299bU, 0x1962cc0bd05277e3U, 0xe2b6242349f9cd1fU, 0xc6bc2171850745dU,
  0x11e061d81739faf4U, 0x3e2c6ae181b306cdU, 0x7b359eed52d2a9f1U, 0x3c7ab40acc54e73cU,
  0x9b3e1f63b99fe93aU, 0x1afcb08d08569114U, 0xf432bee56f7fc059U, 0x580420b8d4173054U,
  0xdea4e45c24cc7226U, 0x55e681da818ab6e1U, 0x190981c111107d6dU, 0x66655de5f5d03449U,
  0xc81495183dbfc0b8U, 0x44e26851280a4c42U, 0xfeb8c9665e507691U, 0x431d1243bba9f61dU,
  0x438bf0f64f56de42U, 0x275d77819cd528d2U, 0x5d59e93c171e5052U, 0xf62a06f2094f259aU,
  0xd92ec2d67f254e3fU, 0x6e42719afdf5a7e1U, 0x51665248056e25aaU, 0x40ff94ee94aca2abU,
  0x8865f0f2ac2601b6U, 0x61232a8177b26229U, 0xe82f0be47b392633U, 0xfb287e86b093948U,
  0x579337dda177818bU, 0xfbecc7a1dd9fee0fU, 0x261177f61bd4d368U, 0xcb58939bece18f93U,
  0x2d877f6af3c20f31U, 0xbda94d78876b687bU, 0x29c360557a3f7decU, 0x3ed65ef88668e2a9U,
  0xdaf4ceea095358a7U, 0x205cfaeb8135aac0U, 0x28aca0baf4f51f5fU, 0x8945bbc18c8890caU,
  0x31b7abe51c1f7f56U, 0x2551558839c9d335U, 0xbb405a50a8eaee71U, 0xeae5ddd48939a7fU,
  0x52be2413e07306f8U, 0x3adf3ea1fb6de6aU, 0x6ca5de0c3c07db8eU, 0x7eaeddbb6aaa2b36U,
  0x99993f6e0f7881f3U, 0x6be20109904461eeU, 0xd9f30ba234cd523U, 0x84ce5ecbb682187fU,
  0xb66856c0c0ac9ba7U, 0x75622cbd078c0edU, 0x6f503b7a43e7d554U, 0x9294104a8106fc77U,
  0xf115f97235b670cfU, 0x5712c8a24a3eafc3U, 0x6293d0ff3242c724U, 0x5c499ea10614b8c7U,
  0x1bf59589f0da344U, 0x3d513c81d92ac2a8U, 0xa10dd3e79f6f0385U, 0x1561e7be79181218U,
  0x7de5933dee45c940U, 0x8b5ccf66749f86cfU, 0x183cdab781aaf1f4U, 0x85db14ff7fa43bb2U,
  0xe3980bfd59e13e8fU, 0xb802bc75ea6172aeU, 0x3cbbdd88fd2e04e1U, 0xb8a6d9016740ded3U,
  0x4b645e5cc6d87c96U, 0x58977f071f183aacU, 0x1da6c6305e0f11a4U, 0xfe63ec8b0ff4e098U,
  0x78ca75e84d3806cdU, 0x8ada370481a95f22U, 0xdcc13c25a33ba9eaU, 0xa267b2d42c81aa71U,
  0x8db145ccae2cc48dU, 0x76c2d60fb1e5906aU, 0x6bbeb2db2dd538beU, 0x44c478d4d3c253c6U,
  0x41066334610e28cfU, 0x41eb819d9710e979U, 0x83b8e0acb34c50c9U, 0xed59af61e32c27d1U,
  0x8b7b3f525c0b7f0aU, 0x4e34c38bb22e69b0U, 0x8b2de9046ed729bcU, 0xeccd89c953a18a5bU,
  0x41442e77d8794eb6U, 0x453c57946c4168fdU, 0x515638ebbcf781abU, 0x1dd93cdb49529938U,
  0x60df8cc06594796fU, 0x680e9d57583a0f79U, 0xe8081530814c9d99U, 0xdd14f5b64989d21bU,
  0xfde06691f4d293f7U, 0xed149feb811e55e6U, 0x6c8170d0c45460c3U, 0xa220acf1a4f2becU,
  0x372cc9f655d96d9cU, 0x465db42f71786ab3U, 0xa61220a654176bb8U, 0xd04de98b4803b80aU,
  0xa26a624b8251ef7fU, 0xa8c426c1d8598f08U, 0xab7954946acac8f5U, 0xa5f10cd660ab0c6aU,
  0xc9526f00f6ec506dU, 0x56b3f8685ecda5fbU, 0x51cee305f47fdb0eU, 0xcf4704473803f669U,
  0xd96c60b0fffdd420U, 0x7f91a5774be31dd0U, 0xbb796e68ac785909U, 0x547186f23a12e5f2U,
  0x977aa326ff37edceU, 0x4b784c9b239dfa81U, 0xffffda6358e79a90U, 0xffff82b1ffff7733U,
  0xffff28e8ffffec17U, 0xfffefcabffff873bU, 0xaf71ffff806bU, 0xffffc94dffff3858U,
  0xffffc084000113cbU, 0xc74dffff83e9U, 0xb455ffff211fU, 0x65080000676cU,
  0xb434ffffa3a4U, 0xffffc16100013f4cU, 0xffffd5f3ffffacbeU, 0xcee3fffeec90U,
  0x65f1fffe7ad8U, 0xffff11deffff2fd0U, 0x35174e8cffffc514U, 0xe8be86869d6e14c8U,
  0x2208030256eb21ddU, 0x262c347fc1daf40cU, 0xf05c6e55ebb2b2e6U, 0x8610d072ebeb8d7U,
  0xcbf25a90166d3e7fU, 0x6e50aa143922a0f8U, 0x7355138104293b49U, 0xc267fd093eeca23aU,
  0xed0fc7240b381842U, 0xdc4c56dd6e852dbdU, 0x88e6e2f46e3f0fadU, 0x4fe155b965e4885eU,
  0xd5a3e646d6ce29f3U, 0xa14fbc103f81cbcaU, 0xf6d75ad98724fd9U, 0x33e462ffbda2abdbU,
  0xac44de4e9881a061U, 0xafe0a811e2ea1ef1U, 0x74529accb8cd62e1U, 0xc54fb4b8f95c8150U,
  0x50a0e65b5c56a1c0U, 0xbadb7019d497e0caU, 0x9b646cc9d03e1e90U, 0x1813183f6b0fbf11U,
  0x1b089cfe7f32953aU, 0xed8e95f032fad7bU, 0x411046f0cd700100U, 0xb34bcde2396b43b3U,
  0x659fa9da325e6d67U, 0x3c1b813ea83a154dU, 0x46626e14f6d4068dU, 0x45192383acba76a6U,
  0x952cab95a5da0f46U, 0x2502f00692a7d0d2U, 0xe8b3a4a87f93446fU, 0x91e8450f9bece355U,
  0x442f2116e3d1bb07U, 0xea95042b1d501a22U, 0x861894a57fb342ffU, 0x15349e41d6643ba6U,
  0xec364528e194268bU, 0x7f6028c0fa9438d8U, 0x42c518a41ad3070bU, 0x437f1e9553b51ebeU,
  0xae59fa5d53c16bc7U, 0xdffc395ed401b4ccU, 0xc1822a6f663bb64U, 0x1096ec3b5bedba62U,
  0xa52f810671da52ecU, 0xf5deeb877be756c7U, 0x6e6e89e22d0a5713U, 0xacf6a3be3c6462fdU,
  0x9a948f9849efacbbU, 0x81409144c84215a5U, 0xf8b47e4214fb55fbU, 0xf98a759410ce9d26U,
  0xd36941a6df9681bcU, 0xbe1c1573592f3750U, 0x12ac497477273bc1U, 0x57b087d3686df881U,
  0x1cd95ecaf10df39aU, 0x6217409a19a41b23U, 0x145d44b3d6d08393U, 0x1648ff47dc10759aU,
  0xacade67ff3b6639dU, 0x2a143a40def92c3eU, 0xa5f06f1ae3f8cda3U, 0x4d2d9f8921c30f7dU,
  0x7be09c0a61bfabafU, 0x8ccabfd8cedbea06U, 0x3bf80bd5236481bcU, 0xe9b7bb147c233973U,
  0xaa4ea85309be821dU, 0xfabf490e9e55dc0U, 0xaa7d1d1f09667f38U, 0x9ce5f1da84797fb6U,
  0xf5cc573bc6d78daeU, 0xd2a91e91ba7559bU, 0x49d5f20e22934fa4U, 0xcae0446ca00d6cd3U,
  0x27e0fdc8b4cc2ab6U, 0x49485e137ff6f316U, 0x965fc075eceb8c08U, 0x63e474157fa5ceU,
  0x349873d88ecbbe51U, 0x20bbb40cffbce1a9U, 0xa93d57309ed310eaU, 0x75a28c98d76b3792U,
  0x432672c1b252e1c9U, 0x18e18120ac668770U, 0x19f21cb6ccf5ced4U, 0x81dc3b0ea0fc9fb9U,
  0x3b226b10baa1c261U, 0xbd6b56c4400ddf20U, 0xbdcf2513a3e05U, 0x32208a55107fec2fU,
  0x6ff84f31df4de14fU, 0x355fe7eb17ba22f9U, 0xe2493d7fafe4fcadU, 0x5b31e04f5df8f8a3U,
  0xfa4479bfe8ceabf9U, 0x89f56c11f66c42dcU, 0xbd81f568d44705a7U, 0xe847f059422ca7d6U,
  0xe8b4c11e7f94890eU, 0xc44ecfc29fa6933bU, 0x32a3581823c964e9U, 0x9036a59267b668dcU,
  0x9194a918cd050d81U, 0xcef83aaf08147536U, 0x89d0a051081854d4U, 0x60ea6025a039d933U,
  0xb0b2e7365cedf2c6U, 0xca277f13ae61bc7cU, 0x72014205ec723267U, 0x58bd2054a82b5baeU,
  0xee5bcb8d5bea6878U, 0x3afbfd106dc0e17fU, 0xc5f31f38c4bf3b6aU, 0xaa6be7c54fe7039bU,
  0xd4c97e878d812ecfU, 0xa2165f17a628f165U, 0xe0248cfb633f479U, 0x46f2cfa348db451fU,
  0xcb6370de570cf8cdU, 0x193a4ab2db818c8aU, 0x130e98db7c288U, 0xfffe00c6fffc9358U,
  0x2278e00020664U, 0xfffdb63a00013d11U, 0xc996fffe6634U, 0xf8eb0000ae75U,
  0xffffa1befffec0a9U, 0xffff6fb8000264f8U, 0xffff2c9c000133b8U, 0xffff767b00026c65U,
  0xffff8d210002269aU, 0x1261200015394U, 0xfffe34c9ffffbfc2U, 0x229f6fffe310eU,
  0xfffeab9d000171cbU, 0x12912fffc9f24U, 0x70372ad0001f5b2U, 0x2f15a8154e51cecU,
  0x2d0f7fa5a58819a1U, 0xffe44ffe5ff5333dU, 0x4bdba479721cf926U, 0xddc82c47dac92ba7U,
  0x7eb03c77a1ea53bU, 0x62ef06065e8188d9U, 0x52e67abff4f642c1U, 0xb403e228d4e32b7fU,
  0x47c896f963b0c10eU, 0x93776b2b2aced75eU, 0x7af337a79a3a243U, 0xe82fab0db49eaeffU,
  0x9d96449e8b262ffU, 0x5ef7f081112d2c4bU, 0x9c8168816f1ab4e9U, 0xa426d0f18a4e87c1U,
  0x79fda7b0713c5e8dU, 0x9fc93558eeab25f5U, 0xc6f77f2d81043e31U, 0xfb9681fadf2d7235U,
  0x9a000817f9642b4U, 0xc61e7f09012038e1U, 0xe536bdb22b94b97fU, 0xb33d3b5c81c27fb1U,
  0x570f085cd4f7f681U, 0x557f57df81b9dd7fU, 0x7fa88ad73cd33763U, 0x1f81f8c9a47f7d04U,
  0x7f7faaf81c7f7fd2U, 0x9468b3abe6d77f15U, 0xb347314d9eccf583U, 0x7f348e1edb0dcdc9U,
  0x790db40b8cd71b4fU, 0x81f75ef9cc51b057U, 0xfffffb0692817f4bU, 0x47beffffb843U,
  0x1f590000026aU, 0xfffffb27ffffcefcU, 0xfffff36a00006f84U, 0xd94000037e7U,
  0x50d200001c3bU, 0x3422ffffb354U, 0x2cdbffffc32eU, 0x6bb0000252cU,
  0xffffab94ffff7146U, 0x2ad1fffff4adU, 0x2078fffffec4U, 0xffffcc1affffa0e6U,
  0xffffc4db00002e51U, 0x5b28fffffa5dU, 0x227beaaaffffdc3eU, 0x6e717cfeedce817bU,
  0xa106b9aaed881079U, 0x29004b07ca72ab5fU, 0x757f7ae3adf5dabfU, 0x6da7b9028d8c496bU,
  0xf45de77b1db5a095U, 0xb3132a4682e6696U, 0xc091198869069962U, 0x3b8839ea4a9f7f2dU,
  0xa0befbcae7694544U, 0x6657a7590f25dd47U, 0x95a2b48eba9f451cU, 0x1a589881d6622606U,
  0x26a21e1cb65decdcU, 0x1c784624ca731e41U, 0x2556f9b3ce1d5724U, 0x66d5e76463665be8U,
  0x3320b77e52814d3eU, 0x435a231da76febc7U, 0x211fd5f7d8bfcc9fU, 0x39e662bbb70e21abU,
  0x4cdd60402981b589U, 0xf19b015ffcd6ac2aU, 0xb1b1ac7952419d5U, 0x5f5a76a119f02bddU,
  0x1bee4d361cec318eU, 0x92f6fefc6712415eU, 0x4d862278cd6cec81U, 0x3920e7f8c3c1afc8U,
  0x93634e6fb1c38bbbU, 0x18bea79a21a21a32U, 0x8beb2a93524d7f9eU, 0xeb6bac58e4abdba7U,
  0x4b3c838fe5327fd1U, 0xca696da60aec98baU, 0xe650fd033b994bf3U, 0x69ad6032a54cab4bU,
  0xeb5bc173a953a5e0U, 0xaecf7fe19e5ecbdfU, 0x37209d6a2cca0933U, 0x95ae939532f1fabdU,
  0xe2be08611006845eU, 0x32d893b8916e6215U, 0xbe71ffd181951dceU, 0xd3843bef47b707c6U,
  0xbec7ddce4861bd58U, 0x57fe74cf8d2561bcU, 0x3e9a173c375eec7fU, 0xd58f4d53e8b6c35bU,
  0x97bf01491d70ff7bU, 0x9d26e1b9ad4db530U, 0x504eaed4e78140efU, 0x93f950f7b2e3e1b6U,
  0x25e52d5f8caa0bb4U, 0xf29026814bceca91U, 0x944e551b19b85edU, 0x81514d8cea614b10U,
  0x2427a06bcbe40ebU, 0xd7d39ed470ae8252U, 0xcbca078eb25f3f3eU, 0xf2d5dced5bbfae7fU,
  0x81ae5e9b1be22d40U, 0xac6f2d90dde9fd20U, 0xa74c70f5bd457eeeU, 0xdba9f095fc8195d3U,
  0xc3bbf20560c16cd4U, 0xe2235e6eb0e4b7a5U, 0x569a81886a1ab298U, 0x92077a6e0d4f87dcU,
  0xa8ecd1211de3716cU, 0x182de00dbcdd457cU, 0xa5a5f9a0ae3be74cU, 0x9e59d125816cedf8U,
  0xddf9dabeab357817U, 0xb178287c8d9c1052U, 0x56791821d915652aU, 0xff711c3a228cff77U,
  0x824581e0fc6c7090U, 0x2b816f3623fad64fU, 0x4e951a6f785a4edbU, 0x6f47ad762aca3875U,
  0x34ca9951f839b85eU, 0x3247e581ed5418b8U, 0x26975d617ba2e5b1U, 0x2318d34276abdc6bU,
  0x2344dfba1c189eebU, 0x3f0a4c4bb9dcf67fU, 0xfb45a044e0d3e78U, 0xbfdd5eb3f50dc586U,
  0xba51f988e84f3387U, 0xb9df7f298456a4f4U, 0x4e2d31a4f96615f7U, 0x3bc1289e9ce2b437U,
  0x15bb0b1ebfbc0081U, 0x3b21fc65618dceb8U, 0x87237710bd0a2e00U, 0x42f41ba38ad6fcebU,
  0x93916671302e1c8bU, 0x957fbe6687e3b2f4U, 0x5917d9950b7e83afU, 0xb4e27f11f561e821U,
  0x5f9582531b75cdceU, 0x48b931b8814d6907U, 0xc5105181373ae86eU, 0x5b1a962d243df8f7U,
  0xdedc78e2b6b4bb3dU, 0xbf9cee392225f03cU, 0x53b1636264defda2U, 0x40de7b70167ec664U,
  0xa514dd40e79418b6U, 0x847f27ed76b62273U, 0xfb2f864e6c2d63e9U, 0x7f6a79dfdeeaaefeU,
  0xd2e10a556007bbe9U, 0xb5c2d34f6f73779dU, 0x3fabc8e416ef9b21U, 0x891fb94fd7c0e2b0U,
  0x16e32d297f376761U, 0xd94698c673ac0629U, 0x520cf84abaaad7b8U, 0xf10a44ebf07d891U,
  0x8f1142b4ee08077aU, 0x7f5da0da1123eb7bU, 0x127f574004001163U, 0x4a99e866a6c1cd43U,
  0xcc266dad711cb23aU, 0x1bc190c0ab38d17eU, 0xffffe7662306350aU, 0xffffe38cffff90e0U,
  0xffff66bbfffff4caU, 0xffff932200005198U, 0x7c81000056bbU, 0xa47efffff235U,
  0x1b5effffca39U, 0xffffc9ac00010cadU, 0x8f7a00004728U, 0x3b88ffffd954U,
  0xffff857fffff30f4U, 0x557affff3b2fU, 0x6493000063d3U, 0x3992ffff9597U,
  0xffffb918ffff2250U, 0xffffa22000003deaU, 0xbcdddacbffffbb55U, 0x5c02aeee246c49dcU,
  0x8242fcfd4c6818f6U, 0x53d2335336fd7f50U, 0x819c64c3447f90f2U, 0xddb6bd5353114e0bU,
  0x124009c7b2c6e963U, 0xd01fab66c04bf0bcU, 0x65948133af5d6e58U, 0x3f9d84d6dd77f864U,
  0xacb1904e2fbd440eU, 0x24f42f7faa5c8e7U, 0x297f1ccab1476bb7U, 0x6b4f9a41d9bd1e5eU,
  0x2d4acb42f1d663dfU, 0xf172574ce00524e2U, 0x513c40e02691c338U, 0x10d806377502810cU,
  0xccdbf925c7f55db5U, 0xe7ceef5deb90a989U, 0xe553370fd4abcf31U, 0x8581ab133c932ddaU,
  0x24cd3f50b13d4a05U, 0xa9b88fdabea2b4cfU, 0x422f40df57ae35c8U, 0x96a2031b7cdb1c18U,
  0x471d205f7b7809daU, 0xfc598d7f33d4dcd5U, 0x1aa662b8bdcdd934U, 0x64200047fd64fea7U,
  0xdad482b485bb6d2U, 0x8128ae8f41a9124cU, 0x461d4418b2ddcc45U, 0x470c1f6157117f07U,
  0x96e444b2254aecc1U, 0x50fa6ba49951f90bU, 0xa7f643ca6eb14671U, 0x7f50531569a056a5U,
  0x1c424a92b60738d4U, 0x1aeb732c6c6ef3fdU, 0x1427c5c1deaee0ddU, 0xdf005310e7fb528fU,
  0x2028d7fe7fada5d7U, 0x6c6fcac6d144b772U, 0x5de0310a9c4fe4ccU, 0x7905fc4bc7ad1b26U,
  0x64fea98141742ce8U, 0x295caf3488913836U, 0x2028ed8c1beaf7ddU, 0xd6842e2d868e2385U,
  0x6e4220fe03134381U, 0xbd988f9597005fa0U, 0xd4fe159052d11ac3U, 0x301e1fb12e811b5cU,
  0x99119142362d944fU, 0xa7e0349f5dafb05eU, 0x749a198351074ff8U, 0x79ba3f7bde0b4ec7U,
  0x8a27a471bb2d176eU, 0x1a204faf65badc50U, 0x5e08fffe81e7066fU, 0x51263e277fc1e664U,
  0x9a9ddc7235100c19U, 0xd11019f42d0fc09U, 0xfe917504b0f37b54U, 0x147f4d31748e2bccU,
  0xe143d838762e971cU, 0xd7acf83c701cce82U, 0x5e8c954dfee8d34eU, 0x6b645ede15ca2a5eU,
  0xa6eeae3cb77f251dU, 0xaebf0be86194f32fU, 0xd0e040130d1a1ee3U, 0x868a97f3de701deU,
  0xc4ac3ccd4675dbc6U, 0xea0c44d76de061cbU, 0xaa71431a27be48c6U, 0x6dffd0e1deef1934U,
